<pad>	0
<s>	0
</s>	0
<unk>	0
▁ক	-0
াৰ	-1
য়	-2
▁প	-3
▁আ	-4
▁ব	-5
▁স	-6
্ৰ	-7
িল	-8
▁কৰ	-9
▁হ	-10
্য	-11
ছিল	-12
তে	-13
▁অ	-14
ান	-15
ৰু	-16
▁দ	-17
▁ম	-18
ৰা	-19
▁এ	-20
্ত	-21
▁ন	-22
▁চ	-23
▁আৰু	-24
্ব	-25
িত	-26
▁কৰি	-27
িক	-28
▁তে	-29
▁য	-30
ওঁ	-31
▁তেওঁ	-32
▁প্ৰ	-33
▁বি	-34
াল	-35
িয়	-36
িন	-37
▁গ	-38
ৰ্	-39
▁জ	-40
▁শ	-41
▁ল	-42
▁ভ	-43
▁বা	-44
াই	-45
ষ্	-46
▁হৈ	-47
▁উ	-48
াত	-49
ীয়	-50
াম	-51
▁কৰিছিল	-52
ন্	-53
ছে	-54
▁ই	-55
▁ৰা	-56
োৱ	-57
তি	-58
লৈ	-59
ায়	-60
▁সম	-61
ৰি	-62
্ষ	-63
টা	-64
▁ত	-65
টো	-66
▁কৰা	-67
াক	-68
নৰ	-69
কল	-70
াপ	-71
াহ	-72
▁নি	-73
▁১	-74
ষ্ট	-75
ৰে	-76
্র	-77
▁হৈছিল	-78
্থ	-79
বে	-80
নত	-81
্চ	-82
াস	-83
দ্	-84
ণ্	-85
ীৰ	-86
▁অন	-87
জন	-88
্প	-89
েল	-90
ৰত	-91
ুল	-92
▁পৰা	-93
▁বাবে	-94
ক্ষ	-95
▁এক	-96
▁এই	-97
▁খ	-98
▁তেওঁৰ	-99
াব	-100
োক	-101
েই	-102
োগ	-103
োৱা	-104
▁ৰ	-105
িছ	-106
াজ	-107
িব	-108
ুৰ	-109
▁থ	-110
▁ফ	-111
▁কৰিব	-112
সকল	-113
ক্ত	-114
ভা	-115
খন	-116
▁সং	-117
ৱে	-118
দ্ধ	-119
▁হয়	-120
মূ	-121
▁ছ	-122
ন্দ	-123
ণ্ড	-124
▁আছিল	-125
িৰ	-126
াৰত	-127
▁ৰাজ	-128
াদ	-129
োৰ	-130
িয়া	-131
▁ব্য	-132
োন	-133
েত	-134
মূহ	-135
াৰে	-136
িচ	-137
না	-138
কা	-139
স্থ	-140
▁অভ	-141
▁এটা	-142
ৃত	-143
সমূহ	-144
▁পৰি	-145
▁আপ	-146
কাৰ	-147
্ল	-148
▁ভাৰত	-149
মান	-150
▁ইয়	-151
▁কৰে	-152
▁ধ	-153
▁সৈ	-154
েশ	-155
িছিল	-156
▁১৯	-157
▁চনত	-158
েন	-159
ুন	-160
ন্ত	-161
াধ	-162
ষ্ঠ	-163
স্ত	-164
▁অনু	-165
্ভ	-166
▁পৰ	-167
বি	-168
▁হৈছে	-169
▁মু	-170
▁সৈতে	-171
▁ট	-172
▁ড	-173
▁২	-174
াপে	-175
ৰণ	-176
▁ঘ	-177
▁হিচ	-178
ীত	-179
াগ	-180
▁ও	-181
▁হিচাপে	-182
▁উপ	-183
্ম	-184
ুত	-185
▁আছে	-186
▁দু	-187
▁প্র	-188
▁সময়	-189
▁পা	-190
▁ব্যৱ	-191
িন্	-192
▁চল	-193
াৰণ	-194
িত্ৰ	-195
▁প্ৰতি	-196
্ৰী	-197
▁অৱ	-198
িট	-199
চ্চ	-200
াৰা	-201
াভ	-202
▁পিছ	-203
▁আৰ	-204
লোক	-205
ড়	-206
কে	-207
ংগ	-208
▁কৰিবলৈ	-209
মা	-210
▁তেওঁলোক	-211
▁চনৰ	-212
""	-213
০০	-214
ঞ্চ	-215
▁অধ	-216
▁আন	-217
▁দ্ব	-218
লত	-219
দি	-220
ৰৰ	-221
▁থকা	-222
▁লগ	-223
▁বিশ	-224
কৈ	-225
▁সাম	-226
ুলি	-227
▁যি	-228
ীয়ে	-229
▁কৰাৰ	-230
ক্তি	-231
▁দে	-232
্ক	-233
ভাৱে	-234
ীয়া	-235
▁স্থ	-236
বোৰ	-237
কী	-238
্যৰ	-239
িম	-240
▁যে	-241
▁ইয়াৰ	-242
ত্ত	-243
হাৰ	-244
▁শ্ব	-245
িং	-246
েট	-247
ৰ্ণ	-248
▁নিজ	-249
▁আপোন	-250
প্ৰ	-251
▁ভিত	-252
▁আক	-253
▁স্ব	-254
ৰ্ব	-255
োৱাৰ	-256
ম্ভ	-257
▁আগ	-258
য়ে	-259
যোগ	-260
ানৰ	-261
খ্য	-262
▁আল	-263
▁অভিন	-264
ুৱ	-265
াৰৰ	-266
▁মহ	-267
▁পিছত	-268
▁কে	-269
্ৰে	-270
▁বুলি	-271
ম্প	-272
▁জন	-273
▁পাৰে	-274
▁আপোনাৰ	-275
সকলৰ	-276
ংশ	-277
দ্য	-278
াইছিল	-279
লে	-280
্ৰম	-281
থম	-282
বা	-283
▁লাভ	-284
▁বহ	-285
▁তেওঁক	-286
ছৰ	-287
ৈছিল	-288
▁সেই	-289
িপ	-290
▁গু	-291
▁বে	-292
াট	-293
ত্য	-294
ষ্ট্ৰ	-295
্ট	-296
▁নাম	-297
েষ	-298
কৰ	-299
▁বিষ	-300
সকলে	-301
▁হোৱা	-302
▁যু	-303
▁আৰম্ভ	-304
াৰি	-305
▁খেল	-306
নে	-307
্জ	-308
ম্ব	-309
ছত	-310
িশ	-311
ীক	-312
িয়ে	-313
▁সম্প	-314
▁নিৰ্	-315
গৰা	-316
ান্ত	-317
▁চলচ্চ	-318
▁আহ	-319
্ন	-320
ৰ্থ	-321
▁সহ	-322
▁এজন	-323
▁ভিতৰত	-324
তা	-325
েৰ	-326
ুনি	-327
ণ্ট	-328
▁চলচ্চিত্ৰ	-329
গ্ৰ	-330
▁কো	-331
▁কাৰ	-332
▁ক্ষ	-333
াধাৰণ	-334
▁প্ৰদ	-335
▁ওপ	-336
▁প্ৰথম	-337
ঢ়	-338
▁ৰাজ্য	-339
ধান	-340
িন্ত	-341
গত	-342
▁লোক	-343
▁যদি	-344
ণৰ	-345
ুক	-346
▁পূ	-347
▁সময়ত	-348
লৰ	-349
ুক্ত	-350
▁চৰ	-351
খা	-352
দিন	-353
ৱৰ	-354
▁আপুনি	-355
েক	-356
▁পু	-357
▁ভাৰতৰ	-358
ান্	-359
স্থিত	-360
▁অধিক	-361
▁থাক	-362
গৰাকী	-363
ুম	-364
ৎস	-365
▁না	-366
▁অভি	-367
ূপ	-368
▁নিজৰ	-369
তিক	-370
▁তথ	-371
▁ব্যৱহাৰ	-372
▁দিয়া	-373
▁এখন	-374
টোৰ	-375
▁কেই	-376
িন্তু	-377
▁সাধাৰণ	-378
▁ৰে	-379
▁ভাৰতীয়	-380
িন্দ	-381
ৰ্শ	-382
▁ওপৰত	-383
▁পাছত	-384
▁কাম	-385
▁কিন্তু	-386
▁সু	-387
▁অভিনয়	-388
▁সে	-389
য়ো	-390
াৰী	-391
▁দিছিল	-392
▁বিচ	-393
▁শাস	-394
িয়াৰ	-395
্গ	-396
▁মাজ	-397
▁অঞ্চ	-398
িবলৈ	-399
▁পাৰ	-400
▁সন্	-401
োল	-402
▁তেওঁলোকৰ	-403
েৰে	-404
ানী	-405
োধ	-406
িনি	-407
সমূহৰ	-408
▁দ্বাৰা	-409
▁ছবি	-410
ীন	-411
োনো	-412
ূৰ্ণ	-413
ত্ব	-414
▁কা	-415
▁বিশ্ব	-416
ঞ্জ	-417
ালে	-418
ৃত্য	-419
নি	-420
▁উত্ত	-421
ল্ল	-422
ুট	-423
োহ	-424
▁""	-425
ালয়	-426
▁অস	-427
ৰুদ্ধ	-428
ভাৱ	-429
াচ	-430
ন্ধ	-431
াপন	-432
▁মান	-433
ূল	-434
ন্য	-435
▁জল	-436
িজ	-437
▁ফলত	-438
▁স্থান	-439
াঁ	-440
দৰ	-441
হে	-442
▁পৃ	-443
▁ব্ৰ	-444
▁বাহ	-445
ছি	-446
াউ	-447
▁যাৰ	-448
োপ	-449
দেশ	-450
াইত	-451
ৃষ্ট	-452
ৰুদ্ধে	-453
▁কৰিছে	-454
▁বিৰুদ্ধে	-455
াসকল	-456
▁অংশ	-457
▁বিভ	-458
োচ	-459
ীৱ	-460
▁মৃত্য	-461
খনৰ	-462
শ্চ	-463
▁গ্ৰ	-464
▁২০০	-465
খনত	-466
▁সংগ	-467
▁সেন	-468
▁নিয়	-469
ৱা	-470
িছু	-471
িকা	-472
▁কিছু	-473
▁২০	-474
পাত	-475
ন্ত্ৰ	-476
▁চে	-477
ন্দ্ৰ	-478
্ঞ	-479
ালৰ	-480
▁যুদ্ধ	-481
িন্ন	-482
▁অন্য	-483
▁এগৰাকী	-484
ঙ্গ	-485
ঙৰ	-486
বাদ	-487
্বৰ	-488
লা	-489
েখ	-490
মাণ	-491
্ৰমণ	-492
▁হিন্দ	-493
হৰ	-494
▁"	-495
▁বৃ	-496
▁প্ৰায়	-497
র্	-498
ৰ্ম	-499
▁আই	-500
▁ভূ	-501
▁পৰিচ	-502
প্ত	-503
▁লাগ	-504
▁গুৰু	-505
্স	-506
▁মে	-507
▁কোনো	-508
▁অনুষ্ঠ	-509
▁ৰাষ্ট্ৰ	-510
িক্ষ	-511
▁দিন	-512
▁যায়	-513
োম	-514
ধ্য	-515
ৰাজ	-516
বাহ	-517
▁তাৰ	-518
▁মোগ	-519
▁সকল	-520
▁দৰে	-521
▁বিজ	-522
ৰণৰ	-523
▁হোৱাৰ	-524
তিৰ	-525
য়া	-526
▁কৰক	-527
সকলক	-528
ৰিয়	-529
▁বছৰ	-530
▁অন্ত	-531
।"	-532
▁উদ্য	-533
ালী	-534
▁কেইবা	-535
▁গৈছিল	-536
▁ভা	-537
ষণ	-538
সায়	-539
▁লগতে	-540
▁কম	-541
েষ্ট	-542
▁পুনৰ	-543
▁সাধাৰণতে	-544
হণ	-545
▁আট	-546
িতীয়	-547
িভ	-548
ত্ৰ	-549
▁জয়	-550
▁ধৰি	-551
▁ৰাখ	-552
▁অনুস	-553
▁থাকে	-554
▁নাছিল	-555
▁শ্বাহ	-556
ব্	-557
▁তেওঁলোকে	-558
▁উদ	-559
▁ওচ	-560
াবলৈ	-561
▁কোম্প	-562
▁সহায়	-563
▁দ্বিতীয়	-564
মৰ	-565
▁ঠ	-566
াত্ৰ	-567
▁বিভিন্ন	-568
জা	-569
▁বেছি	-570
▁অঞ্চল	-571
▁ইয়াক	-572
েহ	-573
ালত	-574
▁আম	-575
▁সি	-576
▁অপ	-577
য়াৰ	-578
▁উৎস	-579
▁দক্ষ	-580
েতিয়া	-581
ৰ্ক	-582
ষ্টা	-583
কাশ	-584
ভাগ	-585
শ্য	-586
▁নেত	-587
োঁ	-588
স্য	-589
▁বৈ	-590
ৱৰ্ত	-591
তিয়া	-592
▁৩	-593
ফল	-594
িণ	-595
াহত	-596
িলে	-597
োৱে	-598
▁লৈ	-599
▁উল্ল	-600
▁ব্যৱসায়	-601
ৰী	-602
্বী	-603
▁পৃথ	-604
▁মাল	-605
▁বহুত	-606
▁সকলো	-607
িৱ	-608
োট	-609
▁(	-610
ৰিক	-611
▁বিপ	-612
দ্দিন	-613
▁নত	-614
তাৰ	-615
▁বঁ	-616
▁১৭	-617
▁ক্ষেত	-618
▁ব্ৰিট	-619
ানে	-620
▁পোৱা	-621
▁মোগল	-622
াতে	-623
▁ছে	-624
▁যোগ	-625
াইতকৈ	-626
দ্ৰ	-627
কাৰী	-628
▁যদিও	-629
▁দেশ	-630
▁কাৰ্য	-631
▁উল্লেখ	-632
▁আটাইতকৈ	-633
▁সংগীত	-634
▁নহ	-635
▁দেখা	-636
▁নতুন	-637
াৰ্	-638
▁বিশেষ	-639
▁বিষয়ে	-640
▁লি	-641
▁জীৱ	-642
ৃষ্টি	-643
▁মুখ্য	-644
মু	-645
▁পুত	-646
▁ষ্ট	-647
▁মাজত	-648
ৱেশ	-649
▁ৰূপ	-650
▁দল	-651
▁ক্ৰ	-652
▁লগত	-653
▁বিষয়	-654
শ্ব	-655
স্ক	-656
▁দিল	-657
▁কল	-658
▁বৰ	-659
▁বহু	-660
য়োজন	-661
যুক্ত	-662
▁গুৰুত্ব	-663
িলা	-664
▁পৰিচাল	-665
াৱ	-666
▁পদ	-667
▁তেখ	-668
▁২০১	-669
▁সম্ভ	-670
▁পূৰ্ব	-671
ক্ষা	-672
▁হাত	-673
গু	-674
▁এইটো	-675
▁বঁটা	-676
▁মাৰা	-677
িটাৰ	-678
▁বহুতো	-679
োজ	-680
টোত	-681
্তি	-682
▁বিক	-683
▁মূল	-684
▁পুত্ৰ	-685
েচ	-686
িছে	-687
কাৰৰ	-688
ান্ধ	-689
▁অতি	-690
▁উত্তৰ	-691
▁ব্ৰিটিছ	-692
তম	-693
যু	-694
ূৰ	-695
ৰিয়তে	-696
▁মাৰাঠ	-697
▁আক্ৰমণ	-698
▁জৰিয়তে	-699
বলৈ	-700
লাই	-701
ৰাই	-702
▁মন	-703
পূৰ্ণ	-704
গৰ	-705
থা	-706
বৰ	-707
াণ	-708
েনে	-709
▁বছ	-710
▁সৰু	-711
▁সৰ্ব	-712
▁মৃত্যু	-713
ন্ন	-714
▁১৬	-715
▁১৯৯	-716
▁অৱস্থিত	-717
বাৰ	-718
াইক	-719
শ্চিম	-720
▁অভিনেত	-721
▁ক্ষেত্ৰ	-722
▁ৰাষ্ট্ৰীয়	-723
জে	-724
▁'	-725
িতা	-726
▁সদ	-727
ান্য	-728
্ৰাজ	-729
▁তিনি	-730
▁প্ৰশ	-731
▁শ্ৰে	-732
▁দিল্ল	-733
▁যেতিয়া	-734
হাস	-735
▁আদ	-736
▁ঘট	-737
স্থা	-738
িত্ব	-739
িস্ত	-740
▁ভূম	-741
▁শিল	-742
▁উচ্চ	-743
▁হে	-744
িয়ন	-745
▁নাই	-746
▁হ্ৰ	-747
▁কোৱা	-748
টৰ	-749
ালৈ	-750
িনী	-751
▁গঠ	-752
▁শেষ	-753
▁নামৰ	-754
▁হিন্দু	-755
▁১৯৭	-756
▁দক্ষিণ	-757
িউ	-758
ীনত	-759
▁চিক	-760
▁মাৰ	-761
ছল	-762
ৰ্ষ	-763
াধিক	-764
▁তাল	-765
খল	-766
াছ	-767
▁ঔ	-768
বিধ	-769
ায়ক	-770
▁উদ্	-771
▁ব্যক্তি	-772
ৱত	-773
জাত	-774
টোৱে	-775
লৈকে	-776
ানীৰ	-777
▁বন্ধ	-778
▁কিছুমান	-779
নী	-780
েম	-781
জ্ঞ	-782
▁পৰ্য	-783
নাৰ	-784
▁ডা	-785
▁ভাল	-786
▁জলপ্ৰ	-787
ন্ম	-788
ৰ্ভ	-789
▁দী	-790
ৃত্ব	-791
▁প্ৰদান	-792
▁জলপ্ৰপাত	-793
স্	-794
দ্ব	-795
প্র	-796
ুলত	-797
▁আশ	-798
▁ইউ	-799
▁তথ্য	-800
বো	-801
ৱল	-802
ৈতিক	-803
▁শক্তি	-804
দ্যালয়	-805
▁অনুসৰি	-806
▁প্ৰদৰ্শ	-807
ঁচ	-808
▁অভিয	-809
▁অৰ্থ	-810
▁নিৰ্ব	-811
টাও	-812
াতৃ	-813
▁উৎ	-814
▁চক	-815
▁চহৰ	-816
▁উদ্যান	-817
▁সৃষ্টি	-818
▁সাম্ৰাজ	-819
াং	-820
▁চু	-821
▁পথ	-822
▁একে	-823
▁শিক্ষ	-824
াইট	-825
ৰ্গ	-826
▁গণ	-827
▁পত	-828
িলাৰ	-829
▁১৯৮	-830
িয়ান	-831
▁যিয়ে	-832
▁প্ৰধান	-833
িগ	-834
ব্য	-835
▁আত	-836
▁আধ	-837
▁বন্দ	-838
িকভাৱে	-839
িৎস	-840
েলে	-841
▁কথা	-842
▁দেৱ	-843
▁চাৰি	-844
ণি	-845
▁কিল	-846
▁কুম	-847
▁তেখেত	-848
▁কেইবাটাও	-849
জি	-850
ভূ	-851
বোৰৰ	-852
ষ্ণ	-853
িষ্ট	-854
▁সংঘ	-855
▁নহয়	-856
▁লক্ষ	-857
▁আৰক্ষ	-858
▁ৰাজ্যৰ	-859
▁বেছিভাগ	-860
▁অন্যান্য	-861
্ছ	-862
নিক	-863
▁বু	-864
▁এনে	-865
▁পাল	-866
▁হাই	-867
▁ক্ষেত্ৰত	-868
চি	-869
ানত	-870
ুৱা	-871
▁তাম	-872
▁লগে	-873
▁কাৰণ	-874
▁ধৰ্ম	-875
▁শাসন	-876
▁দুয়ো	-877
দে	-878
হৎ	-879
ূপে	-880
▁আত্ম	-881
▁আলাউ	-882
▁ৰাজন	-883
▁ইয়াত	-884
▁গান্ধ	-885
▁প্রতি	-886
▁অনুষ্ঠিত	-887
দন	-888
শী	-889
ীশ	-890
▁গাঁ	-891
▁জড়	-892
▁সুৰ	-893
▁শ্ৰী	-894
▁কোম্পানী	-895
মে	-896
াহৰ	-897
ৰোধ	-898
ন্তে	-899
▁যিটো	-900
▁শতিক	-901
▁চিকিৎস	-902
▁পশ্চিম	-903
▁পৰিছিল	-904
▁স্থাপন	-905
▁নেতৃত্ব	-906
▁গুৰুত্বপূৰ্ণ	-907
▁নদ	-908
াক্ষ	-909
▁জাহ	-910
▁তুল	-911
ৱৰ্তী	-912
▁কিলোম	-913
▁বিচাৰ	-914
▁নিৰ্বাচ	-915
ডি	-916
য়ৰ	-917
ণ্ডৰ	-918
▁দখল	-919
▁ভাষ	-920
▁ৰাও	-921
▁ৰোগ	-922
▁আলাউদ্দিন	-923
ফে	-924
বঢ়	-925
ব্দ	-926
ল্প	-927
াকৈ	-928
▁ইতি	-929
▁বাস	-930
াসমূহ	-931
▁দিয়ে	-932
▁পৰিয়	-933
▁লৈছিল	-934
▁আহিছিল	-935
▁প্ৰকাশ	-936
ভি	-937
াখ	-938
▁৫	-939
মুখ	-940
▁শৃ	-941
কাৰে	-942
▁তথা	-943
সমূহত	-944
▁জন্ম	-945
▁সামগ	-946
▁দিয়াৰ	-947
দান	-948
▁শিশ	-949
▁চুলত	-950
▁আগবঢ়	-951
▁কৈছিল	-952
▁সংখ্য	-953
▁কেন্দ্ৰ	-954
লী	-955
েপ	-956
ৱাৰ	-957
▁অশ	-958
▁অহ	-959
▁পদ্	-960
▁দুটা	-961
▁‘	-962
▁জান	-963
▁পৰী	-964
▁স্ক	-965
▁কেৱল	-966
▁ডাঙৰ	-967
▁ধৰণৰ	-968
▁বৃদ্ধ	-969
▁সংগ্ৰ	-970
▁চৰিত্ৰ	-971
▁তেখেতৰ	-972
▁তেন্তে	-973
তৰ	-974
েড	-975
▁৪	-976
জাৰ	-977
দৰে	-978
▁কৃ	-979
ত্যা	-980
▁পাক	-981
▁সিং	-982
▁আন্ত	-983
▁প্ৰত	-984
ংক	-985
জনক	-986
ৰাধ	-987
▁এল	-988
▁১৮	-989
▁শিৱ	-990
▁সমৰ্থ	-991
ৰাষ্ট্ৰ	-992
▁সম্পূৰ্ণ	-993
ুৱৈ	-994
▁অৰ্	-995
▁গীত	-996
▁থকাৰ	-997
▁তামিল	-998
▁খেলুৱৈ	-999
▁সন্মান	-1000
ংস	-1001
ণী	-1002
ঢ়ি	-1003
▁সী	-1004
▁দিশ	-1005
▁পেল	-1006
▁বৃহৎ	-1007
▁জড়িত	-1008
▁পাইছিল	-1009
▁কিলোমিটাৰ	-1010
তু	-1011
ানা	-1012
▁বল	-1013
স্বৰ	-1014
▁গঠন	-1015
▁ইণ্ড	-1016
▁মধ্য	-1017
▁এতিয়া	-1018
▁প্ৰতিযোগ	-1019
ওক	-1020
পুৰ	-1021
▁গোট	-1022
▁বাৰ	-1023
াসকলে	-1024
▁অশোক	-1025
▁ওচৰত	-1026
▁যোৱা	-1027
▁লাগিব	-1028
গড়	-1029
চনা	-1030
চাৰ	-1031
ষণা	-1032
▁উভ	-1033
▁যথ	-1034
াপ্ত	-1035
েণ্ট	-1036
▁খান	-1037
▁অৱশ্য	-1038
▁চেষ্টা	-1039
▁প্ৰদৰ্শন	-1040
▁স্থানীয়	-1041
োষ	-1042
্ণ	-1043
▁অল	-1044
কালত	-1045
ন্দৰ	-1046
▁বাহিন	-1047
▁নিৰ্মাণ	-1048
িও	-1049
েও	-1050
▁ঔৰ	-1051
▁গৈ	-1052
▁দশ	-1053
▁গুজ	-1054
▁গ্ৰে	-1055
যুক্তি	-1056
▁যথেষ্ট	-1057
▁উপস্থিত	-1058
▁পৰৱৰ্তী	-1059
ক্	-1060
▁৬	-1061
ক্স	-1062
▁আঁ	-1063
▁কু	-1064
▁চি	-1065
▁জু	-1066
শালী	-1067
িত্ত	-1068
▁আকব	-1069
ষ্ঠান	-1070
িয়াই	-1071
▁কৰাত	-1072
▁মাহত	-1073
ন্ত্ৰণ	-1074
▁গ্ৰহণ	-1075
▁অভিযোগ	-1076
▁অৱশ্যে	-1077
▁প্ৰয়োজন	-1078
মত	-1079
ুপ	-1080
▁ৱ	-1081
▁ইন	-1082
▁১৫	-1083
োৱাত	-1084
▁উৎপ	-1085
▁দেখ	-1086
▁পুল	-1087
▁মুখ	-1088
▁কৰ্ণ	-1089
▁দায়	-1090
▁বিবাহ	-1091
পূ	-1092
বল	-1093
ন্থ	-1094
▁ঘো	-1095
▁মি	-1096
▁দাব	-1097
▁নাৰ	-1098
▁আন্তঃ	-1099
▁সময়ৰ	-1100
ঁজ	-1101
জনে	-1102
াইন	-1103
াজী	-1104
০০০	-1105
▁কি	-1106
▁পঠ	-1107
িবোৰ	-1108
▁পুৰ	-1109
▁স্প	-1110
্তমান	-1111
ন্ত্ৰী	-1112
্বীৰাজ	-1113
▁গুজৰা	-1114
▁সন্মুখ	-1115
▁মৃত্যুৰ	-1116
কেট	-1117
মিত	-1118
াহিত	-1119
িকাৰ	-1120
▁পাৰি	-1121
▁মানু	-1122
▁নিশ্চ	-1123
▁পৰম্প	-1124
▁সদস্য	-1125
▁বিচাৰি	-1126
পে	-1127
ব্ৰ	-1128
ৰ্ঘ	-1129
▁দূ	-1130
াবাদ	-1131
▁চিন	-1132
▁ট্ৰ	-1133
▁বিন	-1134
▁বৰ্ণ	-1135
▁ৰাজক	-1136
▁অৱস্থ	-1137
▁প্ৰভাৱ	-1138
▁সম্পৰ্ক	-1139
▁পৃথ্বীৰাজ	-1140
ধি	-1141
্ড	-1142
তাক	-1143
▁১২	-1144
▁ফিল	-1145
▁মতে	-1146
▁লাগে	-1147
▁মুক্তি	-1148
▁নিযুক্তি	-1149
লক	-1150
ঘাত	-1151
দাৰ	-1152
▁এছ	-1153
▁ৰি	-1154
ফালে	-1155
▁১৯৬	-1156
দিষ্ট	-1157
▁মন্দ	-1158
▁সন্দ	-1159
▁প্ৰদেশ	-1160
▁শতিকাৰ	-1161
▁সামৰিক	-1162
▁পাকিস্ত	-1163
হত	-1164
াইৰ	-1165
ক্ষম	-1166
▁সফল	-1167
খ্যাত	-1168
▁অনুম	-1169
▁আগতে	-1170
▁ঘোষণা	-1171
▁সিদ্ধ	-1172
▁তেতিয়া	-1173
▁বৰ্তমান	-1174
▁ছব	-1175
▁১০	-1176
েম্ব	-1177
▁উদয	-1178
▁কাল	-1179
সমূহে	-1180
▁পঞ্জ	-1181
▁হাতত	-1182
▁টেষ্ট	-1183
▁অন্তৰ্ভ	-1184
▁শ্ৰেষ্ঠ	-1185
্যত	-1186
ৰলৈ	-1187
▁ইং	-1188
▁আমেৰ	-1189
▁শিশু	-1190
▁ব্যক্তিগত	-1191
▁অন্তৰ্ভুক্ত	-1192
াশ	-1193
ক্ৰ	-1194
ৰ্য	-1195
▁আফ	-1196
▁ঘূ	-1197
▁ধন	-1198
▁কয়	-1199
▁চাল	-1200
▁বাল	-1201
ীসকলৰ	-1202
▁পত্ন	-1203
▁সন্ত	-1204
▁প্ৰত্য	-1205
▁বৃদ্ধি	-1206
চৰ	-1207
সৰ	-1208
▁ঐ	-1209
▁৭	-1210
টোক	-1211
▁উঠ	-1212
▁পে	-1213
▁লে	-1214
ামূল	-1215
▁নাগ	-1216
▁পেট	-1217
▁ৰজা	-1218
্ৰমণৰ	-1219
▁হ্ৰদ	-1220
▁জিলাৰ	-1221
▁পৃষ্ঠ	-1222
স্বৰূপে	-1223
▁সামগ্ৰী	-1224
লি	-1225
জিত	-1226
শীল	-1227
▁ক্ল	-1228
▁১৯৪	-1229
স্থান	-1230
্যায়	-1231
▁কন্য	-1232
▁সেৱা	-1233
▁মাৰাঠা	-1234
▁বিশ্বাস	-1235
াৎ	-1236
গান	-1237
ফলত	-1238
ৰিও	-1239
▁মৌ	-1240
স্ত্ৰ	-1241
প্ৰিয়	-1242
▁বিজয়	-1243
▁সমগ্ৰ	-1244
▁ৰাজধান	-1245
▁সিদ্ধান্ত	-1246
চন	-1247
▁৮	-1248
াপক	-1249
▁উল	-1250
▁মা	-1251
িকেট	-1252
▁তৃত	-1253
াসকলৰ	-1254
▁ক্ষম	-1255
▁উপৰিও	-1256
▁নাৰায়	-1257
▁মন্দিৰ	-1258
▁পৰম্পৰা	-1259
▁পৰিচালনা	-1260
▁নিয়ন্ত্ৰণ	-1261
ভাৰ	-1262
্রী	-1263
▁শৈ	-1264
াৰ্থ	-1265
▁আনু	-1266
▁ছাৰ	-1267
▁অধ্য	-1268
▁পৰিক	-1269
▁বছৰৰ	-1270
▁মুছল	-1271
▁যেনে	-1272
▁ফিল্ম	-1273
▁উদ্যোগ	-1274
▁যুদ্ধত	-1275
▁সংগ্ৰহ	-1276
▁জনপ্ৰিয়	-1277
▁ৰাজনৈতিক	-1278
টাৰ	-1279
াদেশ	-1280
াহাৰ	-1281
েশিন	-1282
▁কংগ	-1283
▁চতু	-1284
▁পূব	-1285
▁লিখ	-1286
▁১৯৫	-1287
▁পদ্ম	-1288
▁সংস্ক	-1289
▁হত্যা	-1290
▁কৰ্ণাট	-1291
▁প্ৰস্ত	-1292
▁পৰাস্ত	-1293
▁যুদ্ধৰ	-1294
▁অভিনেতা	-1295
খনে	-1296
▁শি	-1297
াবাহ	-1298
ালোচ	-1299
াৰিত	-1300
▁পৰে	-1301
ান্তৰ	-1302
▁জীৱন	-1303
▁পৃথক	-1304
▁থাকিব	-1305
▁হাইদৰ	-1306
▁অন্যতম	-1307
▁নিশ্চিত	-1308
▁তেওঁলোকক	-1309
ণত	-1310
লগ	-1311
ড়া	-1312
ৃতি	-1313
েৰী	-1314
▁অফ	-1315
▁গা	-1316
▁গো	-1317
▁ৱে	-1318
বাৰৰ	-1319
বোৰত	-1320
াত্ম	-1321
▁টিপ	-1322
▁ঠাই	-1323
▁বাণ	-1324
▁দাবী	-1325
▁শাসক	-1326
▁বিস্ত	-1327
▁সৈন্য	-1328
▁স্বাধ	-1329
▁উদযাপন	-1330
▁কংগ্ৰে	-1331
▁তৃতীয়	-1332
▁পৰিকল্প	-1333
▁বিখ্যাত	-1334
▁ব্যৱস্থা	-1335
ৰাষ্ট্ৰীয়	-1336
▁শক্তিশালী	-1337
ম্ম	-1338
ামৰ	-1339
▁কৌ	-1340
▁দি	-1341
বেদন	-1342
াহৰণ	-1343
▁কাহ	-1344
▁দলৰ	-1345
▁ৰখা	-1346
▁যাতে	-1347
▁লোৱা	-1348
▁বিমান	-1349
▁হিন্দী	-1350
▁আন্তঃৰাষ্ট্ৰীয়	-1351
ডু	-1352
ুৰা	-1353
▁আৱ	-1354
্যিক	-1355
▁কেন	-1356
▁দিব	-1357
িয়নো	-1358
ীসকলে	-1359
▁পাঁচ	-1360
▁মুকল	-1361
াকেশিন	-1362
▁অধীনত	-1363
▁সেয়ে	-1364
▁কিয়নো	-1365
▁পৰিৱেশ	-1366
▁আৰম্ভণি	-1367
▁চলচ্চিত্ৰত	-1368
এছ	-1369
কত	-1370
ঘল	-1371
মি	-1372
পুত	-1373
োৰৰ	-1374
ৰ্ড	-1375
▁ফল	-1376
▁সূ	-1377
▁১১	-1378
ক্ষণ	-1379
খণ্ড	-1380
▁অহা	-1381
▁আইন	-1382
▁ঐতি	-1383
▁পাছ	-1384
▁ফুট	-1385
▁বাজ	-1386
▁দূৰত	-1387
▁প্ৰচ	-1388
▁সফলত	-1389
▁দিবলৈ	-1390
▁পুলাকেশিন	-1391
ষ্ম	-1392
ানু	-1393
্বত	-1394
▁নক	-1395
▁বন	-1396
াক্ত	-1397
▁নেহ	-1398
▁পিত	-1399
▁মিল	-1400
▁যাক	-1401
▁কৰ্ম	-1402
▁পালন	-1403
▁নিয়ম	-1404
▁সম্প্ৰ	-1405
▁নিৰ্দেশ	-1406
▁ৰাখিছিল	-1407
▁অনুষ্ঠান	-1408
ীপ	-1409
েদ	-1410
চিত	-1411
র্ম	-1412
্বল	-1413
▁উই	-1414
▁পো	-1415
▁ৰত	-1416
ান্দ	-1417
▁জনস	-1418
▁সাং	-1419
যোগ্য	-1420
▁ৰাজহ	-1421
▁বাণিজ	-1422
▁মুকলি	-1423
▁পূৰ্বে	-1424
▁গ্ৰেপ্ত	-1425
▁জনাইছিল	-1426
▁মুছলমান	-1427
▁ৰাজধানী	-1428
▁নিৰ্দিষ্ট	-1429
মহ	-1430
ন্স	-1431
ীৰৰ	-1432
ুৰৰ	-1433
▁অথ	-1434
▁চন	-1435
াপতি	-1436
াৰীৰ	-1437
ামূলক	-1438
▁আহিছে	-1439
▁দুৰ্গ	-1440
▁নেহৰু	-1441
▁ভ্ৰমণ	-1442
▁উদাহৰণ	-1443
▁চৰকাৰী	-1444
▁তিনিটা	-1445
▁নামেৰে	-1446
▁দায়িত্ব	-1447
নিৰ	-1448
শেষ	-1449
▁মই	-1450
▁হাছ	-1451
গ্ৰহণ	-1452
ন্দ্র	-1453
▁উভতি	-1454
▁পিতৃ	-1455
▁শব্দ	-1456
▁শৃংগ	-1457
াজীয়ে	-1458
▁সময়ছ	-1459
▁অঞ্চলত	-1460
▁অস্ত্ৰ	-1461
▁ক্ৰিকেট	-1462
▁প্ৰায়ে	-1463
▁প্ৰতিষ্ঠ	-1464
▁সাম্ৰাজ্যৰ	-1465
আই	-1466
উজ	-1467
এল	-1468
টি	-1469
পথ	-1470
ভৰ	-1471
ামী	-1472
িৰত	-1473
▁ইভ	-1474
▁নী	-1475
িকাত	-1476
ৰীতে	-1477
▁ভাগ	-1478
▁মাধ	-1479
▁যিক	-1480
▁স্ত	-1481
▁হুম	-1482
ক্ষিত	-1483
▁মাতৃ	-1484
▁নিজকে	-1485
▁ভাৰতত	-1486
▁শান্ত	-1487
▁অভিযান	-1488
▁ক্ষমতা	-1489
▁দিল্লী	-1490
▁প্ৰশাস	-1491
▁প্ৰৱেশ	-1492
▁বৰ্ণনা	-1493
▁সমালোচ	-1494
▁হুমায়	-1495
▁ফিল্মফে	-1496
▁বিপৰীতে	-1497
োদ	-1498
▁ঢ	-1499
জনৰ	-1500
লাৰ	-1501
▁চহ	-1502
▁বজ	-1503
পক্ষ	-1504
ুৱাই	-1505
▁চলি	-1506
▁দ্ৰ	-1507
▁সম্	-1508
▁হাৰ	-1509
▁১৯৩	-1510
দ্ৰোহ	-1511
▁অথবা	-1512
▁আগ্ৰ	-1513
▁আঘাত	-1514
▁আলোচ	-1515
▁তথাপ	-1516
▁পৰাম	-1517
▁লোকৰ	-1518
▁যিকোনো	-1519
▁উত্তৰাধ	-1520
বছ	-1521
বী	-1522
মন	-1523
াফ	-1524
ুই	-1525
কৃত	-1526
জাহ	-1527
টিত	-1528
লনি	-1529
ৰাম	-1530
ৰুষ	-1531
▁ডি	-1532
াণ্ড	-1533
্ৰাট	-1534
▁আঁত	-1535
▁এৰি	-1536
▁কাষ	-1537
▁দ্য	-1538
▁বংগ	-1539
▁সংক	-1540
▁গণ্য	-1541
▁বন্দী	-1542
▁বাধ্য	-1543
▁বিৰোধ	-1544
▁মহিলা	-1545
▁সক্ষম	-1546
মন্ত্ৰী	-1547
▁অনুমতি	-1548
▁সম্ভাৱ	-1549
▁সম্ৰাট	-1550
▁বিশ্ববি	-1551
কৰণ	-1552
াপৰ	-1553
ুৰি	-1554
ুৱে	-1555
ৰাও	-1556
▁উত	-1557
খিনি	-1558
বোৰে	-1559
াজিক	-1560
ালিপ	-1561
েশ্ব	-1562
▁কৃষ	-1563
▁পুন	-1564
▁বয়	-1565
▁বাত	-1566
▁বিত	-1567
গুপ্ত	-1568
▁ক্ৰী	-1569
▁তেলে	-1570
▁পদ্ধ	-1571
▁পানী	-1572
▁শেষৰ	-1573
▁সমাজ	-1574
▁আনন্দ	-1575
▁উদ্ভি	-1576
▁যিবোৰ	-1577
▁শিল্প	-1578
▁সুবিধ	-1579
▁লক্ষ্য	-1580
▁সংঘটিত	-1581
▁কোম্পানীৰ	-1582
▁ফিল্মফেয়াৰ	-1583
তো	-1584
ধা	-1585
তকৈ	-1586
পতি	-1587
মাৰ	-1588
ৰোপ	-1589
মূলক	-1590
িনীৰ	-1591
▁কৃত	-1592
▁টাই	-1593
▁বুজ	-1594
▁হাজ	-1595
▁ৰাম	-1596
াত্মক	-1597
▁অব্য	-1598
▁ফালে	-1599
▁ভাতৃ	-1600
▁চিত্ৰ	-1601
▁দীৰ্ঘ	-1602
▁দৃষ্ট	-1603
▁সমস্য	-1604
▁পৰিমাণ	-1605
▁বিদ্ৰোহ	-1606
▁পৰিস্থিত	-1607
▁সৰ্বাধিক	-1608
▁বিদ্যালয়	-1609
কো	-1610
ুব	-1611
ত্র	-1612
র্থ	-1613
স্ফ	-1614
▁তী	-1615
▁দৃ	-1616
▁নে	-1617
▁লী	-1618
▁ৰু	-1619
উতাক	-1620
দন্ত	-1621
বদ্ধ	-1622
স্তু	-1623
ৰ্ষণ	-1624
▁উপল	-1625
▁গতি	-1626
▁তাত	-1627
▁ভাৰ	-1628
ণ্ডাৰ	-1629
াসকলক	-1630
▁দেশৰ	-1631
▁বেলে	-1632
▁সপ্ত	-1633
▁মাত্ৰ	-1634
▁চুলতান	-1635
▁প্ৰমাণ	-1636
▁পৰাজিত	-1637
▁ব্যক্ত	-1638
▁ৰাজপুত	-1639
▁সেয়েহে	-1640
▁গ্ৰেপ্তাৰ	-1641
▁সাম্ৰাজ্য	-1642
▁ব্যৱসায়িক	-1643
পি	-1644
কাল	-1645
য়ন	-1646
লিক	-1647
িৰা	-1648
্যে	-1649
▁কঠ	-1650
▁টে	-1651
▁১৩	-1652
▁আদি	-1653
▁উপন	-1654
▁সাত	-1655
▁স্ন	-1656
ণ্টাৰ	-1657
▁দীঘল	-1658
▁প্ৰে	-1659
▁উৎপাদ	-1660
▁ছাৰ্ভ	-1661
▁বিজ্ঞ	-1662
▁বেলেগ	-1663
▁মালিক	-1664
▁সাহিত	-1665
▁পৰীক্ষা	-1666
▁শিলালিপ	-1667
▁বিশ্ববিদ্যালয়	-1668
জৰ	-1669
ৰল	-1670
ট্ট	-1671
ব্ধ	-1672
াংশ	-1673
ুটি	-1674
ৰাৰ	-1675
ত্তি	-1676
মাণৰ	-1677
িত্র	-1678
▁ৰান	-1679
িয়েল	-1680
▁আন্দ	-1681
▁চকুৰ	-1682
▁বক্স	-1683
▁মহীশ	-1684
▁অনলাই	-1685
▁আকবৰে	-1686
▁কৰিলে	-1687
▁ইতিহাস	-1688
▁গুজৰাট	-1689
▁চৰকাৰে	-1690
▁ছবিখনত	-1691
▁সমৰ্থন	-1692
▁সেইবোৰ	-1693
▁অব্যাহত	-1694
▁আক্ৰমণৰ	-1695
▁সন্মুখীন	-1696
▁সময়ছোৱাত	-1697
টন	-1698
ডে	-1699
সূ	-1700
খনো	-1701
ণ্ঠ	-1702
র্য	-1703
িৰি	-1704
ংখ্য	-1705
শেষত	-1706
হাতে	-1707
ায়ী	-1708
▁জাল	-1709
▁বাছ	-1710
ণ্ডুল	-1711
▁উৎসৱ	-1712
▁কৰাটো	-1713
▁সহযোগ	-1714
▁আনহাতে	-1715
▁চতুৰ্থ	-1716
▁সন্দেহ	-1717
▁বিশেষকৈ	-1718
▁সেনাবাহ	-1719
▁ইণ্ডিয়া	-1720
▁স্বাধীনত	-1721
গে	-1722
▁ষ	-1723
বংশ	-1724
র্ক	-1725
র্ব	-1726
ালক	-1727
্রম	-1728
ৰ্ট	-1729
▁পল	-1730
▁সত	-1731
ীকাৰ	-1732
▁কাপ	-1733
▁খাদ	-1734
▁ত্ৰ	-1735
▁ব্ল	-1736
▁মাহ	-1737
মাত্ৰ	-1738
স্ফোৰ	-1739
ৱেম্ব	-1740
ৱৰ্তন	-1741
▁ইষ্ট	-1742
▁খ্ৰী	-1743
্বীকাৰ	-1744
▁বিয়া	-1745
▁মহম্ম	-1746
▁যোৱাৰ	-1747
▁সাক্ষ	-1748
▁সেইটো	-1749
▁অৱশেষত	-1750
▁উদ্দেশ	-1751
▁তথাপিও	-1752
▁দেউতাক	-1753
▁তামিলনা	-1754
▁প্ৰদেশৰ	-1755
▁পৰামৰ্শ	-1756
▁বিস্ফোৰ	-1757
▁অস্বীকাৰ	-1758
▁ৰাজ্যখনৰ	-1759
▁পৰিকল্পনা	-1760
কি	-1761
চী	-1762
ভৱ	-1763
সম	-1764
চ্ছ	-1765
র্শ	-1766
াবি	-1767
ুৰী	-1768
েচন	-1769
▁আজ	-1770
▁দৰ	-1771
িকাশ	-1772
▁জনা	-1773
▁মাত	-1774
▁শিখ	-1775
শিষ্ট	-1776
িয়াত	-1777
▁উত্থ	-1778
▁কৰ্ত	-1779
ীয়াকৈ	-1780
▁আফগান	-1781
▁শিক্ষা	-1782
▁ৰাজ্যিক	-1783
▁কেইবাখনো	-1784
▁৯	-1785
নিব	-1786
য়ত	-1787
যোজ	-1788
াংগ	-1789
▁দৈ	-1790
▁বো	-1791
▁মূ	-1792
▁১৪	-1793
▁ৰো	-1794
াভাৱ	-1795
ায়ে	-1796
ৃতিক	-1797
▁ডিচ	-1798
▁ৰাগ	-1799
চিত্ৰ	-1800
ালৈকে	-1801
▁অফিচ	-1802
▁চাইক	-1803
▁নদীৰ	-1804
ুদ্দিন	-1805
▁ইউৰোপ	-1806
▁কন্যা	-1807
▁ছবিখন	-1808
▁পুৰুষ	-1809
▁যাত্ৰ	-1810
▁আকৰ্ষণ	-1811
▁ন্যায়	-1812
▁নৱেম্ব	-1813
▁পৰীক্ষ	-1814
▁ৰাজকুম	-1815
▁চৰিত্ৰত	-1816
▁বছৰীয়া	-1817
▁সামাজিক	-1818
▁পৰিয়ালৰ	-1819
▁প্ৰতিযোগিত	-1820
ড়ী	-1821
ডিঅ	-1822
বিদ	-1823
হিত	-1824
াওক	-1825
▁ভগ	-1826
▁ভৱ	-1827
বাদৰ	-1828
য়োগ	-1829
ামান	-1830
াৰ্ড	-1831
ুনিক	-1832
▁যেন	-1833
▁লিপ	-1834
ত্ৰিত	-1835
▁খানৰ	-1836
াসমূহৰ	-1837
▁মানেক	-1838
▁হ্ৰাস	-1839
▁ইভেণ্ট	-1840
▁উদ্ভিদ	-1841
▁প্ৰজাত	-1842
▁একত্ৰিত	-1843
▁ডিচেম্ব	-1844
▁তেণ্ডুল	-1845
▁দিল্লীৰ	-1846
▁স্বীকাৰ	-1847
▁আৰম্ভণিতে	-1848
টে	-1849
প্ট	-1850
ালি	-1851
ুতি	-1852
▁জৈ	-1853
▁নগ	-1854
▁বস	-1855
কল্প	-1856
াব্য	-1857
িক্স	-1858
▁জাত	-1859
▁ড্ৰ	-1860
▁নদী	-1861
▁নেট	-1862
▁ভাই	-1863
▁মেচ	-1864
▁লাহ	-1865
ন্যাস	-1866
াদাৰী	-1867
িয়াম	-1868
▁দৰ্শ	-1869
▁বচ্চ	-1870
▁মাজৰ	-1871
▁সলনি	-1872
দ্বন্দ	-1873
দ্বাৰা	-1874
▁নিৰ্ধ	-1875
▁পত্নী	-1876
▁বিকাশ	-1877
▁বিদেশ	-1878
▁মাৰ্চ	-1879
▁যাবলৈ	-1880
▁ঐতিহাস	-1881
▁সংগীতৰ	-1882
▁চিকিৎসা	-1883
▁নাৰায়ণ	-1884
▁পৰ্যায়	-1885
▁ব্যৱস্থ	-1886
▁আনুষ্ঠান	-1887
পু	-1888
র্ত	-1889
স্প	-1890
স্ব	-1891
াইল	-1892
▁এন	-1893
▁খে	-1894
▁চৌ	-1895
▁শু	-1896
বাৰে	-1897
িম্প	-1898
▁গুল	-1899
▁সিঙ	-1900
কসকলে	-1901
াৰম্ভ	-1902
▁অনুৰ	-1903
▁আগবা	-1904
▁জিলা	-1905
▁তেনে	-1906
▁বিবে	-1907
▁সংগঠ	-1908
▁স্বৰ	-1909
▁হেৰু	-1910
▁ৰচনা	-1911
লগীয়া	-1912
▁অৰ্থন	-1913
▁চালুক	-1914
▁চেম্প	-1915
▁জীৱনৰ	-1916
▁প্ৰাণ	-1917
▁স্থাপ	-1918
▁আধুনিক	-1919
▁চনলৈকে	-1920
▁চৰকাৰৰ	-1921
▁পদ্ধতি	-1922
▁বিক্ৰী	-1923
▁সংখ্যক	-1924
▁অৱস্থাত	-1925
▁প্ৰতিটো	-1926
▁প্ৰতিনি	-1927
▁ৰাজহুৱা	-1928
▁আৰক্ষীয়ে	-1929
▁আলাউদ্দিনে	-1930
এই	-1931
ুখ	-1932
ৃহ	-1933
জ্জ	-1934
র্ণ	-1935
োৰা	-1936
▁ফে	-1937
▁শৰ	-1938
াৰণা	-1939
▁আলী	-1940
▁কৌশ	-1941
▁জগত	-1942
▁দুৰ	-1943
▁ধ্ব	-1944
▁পঢ়	-1945
▁পাত	-1946
▁ভাব	-1947
▁মেক	-1948
▁মোৰ	-1949
▁শৃং	-1950
▁গৈছে	-1951
▁দুজন	-1952
▁দুৰ্	-1953
▁হায়	-1954
▁জলপ্র	-1955
▁দ্ৰুত	-1956
▁মূল্য	-1957
▁যোগান	-1958
▁লক্ষণ	-1959
▁ৰায়ে	-1960
াৰম্ভিক	-1961
▁কাহিনী	-1962
▁গ্ৰন্থ	-1963
▁সম্ভৱত	-1964
▁নেতৃত্বত	-1965
▁চেম্পিয়ন	-1966
দী	-1967
ৌৰ	-1968
ডাৰ	-1969
নাত	-1970
পাল	-1971
িনা	-1972
িৰে	-1973
োজন	-1974
▁আচ	-1975
▁খু	-1976
▁বৌ	-1977
▁ভি	-1978
▁৩০	-1979
বাদী	-1980
াজাত	-1981
াবোৰ	-1982
্যাগ	-1983
ৰাকী	-1984
▁ইছল	-1985
▁যাব	-1986
▁স্ম	-1987
▁১৯২	-1988
▁ৰতন	-1989
ক্ষ্ম	-1990
▁গ্ৰী	-1991
▁মনোন	-1992
▁লোকক	-1993
▁গায়ক	-1994
▁জানুৱ	-1995
▁বৌদ্ধ	-1996
▁মাধ্য	-1997
▁হাজাৰ	-1998
▁অঞ্চলৰ	-1999
▁অনুৰোধ	-2000
▁নিৰ্ভৰ	-2001
▁কৰাইছিল	-2002
▁নিযুক্ত	-2003
▁বৈশিষ্ট	-2004
▁সম্ভৱতঃ	-2005
▁সেনাপতি	-2006
▁উত্তৰাধিক	-2007
▁কেন্দ্ৰীয়	-2008
ুগ	-2009
ৈত	-2010
কাত	-2011
ণিত	-2012
ন্ট	-2013
হীন	-2014
ৰতে	-2015
ৱৰ্	-2016
াজীৰ	-2017
াস্থ	-2018
েলগে	-2019
▁কলে	-2020
▁দিৱ	-2021
▁নিম	-2022
▁পাব	-2023
▁পেচ	-2024
▁প্ল	-2025
▁বাগ	-2026
▁বিল	-2027
▁লয়	-2028
▁শিব	-2029
▁সাগ	-2030
▁সোঁ	-2031
ক্ষেপ	-2032
ত্ত্ব	-2033
নিবাস	-2034
সমূহক	-2035
▁অতিৰ	-2036
▁অত্য	-2037
▁কেনে	-2038
▁জ্যে	-2039
▁প্রশ	-2040
▁মহিল	-2041
▁যুঁজ	-2042
▁অশোকৰ	-2043
▁ইংৰাজ	-2044
▁বিষ্ণ	-2045
ান্তৰিত	-2046
▁আলোচনা	-2047
▁চন্দ্ৰ	-2048
▁বালাজী	-2049
▁ব্যাপক	-2050
▁ৰাজবংশ	-2051
▁অঞ্চলটো	-2052
▁কেতিয়া	-2053
▁চলাইছিল	-2054
▁দুয়োটা	-2055
▁ভূমিকাত	-2056
▁অস্ত্ৰোপ	-2057
▁জনসাধাৰণ	-2058
▁জলপ্রপাত	-2059
▁হুমায়ুন	-2060
▁বিচাৰিছিল	-2061
▁শ্ৰীনিবাস	-2062
▁প্ৰতিযোগিতা	-2063
▁উদাহৰণস্বৰূপে	-2064
পত	-2065
পা	-2066
ভোগ	-2067
লীৰ	-2068
ানক	-2069
িটি	-2070
েহত	-2071
োৰত	-2072
োৰে	-2073
▁গছ	-2074
▁নৱ	-2075
পেয়	-2076
্রাজ	-2077
▁জিম	-2078
▁জেন	-2079
▁দাস	-2080
▁নোহ	-2081
▁বাদ	-2082
▁মাট	-2083
প্ৰিল	-2084
লেণ্ড	-2085
িয়াব	-2086
▁উন্ন	-2087
▁নিহত	-2088
▁পক্ষ	-2089
▁পায়	-2090
▁আকবৰৰ	-2091
▁আদালত	-2092
▁কুমাৰ	-2093
▁চিত্ত	-2094
▁জালাল	-2095
▁পাৰিব	-2096
▁সুযোগ	-2097
দিনীয়া	-2098
▁একেলগে	-2099
▁এপ্ৰিল	-2100
▁জনাজাত	-2101
▁পৰিচিত	-2102
▁ভূখণ্ড	-2103
▁মানেক্	-2104
▁সিংহাস	-2105
▁সুবিধা	-2106
▁জ্যেষ্ঠ	-2107
▁বাজপেয়	-2108
▁শৃংগেৰী	-2109
▁কেতিয়াও	-2110
▁অৰ্থনৈতিক	-2111
▁বাহিনীয়ে	-2112
▁পাকিস্তানৰ	-2113
▁প্ৰয়োজনীয়	-2114
এফ	-2115
ক্ট	-2116
জীৱ	-2117
দ্র	-2118
পোষ	-2119
▁সঠ	-2120
গৰাক	-2121
মধ্য	-2122
াভাস	-2123
▁আলম	-2124
▁গান	-2125
▁দূৰ	-2126
▁পাঠ	-2127
▁বেট	-2128
▁সহজ	-2129
শ্বিপ	-2130
▁আম্ব	-2131
▁খেলা	-2132
▁ঘটনা	-2133
▁চহৰৰ	-2134
▁ঠাইত	-2135
▁যিখন	-2136
▁লণ্ড	-2137
▁সেনে	-2138
▁ৰাওৰ	-2139
্ৰান্ত	-2140
▁খাদ্য	-2141
▁জাহাজ	-2142
▁দ্বীপ	-2143
ষ্ট্ৰেল	-2144
▁উপলব্ধ	-2145
▁ভূমিকা	-2146
▁অষ্ট্ৰেল	-2147
▁প্ৰশিক্ষ	-2148
▁বৰ্তমানৰ	-2149
▁সম্ভাৱনা	-2150
▁প্ৰতিষ্ঠা	-2151
▁বাণিজ্যিক	-2152
▁ব্যৱসায়ৰ	-2153
▁প্ৰাৰম্ভিক	-2154
▁প্ৰতিদ্বন্দ	-2155
▁প্ৰধানমন্ত্ৰী	-2156
ংল	-2157
টিল	-2158
ভীৰ	-2159
মেন	-2160
সংগ	-2161
সাম	-2162
ানি	-2163
িলৈ	-2164
েইন	-2165
েতে	-2166
েলা	-2167
েলৰ	-2168
▁ছি	-2169
▁নৌ	-2170
▁শত	-2171
▁ৰখ	-2172
কাৰক	-2173
াইছে	-2174
াখিল	-2175
াৰীত	-2176
ৃদ্ধ	-2177
▁ইউন	-2178
▁কাট	-2179
▁বংশ	-2180
▁বাই	-2181
▁মুঠ	-2182
▁আধিপ	-2183
▁আনকি	-2184
▁গঢ়ি	-2185
▁তাৰি	-2186
▁দুখন	-2187
▁বয়স	-2188
▁ব্যা	-2189
▁বৰ্ষ	-2190
▁লিখা	-2191
▁লোকে	-2192
▁ৰায়	-2193
িম্পিক	-2194
▁অপৰাধ	-2195
▁অৰ্জন	-2196
▁দাখিল	-2197
▁নিৰ্ণ	-2198
▁পাহাৰ	-2199
▁পেশ্ব	-2200
▁ভাষাত	-2201
▁মিত্ৰ	-2202
▁শ্বুট	-2203
▁অনুসৰণ	-2204
▁আন্দোল	-2205
▁আপোনাক	-2206
▁আলীয়ে	-2207
▁জেনেৰে	-2208
▁মহম্মদ	-2209
▁যাত্ৰা	-2210
▁সমৃদ্ধ	-2211
▁স্বত্ব	-2212
িয়াইছিল	-2213
▁অভিযানৰ	-2214
▁ধৰ্মীয়	-2215
▁পৰিচালক	-2216
▁পৰিমাণে	-2217
▁সম্প্ৰস	-2218
▁অংশগ্ৰহণ	-2219
▁পৰিচালিত	-2220
▁আলাউদ্দিনৰ	-2221
▁চলচ্চিত্ৰৰ	-2222
'-	-2223
গম	-2224
দা	-2225
িষ	-2226
শোধ	-2227
াথম	-2228
েতু	-2229
ৰাপ	-2230
▁শী	-2231
▁সচ	-2232
▁২৫	-2233
দৰ্শ	-2234
াসাদ	-2235
▁আশা	-2236
▁আহে	-2237
▁উপক	-2238
▁কাক	-2239
▁কিশ	-2240
▁কোন	-2241
▁খবৰ	-2242
▁গৃহ	-2243
▁জাম	-2244
▁মূৰ	-2245
▁সঁজ	-2246
মান্ত	-2247
▁অভয়	-2248
▁অহাৰ	-2249
▁এণ্ড	-2250
▁ওচৰৰ	-2251
▁গভীৰ	-2252
▁ঘূৰি	-2253
▁ছবিত	-2254
▁টিপু	-2255
▁অফিচত	-2256
▁উৎসৱৰ	-2257
▁গোটেই	-2258
▁ঘূৰাই	-2259
▁চিন্ত	-2260
▁তাৰিখ	-2261
▁ধাৰণা	-2262
▁ধ্বংস	-2263
▁পিছতে	-2264
▁প্ৰাচ	-2265
▁প্ৰেম	-2266
▁বিভাগ	-2267
▁মানুহ	-2268
▁হয়তো	-2269
▁আম্বেদ	-2270
▁কুমাৰৰ	-2271
▁চন্দ্র	-2272
▁তেখেতে	-2273
▁সামগ্ৰ	-2274
▁স্পষ্ট	-2275
▁একমাত্ৰ	-2276
▁এতিয়াও	-2277
▁গান্ধীৰ	-2278
▁গুজৰাটৰ	-2279
▁প্ৰথমখন	-2280
▁শাসনকালত	-2281
▁অভিনেত্ৰী	-2282
▁আফগানিস্ত	-2283
▁গান্ধীয়ে	-2284
▁স্বাধীনতা	-2285
▁উল্লেখযোগ্য	-2286
▁কোম্পানীটোৰ	-2287
কক	-2288
ংসা	-2289
ঙ্ক	-2290
শিত	-2291
িৰৰ	-2292
ুৰে	-2293
্টি	-2294
▁তৈ	-2295
▁ৰঙ	-2296
চাৰৰ	-2297
যোজন	-2298
সভাৰ	-2299
াযোগ	-2300
াহ্ম	-2301
েশ্য	-2302
▁অক্	-2303
▁অসু	-2304
▁আয়	-2305
▁আহি	-2306
▁কোষ	-2307
▁ডিজ	-2308
▁নাও	-2309
▁মিন	-2310
▁ৰাই	-2311
ৱৰ্তে	-2312
▁ইমান	-2313
▁গঠিত	-2314
▁গাঁও	-2315
▁পিন্	-2316
▁বাকী	-2317
▁বাধা	-2318
▁সঠিক	-2319
▁ৰক্ত	-2320
ন্ত্ৰৰ	-2321
প্ৰকাশ	-2322
াভাৱিক	-2323
▁ইছলাম	-2324
▁ঔৰঙ্গ	-2325
▁গ্ৰাহ	-2326
▁চাৰিও	-2327
▁পানীৰ	-2328
▁পোৱাৰ	-2329
▁বস্তু	-2330
▁বিশাল	-2331
▁বুলিও	-2332
▁ভাৰতে	-2333
▁মোগলৰ	-2334
▁যুক্ত	-2335
▁সংস্থ	-2336
▁সফলতা	-2337
▁সামৰি	-2338
▁সেনাৰ	-2339
▁তেলেগু	-2340
▁পূৰ্বৰ	-2341
▁বিমানব	-2342
▁মাজেৰে	-2343
▁সন্তান	-2344
▁অভিনয়ৰ	-2345
▁আমেৰিকা	-2346
▁উত্থাপন	-2347
▁খেলিছিল	-2348
▁চালুক্য	-2349
▁বিস্তৃত	-2350
▁ঐতিহাসিক	-2351
▁পৃষ্ঠপোষ	-2352
▁পৰিৱৰ্তে	-2353
▁ৰাজকুমাৰ	-2354
▁পৰম্পৰাগত	-2355
▁পুলাকেশিনৰ	-2356
▁পৃথ্বীৰাজৰ	-2357
▁চন্দ্রগুপ্ত	-2358
ইল	-2359
তঃ	-2360
২০	-2361
র্ভ	-2362
লাভ	-2363
্যা	-2364
ৰাক	-2365
▁জি	-2366
▁ভী	-2367
▁সভ	-2368
গণিত	-2369
দণ্ড	-2370
হেতু	-2371
াষ্ট	-2372
িকান	-2373
িক্ত	-2374
োচ্চ	-2375
্ত্ৰ	-2376
ৰুৱা	-2377
▁চুব	-2378
▁জিল	-2379
▁জুল	-2380
▁নগৰ	-2381
▁লীগ	-2382
▁সাৰ	-2383
ক্তিৰ	-2384
ালয়ত	-2385
ালয়ৰ	-2386
▁ইনিং	-2387
▁এবাৰ	-2388
▁এয়া	-2389
▁ছত্ত	-2390
▁ছবিৰ	-2391
▁জটিল	-2392
▁দশকৰ	-2393
▁দিশত	-2394
▁দিৱস	-2395
▁পৰিষ	-2396
▁বছৰত	-2397
▁শেহত	-2398
▁সেনা	-2399
▁২০০৭	-2400
▁ৰূপত	-2401
▁ৱেবছ	-2402
▁আগষ্ট	-2403
▁গাড়ী	-2404
▁গাভাস	-2405
▁ত্যাগ	-2406
▁দৃশ্য	-2407
▁পিছলৈ	-2408
▁বাতৰি	-2409
▁বাহাদ	-2410
▁ৰক্ষা	-2411
প্টেম্ব	-2412
▁প্ৰেৰণ	-2413
▁যোগদান	-2414
▁লক্ষ্ম	-2415
▁ইতিমধ্য	-2416
▁কংগ্ৰেছ	-2417
▁খ্ৰীষ্ট	-2418
▁পৰিগণিত	-2419
▁যোগাযোগ	-2420
▁উদ্দেশ্য	-2421
▁নিৰ্ধাৰণ	-2422
▁নিৰ্বাচনত	-2423
▁উত্তৰাধিকাৰী	-2424
▁চেম্পিয়নশ্বিপ	-2425
চক	-2426
ছা	-2427
জী	-2428
থি	-2429
পৰ	-2430
ফৰ	-2431
হা	-2432
০ৰ	-2433
১৯	-2434
ক্য	-2435
ছাক	-2436
পাশ	-2437
মাত	-2438
র্গ	-2439
শিল	-2440
হ্ন	-2441
ালা	-2442
ৱান	-2443
▁এড	-2444
▁এম	-2445
▁ভৰ	-2446
▁ৰজ	-2447
কালৰ	-2448
মাৱত	-2449
েলিভ	-2450
▁এলে	-2451
▁কঢ়	-2452
▁দোক	-2453
▁নোৱ	-2454
▁মাদ	-2455
▁শিক	-2456
▁সংৰ	-2457
▁ৰাণ	-2458
াথমিক	-2459
▁অন্ধ	-2460
▁কামৰ	-2461
▁পৰাই	-2462
▁ভাষা	-2463
▁হস্ত	-2464
পশ্চিম	-2465
▁অক্টো	-2466
▁ক্ষতি	-2467
▁পুৰণি	-2468
▁বিত্ত	-2469
▁বিদ্য	-2470
▁মুম্ব	-2471
▁লোৱাৰ	-2472
▁সংযোগ	-2473
▁সেয়া	-2474
▁জয়লাভ	-2475
▁দৃষ্টি	-2476
▁পেটেলে	-2477
▁প্ৰকৃত	-2478
▁বিকশিত	-2479
▁বিশ্বৰ	-2480
▁ভালদৰে	-2481
▁মহিলাৰ	-2482
▁যিহেতু	-2483
▁শ্ৰেণী	-2484
▁সংস্থা	-2485
▁সন্ধান	-2486
▁অভয়াৰণ	-2487
▁ঔৰঙ্গজে	-2488
▁চিনাক্ত	-2489
▁পদ্মাৱত	-2490
▁পৰিয়াল	-2491
▁সংযুক্ত	-2492
▁সাক্ষাৎ	-2493
▁অলিম্পিক	-2494
▁পৰিৱৰ্তন	-2495
▁ছেপ্টেম্ব	-2496
▁নিৰ্বাচিত	-2497
▁বৈশিষ্ট্য	-2498
পট	-2499
চাল	-2500
ণিৰ	-2501
শ্ৰ	-2502
াণী	-2503
ুকি	-2504
েলি	-2505
োলা	-2506
ৱৰণ	-2507
▁কন	-2508
▁মো	-2509
ধৰণৰ	-2510
নীতি	-2511
ন্নত	-2512
মানৰ	-2513
ায়ু	-2514
িণাত	-2515
োৱাল	-2516
▁অধি	-2517
▁কমা	-2518
▁কলা	-2519
▁ঘাট	-2520
▁ডিগ	-2521
▁ধৰা	-2522
▁বিধ	-2523
▁লেখ	-2524
▁শুক	-2525
▁শ্ৰ	-2526
▁১০০	-2527
কসকলৰ	-2528
ন্ত্র	-2529
পূৰ্ব	-2530
ষ্ঠিত	-2531
িয়োগ	-2532
ীশগড়	-2533
ৃপক্ষ	-2534
▁কেইব	-2535
▁খানে	-2536
▁চাওক	-2537
▁চান্	-2538
▁চুটি	-2539
▁নিউজ	-2540
▁বছৰে	-2541
▁বজাই	-2542
▁সঞ্চ	-2543
মহাদেশ	-2544
▁উন্নত	-2545
▁কৃষ্ণ	-2546
▁দাক্ষ	-2547
▁পলায়	-2548
▁পাৰ্চ	-2549
▁শ্বেৰ	-2550
▁ৰাখিব	-2551
▁অন্তিম	-2552
▁আৰক্ষী	-2553
▁উৎপাদন	-2554
▁চুক্তি	-2555
▁তৈয়াৰ	-2556
▁ভিত্তি	-2557
▁শান্তি	-2558
▁কাৰ্য্য	-2559
▁লোকসকলৰ	-2560
▁সীমান্ত	-2561
▁ৰাখিবলৈ	-2562
▁অতিৰিক্ত	-2563
▁দীঘলীয়া	-2564
▁প্ৰস্তাৱ	-2565
▁সুৰক্ষিত	-2566
▁সৈন্যবাহ	-2567
▁হাৰিয়ান	-2568
▁ৰাজ্যখনত	-2569
▁ছত্তীশগড়	-2570
▁জনসাধাৰণৰ	-2571
▁দাক্ষিণাত	-2572
▁প্ৰথমবাৰৰ	-2573
▁পঠিয়াইছিল	-2574
উট	-2575
"""	-2576
ংকৰ	-2577
দৰা	-2578
শাস	-2579
িতি	-2580
ূৰৰ	-2581
েলত	-2582
▁অব	-2583
▁আঠ	-2584
▁গৱ	-2585
▁ঘে	-2586
▁মজ	-2587
▁সা	-2588
▁সৰ	-2589
াঙ্গ	-2590
▁অনা	-2591
▁কেত	-2592
▁খুৰ	-2593
▁গোচ	-2594
▁গ্র	-2595
▁ঘৰৰ	-2596
▁ধাৰ	-2597
▁নাট	-2598
▁নিক	-2599
▁নিৰ	-2600
▁নুৰ	-2601
▁পাহ	-2602
▁ফেড	-2603
▁ফ্ৰ	-2604
▁বিব	-2605
▁ভৰি	-2606
▁মোহ	-2607
▁সোম	-2608
ামৰিক	-2609
▁কণ্ঠ	-2610
▁কৰোঁ	-2611
▁খেলত	-2612
▁খেলৰ	-2613
▁দিনৰ	-2614
▁নির্	-2615
▁পল্ল	-2616
▁পিছৰ	-2617
▁প্ৰণ	-2618
▁বন্য	-2619
▁মাহৰ	-2620
▁শ্বে	-2621
▁সত্য	-2622
▁সমাধ	-2623
▁সাগৰ	-2624
▁অনুভৱ	-2625
▁আগ্ৰহ	-2626
▁উপনীত	-2627
▁কাৰাগ	-2628
▁ক্লাব	-2629
▁কৰিবৰ	-2630
▁চিহ্ন	-2631
▁জনজাত	-2632
▁তদন্ত	-2633
▁নৃত্য	-2634
▁প্রথম	-2635
▁সম্ভৱ	-2636
▁হেৰুৱ	-2637
▁অধিকাৰ	-2638
▁অনলাইন	-2639
▁কুমাৰে	-2640
▁চাৰিটা	-2641
▁ডিগ্ৰী	-2642
▁দলটোৱে	-2643
▁নাগৰিক	-2644
▁বিদেশী	-2645
▁অসামৰিক	-2646
▁আধিপত্য	-2647
▁কৃতিত্ব	-2648
▁ক্ষেত্র	-2649
▁দিল্লীত	-2650
▁বিবেচনা	-2651
▁ব্ৰাহ্ম	-2652
▁মন্ত্ৰী	-2653
▁অঞ্চলটোৰ	-2654
▁ইতিমধ্যে	-2655
▁পেচাদাৰী	-2656
▁প্ৰতিৰোধ	-2657
▁বিনিয়োগ	-2658
▁সৰ্বোচ্চ	-2659
▁প্ৰতিবেদন	-2660
▁হুমায়ুনে	-2661
ইন	-2662
ঞ্	-2663
সভ	-2664
ুৎ	-2665
েজ	-2666
ঁতে	-2667
খলা	-2668
ড়ৰ	-2669
দাত	-2670
পূব	-2671
বাত	-2672
াদৰ	-2673
িকৰ	-2674
িপি	-2675
▁চো	-2676
▁টা	-2677
▁ডে	-2678
▁তি	-2679
▁বী	-2680
দিনৰ	-2681
বোৰক	-2682
্বান	-2683
্ষিক	-2684
▁আগত	-2685
▁কাঠ	-2686
▁জৈন	-2687
▁দোষ	-2688
▁পোন	-2689
▁যুৱ	-2690
▁সাহ	-2691
▁হিট	-2692
নিষ্ঠ	-2693
▁অধিন	-2694
▁দশকত	-2695
▁প্রদ	-2696
▁প্ৰস	-2697
▁বংগৰ	-2698
▁মহান	-2699
▁লিখন	-2700
▁শৈলী	-2701
▁ৰোগৰ	-2702
▁ওচৰলৈ	-2703
▁গাঁৱৰ	-2704
▁গৱৰ্ণ	-2705
▁ঘৰুৱা	-2706
▁চৰকাৰ	-2707
▁নোৱাৰ	-2708
▁পাবলৈ	-2709
▁পাৰ্ক	-2710
▁পৰ্যট	-2711
▁মিটাৰ	-2712
▁শীৰ্ষ	-2713
▁ষ্ট্ৰ	-2714
▁সংবাদ	-2715
▁অৱস্থা	-2716
▁দিনটোত	-2717
▁নিয়োগ	-2718
▁বিৰোধী	-2719
▁মানুহে	-2720
▁ষ্টেচন	-2721
▁সহযোগী	-2722
▁ক্ৰীড়া	-2723
▁প্ৰাচীন	-2724
▁পৰিৱেশন	-2725
▁হায়দৰা	-2726
▁নাৰায়ণৰ	-2727
▁নৱেম্বৰত	-2728
▁প্ৰতিনিধ	-2729
▁প্ৰাথমিক	-2730
▁শ্বাহজাহ	-2731
▁ফলস্বৰূপে	-2732
▁শিৱাজীয়ে	-2733
▁আগবঢ়াইছিল	-2734
▁যুক্তৰাষ্ট্ৰ	-2735
▁ব্যক্তিগতভাৱে	-2736
এম	-2737
সী	-2738
হি	-2739
ংজে	-2740
কতা	-2741
খনক	-2742
গ্র	-2743
ছাৰ	-2744
নাথ	-2745
ভাষ	-2746
াবল	-2747
ালম	-2748
িচি	-2749
িবি	-2750
ুলৰ	-2751
েটৰ	-2752
ৰাণ	-2753
ৰ্প	-2754
▁এট	-2755
▁গে	-2756
▁নথ	-2757
""।"	-2758
ংকাৰ	-2759
ংগাল	-2760
াৰাম	-2761
িকেল	-2762
িতাপ	-2763
ৃতিৰ	-2764
▁কান	-2765
▁গৰু	-2766
▁চকু	-2767
▁ছেল	-2768
▁নিদ	-2769
▁নেপ	-2770
▁পান	-2771
▁ফ্ল	-2772
▁মৃত	-2773
▁সুন	-2774
▁সোন	-2775
▁হাস	-2776
▁ৰিচ	-2777
দ্ধাৰ	-2778
বিন্দ	-2779
যোজনা	-2780
স্কাৰ	-2781
ীয়াই	-2782
▁উপাদ	-2783
▁ওলাই	-2784
▁কেনু	-2785
▁জয়ী	-2786
▁ট্ৰফ	-2787
▁দেৱে	-2788
▁নীতি	-2789
▁পৰিব	-2790
▁বোমা	-2791
▁বৰ্গ	-2792
▁মিৰ্	-2793
▁১৯৯৯	-2794
ন্তব্য	-2795
লেণ্ডৰ	-2796
িয়াবা	-2797
▁ঔৰংজে	-2798
▁দিনটো	-2799
▁দেখুৱ	-2800
▁দ্বৈত	-2801
▁বিনিম	-2802
▁বিহাৰ	-2803
▁শ্ৰেণ	-2804
স্কৃতিক	-2805
▁জাতীয়	-2806
▁তিনিজন	-2807
▁দুৰ্বল	-2808
▁বিভক্ত	-2809
▁মনোনীত	-2810
▁হাছানে	-2811
▁হোৱাটো	-2812
▁ৰাজত্ব	-2813
▁উৎসাহিত	-2814
▁জাহাঙ্গ	-2815
▁প্ৰকাৰৰ	-2816
▁প্ৰাৰ্থ	-2817
▁মহীশূৰৰ	-2818
▁লিখিছিল	-2819
▁শ্বুটিং	-2820
▁সাম্রাজ	-2821
▁ৰাজকীয়	-2822
▁কঢ়িয়াই	-2823
▁কৰ্ণাটকী	-2824
▁বিস্ফোৰণ	-2825
▁অনুষ্ঠানত	-2826
▁কেতিয়াবা	-2827
▁ডিচেম্বৰত	-2828
▁আত্মপ্ৰকাশ	-2829
▁আনুষ্ঠানিকভাৱে	-2830
এন	-2831
ঘু	-2832
ঠা	-2833
ধৰ	-2834
সহ	-2835
াড	-2836
িদ	-2837
নাই	-2838
বৃত	-2839
বেদ	-2840
িছৰ	-2841
ীতি	-2842
▁ওল	-2843
▁ভে	-2844
▁যো	-2845
ন্দী	-2846
পত্ৰ	-2847
বন্ধ	-2848
ম্বৰ	-2849
াজনৰ	-2850
াৰ্জ	-2851
িনীক	-2852
ীতিত	-2853
্ৰাম	-2854
ৰাচী	-2855
▁অৰণ	-2856
▁আজি	-2857
▁আহত	-2858
▁উইল	-2859
▁কিং	-2860
▁চাহ	-2861
▁জৰু	-2862
▁ঠিক	-2863
▁ডাক	-2864
▁তেত	-2865
▁বান	-2866
▁বেল	-2867
▁যাত	-2868
▁১৭৬	-2869
▁১৯১	-2870
ক্ষেত	-2871
শিল্প	-2872
ান্না	-2873
ায়েক	-2874
▁উপাধ	-2875
▁কঠিন	-2876
▁কলেজ	-2877
▁কৰ্ক	-2878
▁চলাই	-2879
▁ট্ৰে	-2880
▁থিয়	-2881
▁পঞ্চ	-2882
▁বিপণ	-2883
▁ভূমি	-2884
▁ভৱিষ	-2885
▁শেষত	-2886
▁সর্ব	-2887
▁২০০০	-2888
ঞ্চলিক	-2889
শ্ৰুতি	-2890
▁উইকেট	-2891
▁চুবুৰ	-2892
▁জনোৱা	-2893
▁তেনেহ	-2894
▁নিম্ন	-2895
▁পাছতে	-2896
▁পোছাক	-2897
▁পৰিণত	-2898
▁বান্ধ	-2899
▁বিৱৰণ	-2900
▁মুদ্ৰ	-2901
▁মৌৰ্য	-2902
▁স্বীক	-2903
▁একাধিক	-2904
▁গৱৰ্ণৰ	-2905
▁নোৱাৰে	-2906
▁পলায়ন	-2907
▁বন্দুক	-2908
▁বিকল্প	-2909
▁সহায়ক	-2910
▁স্থানত	-2911
▁আগবাঢ়ি	-2912
▁উৎপত্তি	-2913
▁জেনেৰেল	-2914
▁পঞ্জীয়	-2915
▁বন্যপ্ৰ	-2916
▁বাহিনীৰ	-2917
▁বাৰ্ষিক	-2918
▁অধিনায়ক	-2919
▁উপমহাদেশ	-2920
▁পেলাইছিল	-2921
▁অভয়াৰণ্য	-2922
▁চাৰিওফালে	-2923
▁প্ৰতিষ্ঠান	-2924
▁চলচ্চিত্ৰখনত	-2925
আৰ	-2926
চে	-2927
ডৰ	-2928
সদ	-2929
োভ	-2930
থাক	-2931
নতা	-2932
ভূত	-2933
িভি	-2934
ৰাল	-2935
ৰ্ধ	-2936
ৱিক	-2937
▁অগ	-2938
▁কই	-2939
▁কৈ	-2940
▁টো	-2941
▁দহ	-2942
▁সৌ	-2943
▁২৬	-2944
এলচি	-2945
চাৰী	-2946
ঞ্জন	-2947
ন্দা	-2948
পুৰৰ	-2949
ফালৰ	-2950
বাহী	-2951
াপুৰ	-2952
াম্ব	-2953
ালাৰ	-2954
াৰ্ছ	-2955
িশ্ৰ	-2956
ুষ্ট	-2957
োনাৰ	-2958
▁অসম	-2959
▁তলত	-2960
▁নাজ	-2961
▁বহি	-2962
▁বাঘ	-2963
▁ভংগ	-2964
▁শীত	-2965
▁সাজ	-2966
ব্ৰুৱ	-2967
যুদ্ধ	-2968
াউণ্ট	-2969
▁অৰ্ধ	-2970
▁ইন্দ	-2971
▁উভয়	-2972
▁ঔৰংগ	-2973
▁কঠোৰ	-2974
▁কমেও	-2975
▁গায়	-2976
▁ডিফে	-2977
▁দিনা	-2978
▁নেটৱ	-2979
▁পূজা	-2980
▁ব্ৰে	-2981
▁মঙ্গ	-2982
▁যক্ষ	-2983
▁সিঙে	-2984
▁২০০২	-2985
▁ৰখাৰ	-2986
ানীয়ে	-2987
্রান্ত	-2988
▁ইফালে	-2989
▁উপস্থ	-2990
▁জিলাত	-2991
▁টেলিভ	-2992
▁নামটো	-2993
▁নিৰাপ	-2994
▁ফুটবল	-2995
▁ব্যৱহ	-2996
▁ভাষাৰ	-2997
▁ভাৰতক	-2998
▁ভিডিঅ	-2999
▁মিনিট	-3000
▁সদায়	-3001
▁আঁতৰাই	-3002
▁আনিছিল	-3003
▁আয়োজন	-3004
▁গান্ধী	-3005
▁গাভাস্	-3006
▁বিবাহৰ	-3007
▁বুজায়	-3008
▁ভাৰতলৈ	-3009
▁সংঘৰ্ষ	-3010
▁সময়তে	-3011
▁ৰাজ্যত	-3012
▁আঞ্চলিক	-3013
▁আৰক্ষীৰ	-3014
▁চিহ্নিত	-3015
▁পৰিমাণৰ	-3016
▁ফেব্ৰুৱ	-3017
▁বাহিনীক	-3018
▁সংস্কৰণ	-3019
▁সুৰক্ষা	-3020
▁স্বাস্থ	-3021
▁ৱেবছাইট	-3022
▁আক্ৰান্ত	-3023
▁তামিলনাড	-3024
▁সিংহাসনত	-3025
▁কৰ্তৃপক্ষ	-3026
▁বিমানবন্দৰ	-3027
ওও	-3028
চল	-3029
তী	-3030
লন	-3031
সং	-3032
ূত	-3033
োণ	-3034
ংকা	-3035
জনো	-3036
টিন	-3037
পাৰ	-3038
শ্ম	-3039
সভা	-3040
ুগী	-3041
োকে	-3042
▁আভ	-3043
▁কথ	-3044
▁খৰ	-3045
▁ঘৰ	-3046
▁চী	-3047
▁দা	-3048
▁যত	-3049
▁স্	-3050
ক্ৰম	-3051
পন্থ	-3052
বাচক	-3053
য়নৰ	-3054
িদ্ধ	-3055
িনিব	-3056
েক্ট	-3057
ৰ্ভত	-3058
▁অলপ	-3059
▁আৰ্	-3060
▁খোজ	-3061
▁গোপ	-3062
▁গোল	-3063
▁চেল	-3064
▁জ্ঞ	-3065
▁টেক	-3066
▁নিষ	-3067
▁ফলা	-3068
▁বনা	-3069
▁ভোট	-3070
▁মাক	-3071
▁মিছ	-3072
▁মিড	-3073
▁শ্র	-3074
▁সীম	-3075
▁সেৱ	-3076
▁হ্র	-3077
▁১৭৫	-3078
▁১৭৭	-3079
কসকলক	-3080
জ্ঞাপ	-3081
ণ্ডিত	-3082
ন্ধান	-3083
▁অংশৰ	-3084
▁অগ্ৰ	-3085
▁অনুপ	-3086
▁আদিৰ	-3087
▁আহমে	-3088
▁ইচ্ছ	-3089
▁এইখন	-3090
▁কানা	-3091
▁খানক	-3092
▁গুলী	-3093
▁নকৰা	-3094
▁নেতা	-3095
▁ফালৰ	-3096
▁বিফল	-3097
▁বিৰল	-3098
▁মানি	-3099
▁সিন্	-3100
▁সেনৰ	-3101
▁২০০৮	-3102
ক্ৰিয়	-3103
প্রিয়	-3104
সাত্মক	-3105
স্থানৰ	-3106
▁কৰ্কট	-3107
▁চাবলৈ	-3108
▁জানিব	-3109
▁ফৰাচী	-3110
▁বাছনি	-3111
▁বিচৰা	-3112
▁শাসনৰ	-3113
▁ৰাওৱে	-3114
▁অভিজ্ঞ	-3115
▁এলএলচি	-3116
▁ঔৰংগজে	-3117
▁গুৰুতৰ	-3118
▁টেষ্টত	-3119
▁পেলোৱা	-3120
▁প্ৰিয়	-3121
▁বচ্চনে	-3122
▁বিচাৰে	-3123
▁শ্বাহে	-3124
▁সঁজুলি	-3125
▁সমাপ্ত	-3126
▁নেহৰুৱে	-3127
▁প্রদর্শ	-3128
▁প্ৰজাতি	-3129
▁লোকসকলে	-3130
▁শাস্ত্ৰ	-3131
▁অনুজ্ঞাপ	-3132
▁আৰম্ভণিৰ	-3133
▁উদ্যানখন	-3134
▁জনপ্রিয়	-3135
▁বিত্তীয়	-3136
▁ব্ৰিটিছৰ	-3137
▁তামিলনাডু	-3138
▁কৰিবলগীয়া	-3139
▁বন্যপ্ৰাণী	-3140
▁বিষয়াসকলে	-3141
▁সাংস্কৃতিক	-3142
▁ৰাষ্ট্ৰপতি	-3143
▁প্ৰতিনিধিত্ব	-3144
খৰ	-3145
গা	-3146
দু	-3147
ুঁ	-3148
ুস	-3149
ৱী	-3150
কেই	-3151
গাঁ	-3152
থ্য	-3153
ধাৰ	-3154
র্ষ	-3155
লৱে	-3156
সিক	-3157
াকা	-3158
ামত	-3159
াহে	-3160
িনৰ	-3161
েষণ	-3162
োকৈ	-3163
▁গৌ	-3164
▁সজ	-3165
▁২১	-3166
▁২৪	-3167
▁৪০	-3168
দায়	-3169
য়িং	-3170
শ্বৰ	-3171
সভাত	-3172
ান্স	-3173
ালীন	-3174
▁চাপ	-3175
▁জুই	-3176
▁তলৰ	-3177
▁তাই	-3178
▁দলে	-3179
▁বিৰ	-3180
▁মনো	-3181
▁মেন	-3182
▁লগা	-3183
▁হিম	-3184
দ্রোহ	-3185
নাষ্ট	-3186
বদন্ত	-3187
াক্ষৰ	-3188
ৰিদ্ৰ	-3189
▁অংশত	-3190
▁আদেশ	-3191
▁এলাহ	-3192
▁কাকত	-3193
▁চণ্ড	-3194
▁জাৰ্	-3195
▁দেৱী	-3196
▁দৰেই	-3197
▁পূৰণ	-3198
▁ফাইন	-3199
▁শাৰী	-3200
▁সম্ব	-3201
▁হত্য	-3202
▁২০০৯	-3203
▁২০১২	-3204
▁ৰজাৰ	-3205
▁ৰন্ধ	-3206
▁ৰাগৰ	-3207
▁ৰাজা	-3208
▁ৰাণী	-3209
বাতোকৈ	-3210
▁অৱৰোধ	-3211
▁কান্দ	-3212
▁খাণ্ড	-3213
▁বিধান	-3214
▁বিন্দ	-3215
▁মুক্ত	-3216
▁শ্ৰীল	-3217
▁সেৱাৰ	-3218
▁স্বৰৰ	-3219
▁ইণ্টাৰ	-3220
▁উদ্ধাৰ	-3221
▁ক্ৰীড়	-3222
▁চাইকেল	-3223
▁তুলনাত	-3224
▁প্ৰথমে	-3225
▁প্ৰযোজ	-3226
▁বনাঞ্চ	-3227
▁বাহিৰত	-3228
▁বিজয়ৰ	-3229
▁বিষয়া	-3230
▁শাস্তি	-3231
▁শৃংখলা	-3232
▁সংখ্যা	-3233
▁ইংলেণ্ড	-3234
▁কাৰ্যকল	-3235
▁দূৰত্বত	-3236
▁দৃষ্টিশ	-3237
▁পদক্ষেপ	-3238
▁শিক্ষাৰ	-3239
▁শিৱাজীৰ	-3240
▁সমস্যাৰ	-3241
▁ৰাজবংশৰ	-3242
▁অভিযুক্ত	-3243
▁আগবঢ়োৱা	-3244
▁এলাহাবাদ	-3245
▁কিংবদন্ত	-3246
▁জিমনাষ্ট	-3247
▁দিল্লীলৈ	-3248
▁নিৰ্মাণৰ	-3249
▁পঞ্জীয়ন	-3250
▁ব্ৰাহ্মণ	-3251
▁সন্দৰ্ভত	-3252
▁অনুসন্ধান	-3253
▁সম্ভাজীয়ে	-3254
▁জালালুদ্দিন	-3255
▁স্থানান্তৰিত	-3256
▁প্ৰতিদ্বন্দ্ব	-3257
াও	-3258
িড	-3259
ৱণ	-3260
নাট	-3261
ভূম	-3262
র্জ	-3263
লতঃ	-3264
াউন	-3265
াদে	-3266
ামা	-3267
্নী	-3268
▁অম	-3269
▁কট	-3270
▁খন	-3271
▁গহ	-3272
▁টু	-3273
▁বত	-3274
▁য়	-3275
▁যৌ	-3276
▁সঁ	-3277
▁হো	-3278
ইণ্ট	-3279
জুৰি	-3280
ত্যৰ	-3281
দ্ধা	-3282
ভূমি	-3283
য়িক	-3284
শ্ৰে	-3285
স্যৰ	-3286
ুগীজ	-3287
োৱেই	-3288
ৰেৰে	-3289
▁একক	-3290
▁কবি	-3291
▁ঘোঁ	-3292
▁ধৰণ	-3293
▁মাচ	-3294
▁মোক	-3295
▁হকী	-3296
▁হেল	-3297
▁১৭৮	-3298
গীয়া	-3299
াক্তন	-3300
েশ্বৰ	-3301
োৱাকৈ	-3302
▁অনুগ	-3303
▁আকবৰ	-3304
▁আমাৰ	-3305
▁আৰোপ	-3306
▁কল্প	-3307
▁খেতি	-3308
▁গোৱা	-3309
▁চোৱা	-3310
▁পত্ৰ	-3311
▁পৰ্ত	-3312
▁সিঙৰ	-3313
▁২০০৬	-3314
▁২০১০	-3315
▁ৰাখে	-3316
েন্দ্ৰ	-3317
▁উপায়	-3318
▁ঘেৰাও	-3319
▁তীব্ৰ	-3320
▁নাথাক	-3321
▁নিজেই	-3322
▁পাণ্ড	-3323
▁পাৰ্ট	-3324
▁পোনপট	-3325
▁পৰিছে	-3326
▁বন্ধু	-3327
▁বাবেও	-3328
▁ভিতৰৰ	-3329
▁ভিন্ন	-3330
▁ভুক্ত	-3331
▁মূলতঃ	-3332
▁সঁহাৰ	-3333
▁অভিহিত	-3334
▁ইংৰাজী	-3335
▁গাইছিল	-3336
▁ছবিখনে	-3337
▁জুলাইত	-3338
▁তালিকা	-3339
▁দৰিদ্ৰ	-3340
▁প্রধান	-3341
▁প্ৰকাৰ	-3342
▁পৰিচয়	-3343
▁ফেডাৰে	-3344
▁বাহিনী	-3345
▁বিজয়ী	-3346
▁মহীশূৰ	-3347
▁মানুহৰ	-3348
▁যিসকলে	-3349
▁শিল্পী	-3350
▁সম্পৰ্	-3351
▁সহায়ত	-3352
▁স্থানৰ	-3353
গৰাকীয়ে	-3354
▁অধিকাংশ	-3355
▁অনলাইনত	-3356
▁এপ্ৰিলত	-3357
▁চুলতানে	-3358
▁টেলিভিছ	-3359
▁তুলিছিল	-3360
▁থাকিবলৈ	-3361
▁দুয়োজন	-3362
▁নেটৱৰ্ক	-3363
▁পিছুৱাই	-3364
▁প্ৰথমটো	-3365
▁প্ৰয়োগ	-3366
▁বিশিষ্ট	-3367
▁সবাতোকৈ	-3368
▁সম্পন্ন	-3369
▁সাহিত্য	-3370
▁অধিষ্ঠিত	-3371
▁আন্দোলনৰ	-3372
▁কৰ্ণাটকৰ	-3373
▁নাৰায়ণে	-3374
▁নিৰাপত্ত	-3375
▁নিৰ্বাচন	-3376
▁প্ৰযোজনা	-3377
▁প্ৰস্তুত	-3378
▁প্ৰাক্তন	-3379
▁ভুক্তভোগ	-3380
▁শ্বেয়াৰ	-3381
▁সামগ্ৰীৰ	-3382
▁স্বাক্ষৰ	-3383
▁উদ্যানখনৰ	-3384
▁সম্পৰ্কিত	-3385
▁স্বাভাৱিক	-3386
▁হিন্দুস্ত	-3387
▁জলপ্ৰপাতটো	-3388
▁সম্প্ৰসাৰণ	-3389
▁তেণ্ডুলকাৰে	-3390
▁প্ৰতিশ্ৰুতি	-3391
▁অস্ত্ৰোপচাৰৰ	-3392
),	-3393
দশ	-3394
ষু	-3395
▁-	-3396
কৈও	-3397
ছাই	-3398
টিক	-3399
তাই	-3400
াটো	-3401
াদশ	-3402
িবা	-3403
ুনৰ	-3404
্ছে	-3405
্তে	-3406
▁আস	-3407
▁এব	-3408
▁ফৰ	-3409
▁২৩	-3410
▁ৰং	-3411
ক্ষৰ	-3412
কৰ্ম	-3413
জনিত	-3414
সম্প	-3415
াজীক	-3416
াম্ম	-3417
েৰীৰ	-3418
্যাৰ	-3419
্ৰিক	-3420
▁অবি	-3421
▁আগৰ	-3422
▁গংগ	-3423
▁গৱে	-3424
▁ঘাঁ	-3425
▁ঘৰত	-3426
▁জাফ	-3427
▁তাক	-3428
▁নিউ	-3429
▁পথত	-3430
▁ভয়	-3431
▁মুৰ	-3432
▁মেঘ	-3433
ষ্টাৰ	-3434
্যন্ত	-3435
▁ঐতিহ	-3436
▁চৰাই	-3437
▁ডাবল	-3438
▁পাছৰ	-3439
▁বাজী	-3440
▁বৰষু	-3441
▁মনোৰ	-3442
▁মানৱ	-3443
▁শত্ৰ	-3444
▁সন্ম	-3445
▁২০০১	-3446
▁অতিথি	-3447
▁অশোকে	-3448
▁আবেদন	-3449
▁উপত্য	-3450
▁কাশ্ম	-3451
▁কাৰণে	-3452
▁গোৱাৰ	-3453
▁গ্ৰাম	-3454
▁চলোৱা	-3455
▁দুর্গ	-3456
▁দোকান	-3457
▁পূৰ্ণ	-3458
▁বুদ্ধ	-3459
▁মহাৰা	-3460
▁শাৰীৰ	-3461
▁শিবিৰ	-3462
▁শৰীৰৰ	-3463
▁সাৰ্ব	-3464
▁সৈনিক	-3465
▁স্কুল	-3466
শ্ৰেষ্ঠ	-3467
ষ্টাব্দ	-3468
▁উপাদান	-3469
▁এনেদৰে	-3470
▁ঘটিছিল	-3471
▁চাইক্ল	-3472
▁ডিজাইন	-3473
▁নতুনকৈ	-3474
▁নুৰজাহ	-3475
▁পঞ্জাৱ	-3476
▁প্ৰক্ৰ	-3477
▁ভায়েক	-3478
▁মাৰ্চত	-3479
▁সংগঠিত	-3480
▁সন্ত্ৰ	-3481
▁সুন্দৰ	-3482
িয়ালৈকে	-3483
▁উচ্চতাৰ	-3484
▁উদ্যোগৰ	-3485
▁উপন্যাস	-3486
▁ছাৰ্ভিচ	-3487
▁দেউতাকৰ	-3488
▁প্ৰকল্প	-3489
▁প্ৰশংসা	-3490
▁বাসিন্দ	-3491
▁বৈচিত্ৰ	-3492
▁সন্মুখত	-3493
▁কংগ্ৰেছৰ	-3494
▁কেইবাজনো	-3495
▁প্ৰভাৱিত	-3496
▁চুবুৰীয়া	-3497
▁জানুৱাৰীত	-3498
▁প্ৰত্যক্ষ	-3499
▁প্ৰশিক্ষণ	-3500
▁স্বাস্থ্য	-3501
▁পুলাকেশিনে	-3502
▁পৰিস্থিতিত	-3503
▁শ্ৰীনিবাসে	-3504
▁কোম্পানীয়ে	-3505
▁বাজপেয়ীয়ে	-3506
ঁহ	-3507
উল	-3508
কু	-3509
ফি	-3510
বৃ	-3511
ভৌ	-3512
ৃদ	-3513
গিৰ	-3514
তাত	-3515
দেৱ	-3516
নাক	-3517
মেট	-3518
হ্ম	-3519
াতি	-3520
াদা	-3521
াবৰ	-3522
াৱৰ	-3523
্লা	-3524
ৰীক	-3525
▁উম	-3526
▁ঔষ	-3527
▁তল	-3528
▁তু	-3529
▁ধৰ	-3530
▁পি	-3531
▁মছ	-3532
ন্মৰ	-3533
মণ্ড	-3534
াধীন	-3535
াস্ত	-3536
িলেখ	-3537
োদিত	-3538
্যান	-3539
্যুত	-3540
্রমণ	-3541
ৰাচৰ	-3542
▁অপহ	-3543
▁আশে	-3544
▁ইৰা	-3545
▁উৎক	-3546
▁কাব	-3547
▁গছৰ	-3548
▁ঘাই	-3549
▁ছিক	-3550
▁ছিন	-3551
▁ঢাক	-3552
▁দমন	-3553
▁নিচ	-3554
▁পাই	-3555
▁ফুল	-3556
▁বাব	-3557
▁মনত	-3558
▁শতক	-3559
▁হৰি	-3560
▁ৰঙৰ	-3561
▁ৰেচ	-3562
কালীন	-3563
ক্ষাৰ	-3564
ছিয়া	-3565
টামান	-3566
বাহিত	-3567
ষ্কাৰ	-3568
স্কেট	-3569
াবদ্ধ	-3570
োৱালী	-3571
▁অমিত	-3572
▁অশ্ব	-3573
▁অস্ব	-3574
▁এক্স	-3575
▁কৃষি	-3576
▁কেনো	-3577
▁কৌশল	-3578
▁ক্ষু	-3579
▁ক্ৰম	-3580
▁গোচৰ	-3581
▁জুনত	-3582
▁টাইম	-3583
▁দত্ত	-3584
▁নকৰি	-3585
▁নাটক	-3586
▁পলাই	-3587
▁প্রত	-3588
▁বাংল	-3589
▁বাছি	-3590
▁মঞ্চ	-3591
▁মল্ল	-3592
▁মুখৰ	-3593
▁লেখক	-3594
▁ষষ্ঠ	-3595
▁ষ্টে	-3596
▁সাফল	-3597
▁১৯৪৭	-3598
▁১৯৭০	-3599
▁১৯৭৯	-3600
▁১৯৮০	-3601
▁১৯৮৪	-3602
▁২০০৫	-3603
নামূলক	-3604
▁কিতাপ	-3605
▁চিত্র	-3606
▁চিনেম	-3607
▁ড্ৰাগ	-3608
▁ত্ৰিপ	-3609
▁ব্যয়	-3610
▁ভিত্ত	-3611
▁যিমান	-3612
▁শৃংখল	-3613
▁সিন্ধ	-3614
▁স্বাম	-3615
▁হেণ্ড	-3616
▁ৰায়ৰ	-3617
▁ৱেষ্ট	-3618
ক্ষেত্ৰ	-3619
ত্ত্বেও	-3620
▁অনুশীল	-3621
▁অভিলেখ	-3622
▁অৰ্থাৎ	-3623
▁আগষ্টত	-3624
▁আত্মসম	-3625
▁আদালতত	-3626
▁আহ্বান	-3627
▁ইনিংছত	-3628
▁ইয়াৰে	-3629
▁কন্যাক	-3630
▁নেপথ্য	-3631
▁পত্নীৰ	-3632
▁পাঁচটা	-3633
▁পাহাৰৰ	-3634
▁প্ৰতিক	-3635
▁বাংগাল	-3636
▁বিতৰ্ক	-3637
▁ব্যৰ্থ	-3638
▁ভিতৰতে	-3639
▁ভৱিষ্য	-3640
▁মাধ্যম	-3641
▁যুক্তি	-3642
▁শ্বাহৰ	-3643
▁সচৰাচৰ	-3644
▁হাস্যৰ	-3645
ঞ্চিয়েল	-3646
▁অভিযোগত	-3647
▁ইছলামিক	-3648
▁ইতিবাচক	-3649
▁খেলুৱৈৰ	-3650
▁দুয়োখন	-3651
▁বাণিজ্য	-3652
▁ব্যৱহৃত	-3653
▁মন্তব্য	-3654
▁সংস্কৃত	-3655
▁স্থায়ী	-3656
▁স্নায়ু	-3657
▁আমেৰিকান	-3658
▁কেইটামান	-3659
▁ক্ষেত্রত	-3660
▁কৰ্মচাৰী	-3661
▁চিকিৎসাৰ	-3662
▁প্ৰজাতিৰ	-3663
▁প্ৰতিবাদ	-3664
▁প্ৰত্যেক	-3665
▁পৰ্যায়ত	-3666
▁ব্যৱহাৰৰ	-3667
▁মাৰাঠাসকলে	-3668
▁চন্দ্ৰগুপ্ত	-3669
▁সৰ্বশ্ৰেষ্ঠ	-3670
▁দীৰ্ঘদিনীয়া	-3671
',	-3672
উদ	-3673
ঙত	-3674
শা	-3675
েছ	-3676
’-	-3677
এইচ	-3678
ওৱা	-3679
ক্ক	-3680
কৰী	-3681
পনি	-3682
বীৰ	-3683
ম্য	-3684
লতা	-3685
লীত	-3686
স্ম	-3687
হণৰ	-3688
হোল	-3689
াওঁ	-3690
ীৰে	-3691
ূড়	-3692
েতন	-3693
েয়	-3694
োলে	-3695
ৰীণ	-3696
▁ইম	-3697
▁এত	-3698
▁তৎ	-3699
▁তৰ	-3700
▁হু	-3701
▁২৭	-3702
▁৩১	-3703
▁৫০	-3704
।"""	-3705
খ্যা	-3706
ঞ্জী	-3707
তকৈও	-3708
দানৰ	-3709
দিনা	-3710
ব্দৰ	-3711
ভূতি	-3712
ভূষণ	-3713
লেৰে	-3714
ষ্ঠা	-3715
িভাৰ	-3716
োলাৰ	-3717
ৰাহে	-3718
ৰূপে	-3719
▁আৱে	-3720
▁একো	-3721
▁কাজ	-3722
▁গাই	-3723
▁চাই	-3724
▁ছয়	-3725
▁দাম	-3726
▁নায	-3727
▁পোহ	-3728
▁পৌৰ	-3729
▁বেছ	-3730
▁ভীম	-3731
▁ভুল	-3732
▁মংগ	-3733
▁মেল	-3734
▁হিৰ	-3735
▁১২৯	-3736
খণ্ডৰ	-3737
পাত্ৰ	-3738
াপ্তি	-3739
েশ্যন	-3740
▁অস্থ	-3741
▁আলীৰ	-3742
▁আৰভি	-3743
▁কাষত	-3744
▁কিবা	-3745
▁কিয়	-3746
▁খণ্ড	-3747
▁গীতৰ	-3748
▁চিনে	-3749
▁চুলি	-3750
▁জগতত	-3751
▁দিশে	-3752
▁পৰ্ব	-3753
▁বেগম	-3754
▁মহাৰ	-3755
▁মাজে	-3756
▁শৰীৰ	-3757
▁সাজু	-3758
▁১৯৯০	-3759
▁২০১৬	-3760
▁ৰত্ন	-3761
াভুক্ত	-3762
্ৰিয়া	-3763
▁আহমেদ	-3764
▁উপহাৰ	-3765
▁কলকাত	-3766
▁কাৰ্ড	-3767
▁ক্ষমা	-3768
▁গৰাকী	-3769
▁চান্দ	-3770
▁তথ্যৰ	-3771
▁তীৰ্থ	-3772
▁ধৰ্মৰ	-3773
▁নিজাম	-3774
▁পিতৃৰ	-3775
▁পৃথিৱ	-3776
▁পৰ্বত	-3777
▁বয়সত	-3778
▁ভৰ্তি	-3779
▁মহাবি	-3780
▁মাচুল	-3781
▁মিশ্ৰ	-3782
▁যিজনে	-3783
▁সাব্য	-3784
▁ৰাগবী	-3785
প্ৰাপ্ত	-3786
বলগীয়া	-3787
ৰীকালীন	-3788
▁অন্তৰ্	-3789
▁অসংখ্য	-3790
▁অসুবিধ	-3791
▁কেনেকৈ	-3792
▁কেৰিয়	-3793
▁ক্ৰমান	-3794
▁চণ্ডিগ	-3795
▁ছবিখনৰ	-3796
▁জীয়াই	-3797
▁দুৰ্গৰ	-3798
▁নামকৰণ	-3799
▁নোহোৱা	-3800
▁পণ্ডিত	-3801
▁প্রযোজ	-3802
▁বাহিৰে	-3803
▁ব্ৰহ্ম	-3804
▁ভাবুকি	-3805
▁মাৰাঠী	-3806
▁শতিকাত	-3807
▁সমস্যা	-3808
্যন্তৰীণ	-3809
▁অধ্যয়ন	-3810
▁ইণ্টাৰন	-3811
▁ইন্দিৰা	-3812
▁একেৰাহে	-3813
▁কেন্দ্র	-3814
▁গোবিন্দ	-3815
▁গ্ৰাম্য	-3816
▁গ্ৰীষ্ম	-3817
▁চিত্তোৰ	-3818
▁জনসংখ্য	-3819
▁জাৰ্মান	-3820
▁দৃষ্টিভ	-3821
▁নিউজিলে	-3822
▁পাৰিছিল	-3823
▁প্ৰত্যা	-3824
▁বাস্কেট	-3825
▁বাহাদুৰ	-3826
▁বিস্তাৰ	-3827
▁সক্ৰিয়	-3828
▁সমৰ্থনত	-3829
▁সামগ্রী	-3830
▁স্বাধীন	-3831
▁অভিনেতাৰ	-3832
▁কাৰাগাৰত	-3833
▁প্রয়োজন	-3834
▁পৰীক্ষাৰ	-3835
▁পৰ্তুগীজ	-3836
▁ব্যক্তিৰ	-3837
▁সংগীতজ্ঞ	-3838
▁সন্মানিত	-3839
▁সাব্যস্ত	-3840
▁নিয়মীয়া	-3841
▁নিৰ্ণায়ক	-3842
▁প্ৰদৰ্শনৰ	-3843
▁প্ৰাৰ্থনা	-3844
▁আম্বেদকাৰে	-3845
▁মৃত্যুদণ্ড	-3846
▁শাস্ত্ৰীয়	-3847
▁সম্পৰ্কীয়	-3848
▁স্বত্বাধিক	-3849
▁অনুজ্ঞাপত্ৰ	-3850
▁প্ৰতিযোগিতাৰ	-3851
▁সম্পূৰ্ণৰূপে	-3852
ঙা	-3853
চা	-3854
নু	-3855
বন	-3856
মল	-3857
ূহ	-3858
্ফ	-3859
ৰো	-3860
খাত	-3861
গতি	-3862
জয়	-3863
জিদ	-3864
জোঁ	-3865
ডেল	-3866
নিত	-3867
ব্ল	-3868
ভৌম	-3869
ময়	-3870
সিং	-3871
াইভ	-3872
িকৈ	-3873
িঙৰ	-3874
িনে	-3875
ুখি	-3876
েইট	-3877
োদন	-3878
োপা	-3879
▁আব	-3880
▁এফ	-3881
▁কপ	-3882
▁গত	-3883
▁গম	-3884
▁নং	-3885
▁নৈ	-3886
▁পৱ	-3887
▁বদ	-3888
▁মত	-3889
▁সঘ	-3890
▁ৰণ	-3891
▁ৰহ	-3892
ণ্টা	-3893
বছৰৰ	-3894
ভাজন	-3895
াম্প	-3896
িপ্ত	-3897
ৃশ্য	-3898
েনাৰ	-3899
ৰ্পণ	-3900
▁উঠি	-3901
▁উৰি	-3902
▁ওচৰ	-3903
▁ওড়	-3904
▁চাৰ	-3905
▁চিল	-3906
▁চিৰ	-3907
▁ছাই	-3908
▁জমা	-3909
▁জুন	-3910
▁জ্ব	-3911
▁টেন	-3912
▁দুই	-3913
▁নেক	-3914
▁পাট	-3915
▁লওক	-3916
▁লুক	-3917
▁শাখ	-3918
▁সমত	-3919
▁সমল	-3920
▁সাধ	-3921
▁হাম	-3922
▁হোল	-3923
▁১৬৬	-3924
▁ৰেক	-3925
াউণ্ড	-3926
াবোৰৰ	-3927
ামুখি	-3928
ীসকলক	-3929
েষ্টা	-3930
্বয়ে	-3931
▁অগ্ন	-3932
▁অধিব	-3933
▁অস্প	-3934
▁উজ্জ	-3935
▁কর্ম	-3936
▁কাঠৰ	-3937
▁কামত	-3938
▁গণনা	-3939
▁গাইক	-3940
▁চূড়	-3941
▁তাইক	-3942
▁দম্প	-3943
▁দেশত	-3944
▁নন্দ	-3945
▁বজাৰ	-3946
▁বলটো	-3947
▁মহাব	-3948
▁মৃতদ	-3949
▁লাহে	-3950
▁সন্ধ	-3951
▁সিংহ	-3952
▁হাতী	-3953
▁হ্রদ	-3954
▁১৯৭১	-3955
▁১৯৭৫	-3956
▁১৯৮৭	-3957
▁ৰাখি	-3958
াকৃতিক	-3959
িনীয়ে	-3960
▁উপভোগ	-3961
▁এইবোৰ	-3962
▁কিশোৰ	-3963
▁কেম্প	-3964
▁ঘাইপথ	-3965
▁চোপ্ৰ	-3966
▁জাহান	-3967
▁তালিক	-3968
▁বিপণন	-3969
▁লিখিত	-3970
▁সংগঠন	-3971
▁সংঘাত	-3972
▁সম্পদ	-3973
▁সুস্থ	-3974
▁অক্টোব	-3975
▁অপোনাৰ	-3976
▁অভিনীত	-3977
▁আগবাঢ়	-3978
▁উচ্চতা	-3979
▁উঠিছিল	-3980
▁কমাণ্ড	-3981
▁তৎক্ষণ	-3982
▁নকৰাকৈ	-3983
▁প্রত্য	-3984
▁প্ৰচাৰ	-3985
▁পৰ্যটন	-3986
▁বাহিৰৰ	-3987
▁বিকাশৰ	-3988
▁ভ্ৰমণৰ	-3989
▁মঙ্গোল	-3990
▁মিনিটৰ	-3991
▁সভাপতি	-3992
▁সম্পাদ	-3993
▁স্বামী	-3994
ষ্টাব্দত	-3995
▁উপযুক্ত	-3996
▁একেধৰণৰ	-3997
▁খুৰ্ৰাম	-3998
▁ধাৰাবাহ	-3999
▁প্রকল্প	-4000
▁প্রাসাদ	-4001
▁প্ৰতিখন	-4002
▁বছৰবোৰত	-4003
▁শ্ৰেণীৰ	-4004
▁সঞ্চালক	-4005
▁সপ্তাহত	-4006
▁সফলতাৰে	-4007
▁সামান্য	-4008
▁আগবঢ়ায়	-4009
▁আমেৰিকাৰ	-4010
▁উপস্থাপন	-4011
▁চূড়ান্ত	-4012
▁টেলিভিছন	-4013
▁দায়বদ্ধ	-4014
▁বাংলাদেশ	-4015
▁বাসস্থান	-4016
▁বিৰোধিতা	-4017
▁মুখপাত্ৰ	-4018
▁মুখামুখি	-4019
▁যোগাযোগৰ	-4020
▁সন্ত্ৰাস	-4021
▁সমালোচনা	-4022
▁সাৰ্বভৌম	-4023
▁ৰাজনীতিত	-4024
▁নিয়ন্ত্র	-4025
▁প্ৰচেষ্টা	-4026
▁বিশেষভাৱে	-4027
▁ব্যৱস্থাৰ	-4028
▁শিলালিপিত	-4029
▁হুমায়ুনৰ	-4030
▁আনুষ্ঠানিক	-4031
▁জৰুৰীকালীন	-4032
▁পাকিস্তানী	-4033
▁প্ৰক্ৰিয়া	-4034
▁শেহতীয়াকৈ	-4035
▁স্বত্ত্বেও	-4036
▁অস্ত্ৰোপচাৰ	-4037
▁উত্তৰাধিকাৰ	-4038
▁ক্ৰমান্বয়ে	-4039
▁হায়দৰাবাদৰ	-4040
▁মহাবিদ্যালয়	-4041
▁হিন্দুস্তানী	-4042
▁বিশ্ববিদ্যালয়ৰ	-4043
ংঘ	-4044
গল	-4045
ঙি	-4046
মো	-4047
হু	-4048
ুদ	-4049
▁।	-4050
"",	-4051
কাজ	-4052
গুণ	-4053
গোল	-4054
ড়য	-4055
ড়ে	-4056
ডুচ	-4057
তেই	-4058
থাৰ	-4059
ধিক	-4060
ধুৰ	-4061
নাম	-4062
বলৰ	-4063
বিল	-4064
বিৰ	-4065
যুগ	-4066
য্য	-4067
লাল	-4068
াকৰ	-4069
াৰক	-4070
িকে	-4071
িজৰ	-4072
িমা	-4073
ৱাই	-4074
▁ওখ	-4075
▁কূ	-4076
▁জে	-4077
▁তদ	-4078
▁দো	-4079
▁মল	-4080
▁২২	-4081
ংগিত	-4082
কালে	-4083
ক্ষী	-4084
গতিক	-4085
ঙালী	-4086
নীয়	-4087
পালৰ	-4088
পাশে	-4089
ভাগত	-4090
যোগী	-4091
শ্যন	-4092
াপনৰ	-4093
াৰাৰ	-4094
াৰোহ	-4095
িশ্চ	-4096
্য্য	-4097
▁অংগ	-4098
▁আউট	-4099
▁আকৌ	-4100
▁আমি	-4101
▁ছুই	-4102
▁টিউ	-4103
▁তোম	-4104
▁দাদ	-4105
▁দান	-4106
▁নাছ	-4107
▁পেন	-4108
▁ফাৰ	-4109
▁ফেল	-4110
▁ফোন	-4111
▁বেগ	-4112
▁ভাৱ	-4113
▁মাং	-4114
▁মেট	-4115
▁যাদ	-4116
▁লাখ	-4117
▁সাল	-4118
▁সূৰ	-4119
▁হাঁ	-4120
▁১৬৮	-4121
▁ৰঙা	-4122
▁ৰয়	-4123
▁ৰাঘ	-4124
▁ৰেড	-4125
খ্যান	-4126
ঞ্জাৰ	-4127
তাবাদ	-4128
নিৰ্ব	-4129
নীতিৰ	-4130
পেক্ষ	-4131
বন্দী	-4132
শ্বাস	-4133
ষ্ট্র	-4134
িবোৰে	-4135
িলৈকে	-4136
েক্ষা	-4137
ৰিষ্ঠ	-4138
▁অতিক	-4139
▁আয়ো	-4140
▁এণ্ট	-4141
▁কৰাই	-4142
▁গতিক	-4143
▁চনলৈ	-4144
▁চহৰত	-4145
▁জনতা	-4146
▁দোষী	-4147
▁নায়	-4148
▁নিজে	-4149
▁পৰিস	-4150
▁ভাৱে	-4151
▁মণ্ড	-4152
▁মহাক	-4153
▁শ্ৰম	-4154
▁ষড়য	-4155
▁সীমা	-4156
▁১৯৯২	-4157
▁১৯৯৬	-4158
▁১৯৯৮	-4159
▁২০১৩	-4160
▁ৰাতি	-4161
▁ৰূপৰ	-4162
গ্ৰস্ত	-4163
চন্দ্ৰ	-4164
বৃত্তি	-4165
স্কাৰৰ	-4166
াগৰাকী	-4167
▁আঁতৰি	-4168
▁আবদ্ধ	-4169
▁কিমান	-4170
▁ঘটনাৰ	-4171
▁তাৰাব	-4172
▁তুলনা	-4173
▁দৈনিক	-4174
▁দৈৰ্ঘ	-4175
▁পল্লৱ	-4176
▁পাছলৈ	-4177
▁পাঠ্য	-4178
▁পুডুচ	-4179
▁পৰিষদ	-4180
▁ফলাফল	-4181
▁বন্দৰ	-4182
▁বাবেই	-4183
▁বাস্ত	-4184
▁বাৰ্ম	-4185
▁ভগ্নী	-4186
▁মছজিদ	-4187
▁মাত্র	-4188
▁মালয়	-4189
▁মেক্স	-4190
▁শাসিত	-4191
▁শৈলীৰ	-4192
▁সমসাম	-4193
▁সূচনা	-4194
▁হোৱাত	-4195
ানুগতিক	-4196
▁অসুস্থ	-4197
▁আদালতৰ	-4198
▁কৰোঁতে	-4199
▁খুন্দা	-4200
▁চান্দে	-4201
▁ছোৱালী	-4202
▁জাহাংগ	-4203
▁টিপুৱে	-4204
▁থিয়েট	-4205
▁পাৰ্চী	-4206
▁প্রভাৱ	-4207
▁প্ৰতাপ	-4208
▁পৰিশোধ	-4209
▁বিশ্বক	-4210
▁সাংবাদ	-4211
▁সাফল্য	-4212
▁হাছানৰ	-4213
কাৰীসকলে	-4214
▁অধ্যক্ষ	-4215
▁আত্মীয়	-4216
▁উৎপাদিত	-4217
▁গুলীচাল	-4218
▁চুলতানী	-4219
▁প্রযোজক	-4220
▁পৰিৱৰ্ত	-4221
▁বিজ্ঞান	-4222
▁বিদ্রোহ	-4223
▁বিন্দুস	-4224
▁সোনকালে	-4225
▁ৰক্তক্ষ	-4226
▁ৰাজ্যখন	-4227
▁আমন্ত্ৰণ	-4228
▁জানুৱাৰী	-4229
▁তৎক্ষণাত	-4230
▁দীৰ্ঘদিন	-4231
▁পুৰস্কাৰ	-4232
▁প্ৰধানকৈ	-4233
▁পৰ্যায়ৰ	-4234
▁বিশেষজ্ঞ	-4235
▁শেহতীয়া	-4236
▁সংৰক্ষিত	-4237
▁সাহিত্যৰ	-4238
▁স্বীকৃতি	-4239
▁ইণ্ডিয়ান	-4240
▁উপমহাদেশৰ	-4241
▁দৃষ্টিভংগ	-4242
▁পাহাৰীয়া	-4243
▁শিক্ষাৰ্থ	-4244
▁সন্মানীয়	-4245
▁সমসাময়িক	-4246
▁তামিলনাডুৰ	-4247
▁পৃথ্বীৰাজে	-4248
▁প্ৰভাৱশালী	-4249
▁পৰিস্থিতিৰ	-4250
▁ৰূপান্তৰিত	-4251
▁পৃষ্ঠপোষকতা	-4252
▁পোনপটীয়াকৈ	-4253
▁সেনাবাহিনীৰ	-4254
▁অষ্ট্ৰেলিয়াৰ	-4255
▁বিশ্ববিদ্যালয়ত	-4256
)।	-4257
কন	-4258
ঙে	-4259
ডো	-4260
নক	-4261
ভে	-4262
সে	-4263
াথ	-4264
িঅ	-4265
০৫	-4266
ক্র	-4267
ফ্ট	-4268
বাই	-4269
বাস	-4270
বিন	-4271
র্ট	-4272
র্প	-4273
হণা	-4274
াখা	-4275
াচল	-4276
াপত	-4277
াহী	-4278
িছত	-4279
িণৰ	-4280
িবৰ	-4281
িমে	-4282
ীক্	-4283
ুকৰ	-4284
েটি	-4285
োনা	-4286
্টা	-4287
্য়	-4288
্রহ	-4289
্ৰা	-4290
২০০	-4291
▁কব	-4292
▁ঘন	-4293
▁৩৫	-4294
কুৱা	-4295
জন্ত	-4296
টোলৈ	-4297
নেৰে	-4298
বৃহৎ	-4299
ম্বে	-4300
র্জন	-4301
াবাৰ	-4302
াল্ল	-4303
িজনৰ	-4304
ুত্ত	-4305
ুপৰি	-4306
্বিত	-4307
▁অইল	-4308
▁অমৰ	-4309
▁অৰু	-4310
▁উপা	-4311
▁কফি	-4312
▁কলি	-4313
▁কাই	-4314
▁কাছ	-4315
▁কেথ	-4316
▁কেৰ	-4317
▁খনি	-4318
▁গুণ	-4319
▁ঘটন	-4320
▁চমু	-4321
▁নান	-4322
▁নিখ	-4323
▁বহন	-4324
▁বুৰ	-4325
▁বৃহ	-4326
▁ভাট	-4327
▁মীৰ	-4328
▁লঘু	-4329
▁হাল	-4330
▁হিং	-4331
▁হৃদ	-4332
▁১টা	-4333
▁১৬১	-4334
▁১৬৭	-4335
▁১৭৪	-4336
টোৱেই	-4337
নাট্য	-4338
পূর্ণ	-4339
ভূমিৰ	-4340
যাত্ৰ	-4341
সমূহো	-4342
ায়িত	-4343
িবদ্ধ	-4344
ৰিহণা	-4345
ৱাৰ্ড	-4346
▁অভাৱ	-4347
▁অষ্ট	-4348
▁উপকূ	-4349
▁উপাস	-4350
▁একেই	-4351
▁কালি	-4352
▁কাৰা	-4353
▁গাঁথ	-4354
▁গুচি	-4355
▁ঘৰলৈ	-4356
▁ছন্দ	-4357
▁জুৰি	-4358
▁তালম	-4359
▁দিয়	-4360
▁দৃঢ়	-4361
▁ধৰণে	-4362
▁নাৰী	-4363
▁নিৰী	-4364
▁প্লে	-4365
▁পৰিল	-4366
▁বাওঁ	-4367
▁বায়	-4368
▁বাৰে	-4369
▁বিপদ	-4370
▁বিয়	-4371
▁মাইক	-4372
▁মুৰব	-4373
▁মৰ্য	-4374
▁শাখা	-4375
▁সংকল	-4376
▁সঙ্গ	-4377
▁সহজে	-4378
▁সিঙক	-4379
▁১৯৭৬	-4380
▁২০০৩	-4381
▁২০১৪	-4382
▁২০১৭	-4383
▁ৰাগত	-4384
▁ৰোমা	-4385
গৰাকীক	-4386
গৰাকীৰ	-4387
ণ্ডাৰৰ	-4388
তন্ত্ৰ	-4389
ীক্ষ্ণ	-4390
▁অপৰাজ	-4391
▁আইহোল	-4392
▁আদৰ্শ	-4393
▁ইংগিত	-4394
▁উত্তম	-4395
▁উৎখাত	-4396
▁একেটা	-4397
▁কার্য	-4398
▁কাৰাদ	-4399
▁কৌশলৰ	-4400
▁ক্ৰয়	-4401
▁কৰোৱা	-4402
▁চহৰখন	-4403
▁জাম্প	-4404
▁ট্ৰেক	-4405
▁নির্ম	-4406
▁পইণ্ট	-4407
▁বজাৰত	-4408
▁বাদ্য	-4409
▁বিচ্ছ	-4410
▁বিশ্ল	-4411
▁মধ্যম	-4412
▁মাতৃৰ	-4413
▁লিপ্ত	-4414
▁সঘনাই	-4415
▁সমাজৰ	-4416
▁সমিতি	-4417
▁সহানু	-4418
▁সূত্র	-4419
▁সেনাই	-4420
▁ৰেটিন	-4421
▁ৰেডিঅ	-4422
▁ৰোগীৰ	-4423
▁আধাৰিত	-4424
▁খাণ্ডে	-4425
▁ঘনিষ্ঠ	-4426
▁চহৰখনৰ	-4427
▁চাৰিখন	-4428
▁চিনেমা	-4429
▁তদুপৰি	-4430
▁দৰ্শকৰ	-4431
▁নাযায়	-4432
▁পঞ্জাব	-4433
▁পুৰুষৰ	-4434
▁প্রকাশ	-4435
▁প্রায়	-4436
▁প্ৰতীক	-4437
▁পৱিত্ৰ	-4438
▁মহাৰাজ	-4439
▁মালায়	-4440
▁মিৰ্জা	-4441
▁মৃতদেহ	-4442
▁সন্মিল	-4443
▁সামন্ত	-4444
▁স্তম্ভ	-4445
▁অক্টোবৰ	-4446
▁অভিযানত	-4447
▁উন্নয়ন	-4448
▁কাশ্মীৰ	-4449
▁কৰ্ণাটক	-4450
▁তুলিবলৈ	-4451
▁দক্ষিণে	-4452
▁দক্ষিণৰ	-4453
▁দুগৰাকী	-4454
▁নিয়মিত	-4455
▁নিৰ্ণয়	-4456
▁পঠিয়াই	-4457
▁পেশ্বৱা	-4458
▁প্ৰথমজন	-4459
▁প্ৰবন্ধ	-4460
▁প্ৰাসাদ	-4461
▁বিচাৰিব	-4462
▁বিনামূল	-4463
▁বৃদ্ধিৰ	-4464
▁ভিত্তিত	-4465
▁মাধ্যমৰ	-4466
▁লাগিছিল	-4467
▁লোকসকলক	-4468
▁শাৰীৰিক	-4469
▁ৰাজসভাৰ	-4470
▁ৰাজাৰাম	-4471
▁অশ্বাৰোহ	-4472
▁অৰ্থনীতি	-4473
▁কৰ্তৃত্ব	-4474
▁পেশ্বৱাৰ	-4475
▁প্রদর্শন	-4476
▁বিনিময়ত	-4477
▁ব্যাখ্যা	-4478
▁মালয়ালম	-4479
▁মিত্ৰজোঁ	-4480
▁লিপিবদ্ধ	-4481
▁সম্পৰ্কে	-4482
▁সীমাবদ্ধ	-4483
▁স্বত্বেও	-4484
▁অনুপস্থিত	-4485
▁কান্দাহাৰ	-4486
▁নিয়ন্ত্ৰ	-4487
▁নিৰ্বাচনৰ	-4488
▁প্ৰতিনিধি	-4489
▁প্ৰশাসনিক	-4490
▁স্থাপত্যৰ	-4491
▁খেলুৱৈসকলে	-4492
▁জাহাঙ্গীৰৰ	-4493
▁ব্যাপকভাৱে	-4494
▁মহাৰাষ্ট্ৰ	-4495
▁স্থানান্তৰ	-4496
▁চিকিৎসালয়ত	-4497
▁তালিকাভুক্ত	-4498
▁দৃষ্টিশক্তি	-4499
▁সম্প্ৰসাৰিত	-4500
▁সামগ্ৰীসমূহ	-4501
ঃস	-4502
গ্	-4503
জত	-4504
বও	-4505
মী	-4506
োই	-4507
ৰক	-4508
ঘাট	-4509
জাম	-4510
জীৰ	-4511
ডাল	-4512
তুক	-4513
দিক	-4514
দূত	-4515
বয়	-4516
বেশ	-4517
ভিন	-4518
যাত	-4519
যুত	-4520
াসৰ	-4521
িউট	-4522
ুকু	-4523
োজী	-4524
ৰিং	-4525
ৱাল	-4526
▁আছ	-4527
▁ইট	-4528
▁উজ	-4529
▁ছু	-4530
▁জো	-4531
▁দৌ	-4532
▁মণ	-4533
▁লা	-4534
▁লু	-4535
▁হঠ	-4536
▁২৮	-4537
▁৩২	-4538
▁৩৬	-4539
▁৬০	-4540
ঁতেন	-4541
কেটৰ	-4542
কৰণৰ	-4543
চিতা	-4544
ছমেন	-4545
ট্টি	-4546
দাতা	-4547
ধাৰী	-4548
ন্যৰ	-4549
পাশত	-4550
ব্ধি	-4551
ভাৰত	-4552
লাইন	-4553
লাৰৰ	-4554
স্থল	-4555
হঁতে	-4556
াস্ক	-4557
িত্য	-4558
িয়ৰ	-4559
ুওৱা	-4560
েন্ট	-4561
োন্ন	-4562
ৱন্ত	-4563
▁অৱন	-4564
▁এপে	-4565
▁কাদ	-4566
▁কেট	-4567
▁চাণ	-4568
▁চেন	-4569
▁চৌহ	-4570
▁ছুপ	-4571
▁জাই	-4572
▁টকা	-4573
▁ঠাক	-4574
▁তাৎ	-4575
▁দীপ	-4576
▁নাপ	-4577
▁পেশ	-4578
▁বগা	-4579
▁বাং	-4580
▁বেড	-4581
▁ভূপ	-4582
▁ভেল	-4583
▁ভোজ	-4584
▁মাই	-4585
▁মিচ	-4586
▁মিজ	-4587
▁মুহ	-4588
▁শ্ল	-4589
▁সমু	-4590
▁হিউ	-4591
▁১৬৩	-4592
▁১৭৯	-4593
কাৰীৰ	-4594
চ্যুত	-4595
ত্যাগ	-4596
দ্দেশ	-4597
দৰ্শন	-4598
প্ৰতি	-4599
বেদনত	-4600
ব্লিউ	-4601
ভুক্ত	-4602
ষ্টিট	-4603
সময়ত	-4604
স্থলী	-4605
াইয়ে	-4606
াৱধান	-4607
িত্বৰ	-4608
িয়নৰ	-4609
েচনেল	-4610
▁অক্স	-4611
▁অনাৰ	-4612
▁আইনী	-4613
▁আকাৰ	-4614
▁আশ্ৰ	-4615
▁আৰোহ	-4616
▁উলংঘ	-4617
▁এদিন	-4618
▁ওপৰৰ	-4619
▁ঔপনি	-4620
▁কাষৰ	-4621
▁কাৰক	-4622
▁কেঁচ	-4623
▁কেমে	-4624
▁কেলে	-4625
▁কেৰা	-4626
▁কৰিম	-4627
▁ঘাঁহ	-4628
▁চাপৰ	-4629
▁চুৰি	-4630
▁জলাশ	-4631
▁তললৈ	-4632
▁তোলে	-4633
▁দিছে	-4634
▁নথকা	-4635
▁নামি	-4636
▁নিকট	-4637
▁নিষ্	-4638
▁নেকি	-4639
▁পর্য	-4640
▁প্ৰজ	-4641
▁পৰাৰ	-4642
▁বহুল	-4643
▁ভক্ত	-4644
▁মুলত	-4645
▁যত্ন	-4646
▁শস্য	-4647
▁শ্বই	-4648
▁শ্বৰ	-4649
▁ষ্টা	-4650
▁সংসদ	-4651
▁১৯৬৯	-4652
▁১৯৭৭	-4653
▁২০০৪	-4654
উদ্দিন	-4655
চিয়েল	-4656
স্পৰ্শ	-4657
হেঁতেন	-4658
াদেশিক	-4659
িয়াওক	-4660
িশ্চিত	-4661
▁অপাৰে	-4662
▁অৰণ্য	-4663
▁এলেকা	-4664
▁ওড়িশ	-4665
▁কাঢ়ি	-4666
▁কাৰাব	-4667
▁ক্লিক	-4668
▁খান্ন	-4669
▁খেলপথ	-4670
▁গতিকে	-4671
▁ঘোঁৰা	-4672
▁ছাত্ৰ	-4673
▁জনায়	-4674
▁জন্মৰ	-4675
▁জ্ঞান	-4676
▁তালিব	-4677
▁দিশলৈ	-4678
▁ধৰিলে	-4679
▁নম্বৰ	-4680
▁পতাকা	-4681
▁পাইছে	-4682
▁পাছতো	-4683
▁পার্ক	-4684
▁পাৰ্থ	-4685
▁বয়সৰ	-4686
▁বাগিচ	-4687
▁বাতিল	-4688
▁বেয়া	-4689
▁মাৰ্ক	-4690
▁মৰিয়	-4691
▁লাহোৰ	-4692
▁শ্বিল	-4693
▁সতৰ্ক	-4694
▁সন্মত	-4695
▁স্থিৰ	-4696
▁স্নাত	-4697
িয়াবলৈ	-4698
▁অনুমান	-4699
▁এপেণ্ড	-4700
▁ঐতিহ্য	-4701
▁ওপৰেৰে	-4702
▁কাৰাটে	-4703
▁চলিছিল	-4704
▁চৰিত্র	-4705
▁তিনিখন	-4706
▁দক্ষতা	-4707
▁দূৰত্ব	-4708
▁ধৰিছিল	-4709
▁পদাৰ্থ	-4710
▁পদোন্ন	-4711
▁প্রদান	-4712
▁প্ৰশ্ন	-4713
▁পৰিবহণ	-4714
▁ব্যস্ত	-4715
▁লণ্ডনৰ	-4716
▁সকলোৱে	-4717
▁ৰেকৰ্ড	-4718
▁অনুমোদন	-4719
▁অভিযোগৰ	-4720
▁এছিয়াৰ	-4721
▁কাহিনীৰ	-4722
▁কাৰ্যসূ	-4723
▁কেনেদৰে	-4724
▁গান্ধীক	-4725
▁নিষিদ্ধ	-4726
▁নিৰ্মাত	-4727
▁নিৰ্মিত	-4728
▁প্ৰতিহত	-4729
▁প্ৰাপ্ত	-4730
▁ফাইনেলত	-4731
▁বিভাজনৰ	-4732
▁বেটছমেন	-4733
▁ব্ৰেণ্ড	-4734
▁মাৰিছিল	-4735
▁সংখ্যাগ	-4736
▁সকলোবোৰ	-4737
▁সমাপ্তি	-4738
▁হিচাপেও	-4739
▁ইউৰোপীয়	-4740
▁প্ৰযোজ্য	-4741
▁বিজ্ঞানী	-4742
▁মুম্বাইৰ	-4743
▁শিলালিপি	-4744
▁সংস্পৰ্শ	-4745
▁ৱেবছাইটত	-4746
নামূলকভাৱে	-4747
▁আকৰ্ষণীয়	-4748
▁কাৰ্যকালত	-4749
▁কাৰ্যালয়	-4750
▁কেৰিয়াৰৰ	-4751
▁ধাৰাবাহিক	-4752
▁নিৰাপত্তা	-4753
▁নেটৱৰ্কিং	-4754
▁পাঠ্যক্ৰম	-4755
▁প্ৰাকৃতিক	-4756
▁বিবাহপাশত	-4757
▁বিস্তাৰিত	-4758
▁সহানুভূতি	-4759
▁হস্তক্ষেপ	-4760
▁আত্মসমৰ্পণ	-4761
▁কৰ্তৃপক্ষই	-4762
▁দ্বিতীয়টো	-4763
▁বিশ্বযুদ্ধ	-4764
▁সেনাবাহিনী	-4765
▁আফগানিস্তান	-4766
▁ছেপ্টেম্বৰত	-4767
▁জাতীয়তাবাদ	-4768
▁দাক্ষিণাত্য	-4769
▁চন্দ্রগুপ্তৰ	-4770
▁যুক্তৰাষ্ট্ৰৰ	-4771
এএ	-4772
জু	-4773
থে	-4774
থো	-4775
বক	-4776
ৃং	-4777
ৈধ	-4778
৪৫	-4779
ৱক	-4780
কুল	-4781
প্ল	-4782
মেৰ	-4783
র্চ	-4784
ল্য	-4785
ষেক	-4786
সাগ	-4787
হনে	-4788
হাই	-4789
াদী	-4790
াপট	-4791
াবে	-4792
িকো	-4793
িলি	-4794
েইল	-4795
েৰণ	-4796
ৰিচ	-4797
ৱাত	-4798
▁অট	-4799
▁ইল	-4800
▁জং	-4801
▁পব	-4802
▁হল	-4803
▁ৰফ	-4804
উণ্ট	-4805
কলাৰ	-4806
গতিত	-4807
টাৰে	-4808
ণ্টন	-4809
ণ্ডা	-4810
তেওঁ	-4811
ত্তম	-4812
ত্তৰ	-4813
দ্বী	-4814
পুৰত	-4815
বাৰত	-4816
মাহৰ	-4817
য়েই	-4818
যোগে	-4819
সংগত	-4820
সলনি	-4821
াচাৰ	-4822
াডেম	-4823
াতকৈ	-4824
ানাৰ	-4825
িওৱা	-4826
ুল্ক	-4827
্তিৰ	-4828
ৰাৱল	-4829
ৱাৰৰ	-4830
▁অটো	-4831
▁আটক	-4832
▁আসন	-4833
▁আৱি	-4834
▁এংল	-4835
▁কাড	-4836
▁খলন	-4837
▁খাই	-4838
▁গাখ	-4839
▁গুৱ	-4840
▁চাউ	-4841
▁চৰ্	-4842
▁জৈৱ	-4843
▁জোৱ	-4844
▁ড্র	-4845
▁নাক	-4846
▁নৃত	-4847
▁পদৰ	-4848
▁পেছ	-4849
▁বশী	-4850
▁বহল	-4851
▁বাট	-4852
▁বেৰ	-4853
▁বৈধ	-4854
▁ভিট	-4855
▁ভৰা	-4856
▁মহল	-4857
▁মেগ	-4858
▁শুন	-4859
▁সমন	-4860
▁সাঁ	-4861
▁সুদ	-4862
▁সোধ	-4863
▁ৰচন	-4864
▁ৰাউ	-4865
ঞ্জিত	-4866
দায়ক	-4867
পন্থী	-4868
বস্তু	-4869
বিধান	-4870
মিয়া	-4871
মেণ্ট	-4872
াইটিছ	-4873
ান্তি	-4874
ালয়ে	-4875
াৰ্জন	-4876
িটাৰৰ	-4877
িটোৱে	-4878
িয়তে	-4879
ৱেশিক	-4880
▁অধীন	-4881
▁অবৈধ	-4882
▁অম্ব	-4883
▁অস্ত	-4884
▁আনটো	-4885
▁আব্দ	-4886
▁আৱৰি	-4887
▁উগ্ৰ	-4888
▁উদয়	-4889
▁উৰিষ	-4890
▁এজনী	-4891
▁কলাৰ	-4892
▁কল্য	-4893
▁কষ্ট	-4894
▁কায়	-4895
▁চকুত	-4896
▁চীনৰ	-4897
▁ছত্ৰ	-4898
▁ছালৰ	-4899
▁জব্দ	-4900
▁জাতি	-4901
▁জাৰি	-4902
▁ঠাইৰ	-4903
▁ডলাৰ	-4904
▁দিলে	-4905
▁দিশৰ	-4906
▁ধনুৰ	-4907
▁নকৰে	-4908
▁নদীত	-4909
▁নিজা	-4910
▁পঢ়া	-4911
▁পালত	-4912
▁পালে	-4913
▁পাৰত	-4914
▁পিছে	-4915
▁ভেটি	-4916
▁মহাদ	-4917
▁মিলি	-4918
▁মেচত	-4919
▁যুগৰ	-4920
▁শৰ্ম	-4921
▁ষ্টক	-4922
▁সাহা	-4923
▁হেঁচ	-4924
▁হৰ্ষ	-4925
▁১৯৫৭	-4926
▁১৯৬০	-4927
▁১৯৬৭	-4928
▁২০১৮	-4929
▁ৰজাক	-4930
▁ৰাখক	-4931
▁ৰীতি	-4932
যুগীয়	-4933
াপূৰ্ণ	-4934
িপূৰ্ণ	-4935
▁অনন্ত	-4936
▁অনন্য	-4937
▁অপহৰণ	-4938
▁অসন্ত	-4939
▁আকৰ্ষ	-4940
▁আশ্ৰম	-4941
▁উপকূল	-4942
▁একাদশ	-4943
▁এয়াৰ	-4944
▁ওপৰলৈ	-4945
▁গুপ্ত	-4946
▁চুক্ত	-4947
▁চেন্ন	-4948
▁ছুপাৰ	-4949
▁জীৱনত	-4950
▁ট্ৰফী	-4951
▁ট্ৰাক	-4952
▁তালমৰ	-4953
▁থাকিল	-4954
▁দুৰ্ঘ	-4955
▁পেটেল	-4956
▁পেলাব	-4957
▁পোষ্ট	-4958
▁বঁটাৰ	-4959
▁বাংলা	-4960
▁বিতৰণ	-4961
▁ব্যাঘ	-4962
▁বৰষুণ	-4963
▁বৰ্ষৰ	-4964
▁যদিহে	-4965
▁লিখনি	-4966
▁শত্ৰু	-4967
▁শুকান	-4968
▁শ্বেই	-4969
▁সাতটা	-4970
▁সৃষ্ট	-4971
▁ৰন্ধন	-4972
▁ৰাজেশ	-4973
নিৰ্বাহ	-4974
োৱালৈকে	-4975
▁অনুগাম	-4976
▁অবিহনে	-4977
▁অভিজাত	-4978
▁আগ্ৰহী	-4979
▁আশ্ৰয়	-4980
▁ইমানেই	-4981
▁উত্তৰৰ	-4982
▁উদ্ভাৱ	-4983
▁উপকূলৰ	-4984
▁উভয়ৰে	-4985
▁একাডেম	-4986
▁কেথলিক	-4987
▁গৱেষণা	-4988
▁জনাবলৈ	-4989
▁জাইগিৰ	-4990
▁টেষ্টৰ	-4991
▁ড্ৰাগছ	-4992
▁তত্ত্ব	-4993
▁নিচিনা	-4994
▁নেচনেল	-4995
▁প্ৰচুৰ	-4996
▁পৰ্বতম	-4997
▁বশীভূত	-4998
▁বিচাৰক	-4999
▁বিবাদৰ	-5000
▁বিবিবি	-5001
▁বিষয়ত	-5002
▁বেছিকৈ	-5003
▁মাউণ্ট	-5004
▁মানসিক	-5005
▁মুদ্ৰা	-5006
▁মূৰ্তি	-5007
▁মৰিয়ম	-5008
▁যাত্ৰী	-5009
▁শ্ৰমিক	-5010
▁সমাধান	-5011
▁সৈন্যৰ	-5012
▁স্পৰ্শ	-5013
▁স্মৃতি	-5014
▁হাইস্ক	-5015
▁হায়দৰ	-5016
▁অধিবক্ত	-5017
▁অনুশীলন	-5018
▁অৱস্থাৰ	-5019
▁আন্দোলন	-5020
▁ইতিহাসত	-5021
▁ইতিহাসৰ	-5022
▁ইনষ্টিট	-5023
▁উপলব্ধি	-5024
▁উপাৰ্জন	-5025
▁একাউণ্ট	-5026
▁একেবাৰে	-5027
▁এনেকুৱা	-5028
▁গাইকোৱা	-5029
▁গুজৰাটত	-5030
▁চুলতানৰ	-5031
▁দেখিছিল	-5032
▁দেখুওৱা	-5033
▁পদত্যাগ	-5034
▁প্রশংসা	-5035
▁প্ৰণালী	-5036
▁ফ্ৰান্স	-5037
▁বিদ্যুৎ	-5038
▁বিন্যাস	-5039
▁মাদ্ৰাজ	-5040
▁মিশ্ৰিত	-5041
▁মুম্বাই	-5042
▁মুৰব্বী	-5043
▁মৰ্যাদা	-5044
▁যক্ষগান	-5045
▁শীতকালত	-5046
▁সপ্তাহৰ	-5047
▁উপস্থিতি	-5048
▁উলিয়াওক	-5049
▁এদিনীয়া	-5050
▁কাৰাদণ্ড	-5051
▁কাৰ্যকৰী	-5052
▁কেৰিয়াৰ	-5053
▁ক্ৰীড়াৰ	-5054
▁চণ্ডিগড়	-5055
▁জড়িয়তে	-5056
▁জনসংখ্যা	-5057
▁ডিচেম্বৰ	-5058
▁তেতিয়াৰ	-5059
▁পদোন্নতি	-5060
▁প্ৰশাসনৰ	-5061
▁পৰিয়ালে	-5062
▁ব্ৰিটিছে	-5063
▁ভৱিষ্যতৰ	-5064
▁শ্ৰেণীবি	-5065
▁সময়লৈকে	-5066
▁সম্ভাব্য	-5067
▁সহযোগিতা	-5068
▁সাংবাদিক	-5069
▁সীমান্তৰ	-5070
▁সৰ্ববৃহৎ	-5071
াভাৱিকভাৱে	-5072
▁ঔপনিৱেশিক	-5073
▁কাৰ্যবাহী	-5074
▁খেলুৱৈয়ে	-5075
▁গতানুগতিক	-5076
▁দ্বিতীয়ৰ	-5077
▁দ্ৰুতগতিত	-5078
▁পাকিস্তান	-5079
▁প্ৰস্তুতি	-5080
▁বাস্কেটবল	-5081
▁বিস্ফোৰণৰ	-5082
▁শিলালিপিৰ	-5083
▁শ্ৰীলংকাৰ	-5084
▁সাহিত্যিক	-5085
▁সুনিশ্চিত	-5086
▁হাৰিয়ানা	-5087
▁আভ্যন্তৰীণ	-5088
▁কাৰ্যকলাপৰ	-5089
▁প্ৰত্যুত্ত	-5090
▁প্ৰমাণপত্ৰ	-5091
▁পৰিকল্পনাৰ	-5092
▁বিষয়াসকলৰ	-5093
▁মাৰাঠাসকলৰ	-5094
▁সম্ভ্ৰান্ত	-5095
▁সাম্রাজ্যৰ	-5096
▁হাৰিয়ানাৰ	-5097
▁চলচ্চিত্ৰখন	-5098
▁শ্বাহজাহানে	-5099
▁সন্দেহযুক্ত	-5100
▁সৈন্যবাহিনী	-5101
▁কাৰ্যনিৰ্বাহ	-5102
▁জালালুদ্দিনৰ	-5103
▁সংখ্যাগৰিষ্ঠ	-5104
▁কোম্পানীসমূহৰ	-5105
ংচ	-5106
আপ	-5107
ইং	-5108
ইউ	-5109
গো	-5110
ছো	-5111
ঠি	-5112
থৰ	-5113
দল	-5114
ফট	-5115
মক	-5116
লো	-5117
শক	-5118
ষা	-5119
হঁ	-5120
ীল	-5121
োব	-5122
""-	-5123
ংগৰ	-5124
কাহ	-5125
কুম	-5126
গাৰ	-5127
গ্ধ	-5128
চনৰ	-5129
চিক	-5130
চুম	-5131
টিভ	-5132
ডাক	-5133
তিত	-5134
ফুট	-5135
বাম	-5136
বুক	-5137
বোট	-5138
ব্র	-5139
মনৰ	-5140
মাই	-5141
মাল	-5142
র্ড	-5143
ষিত	-5144
ষ্ক	-5145
সাৰ	-5146
হুল	-5147
াদি	-5148
ুঁত	-5149
ুমি	-5150
ুৎম	-5151
ৈয়	-5152
োধন	-5153
োৎস	-5154
্তা	-5155
্রৰ	-5156
্ৰি	-5157
৫০০	-5158
ৰিৰ	-5159
▁ইক	-5160
▁ইজ	-5161
▁কক	-5162
▁নো	-5163
▁ভৌ	-5164
▁মগ	-5165
▁মচ	-5166
▁যশ	-5167
▁৭০	-5168
কীয়	-5169
চৰিত	-5170
জোপা	-5171
ত্বৰ	-5172
পুৱা	-5173
পৰ্য	-5174
ভাৱৰ	-5175
মানে	-5176
য়াস	-5177
শ্ৰী	-5178
সিংহ	-5179
াইটৰ	-5180
াকাৰ	-5181
াতিক	-5182
ালীৰ	-5183
াৰেল	-5184
াৰ্ণ	-5185
িচ্ছ	-5186
িৰিক	-5187
ীতিৰ	-5188
ীৰ্ত	-5189
ুকেই	-5190
ুতুব	-5191
েচ্ছ	-5192
েট্ট	-5193
োজিত	-5194
্টাৰ	-5195
্রীৰ	-5196
্ৰীৰ	-5197
ৰায়	-5198
▁আর্	-5199
▁এচে	-5200
▁ওজন	-5201
▁কাঁ	-5202
▁কোল	-5203
▁খৰচ	-5204
▁খৰা	-5205
▁গড়	-5206
▁গঢ়	-5207
▁গাৰ	-5208
▁চাক	-5209
▁চাব	-5210
▁জলব	-5211
▁জাঁ	-5212
▁জোৰ	-5213
▁টান	-5214
▁তেল	-5215
▁থাই	-5216
▁দলত	-5217
▁দূত	-5218
▁দেও	-5219
▁পেড	-5220
▁ফিট	-5221
▁বৃত	-5222
▁বেদ	-5223
▁ভৱন	-5224
▁মাছ	-5225
▁মোদ	-5226
▁যুট	-5227
▁লাল	-5228
▁শংক	-5229
▁সুক	-5230
▁সৰল	-5231
▁১৮৩	-5232
কীয়া	-5233
ট্টাল	-5234
ণ্ডিন	-5235
দায়ৰ	-5236
য়াৰৰ	-5237
শক্তি	-5238
স্মিক	-5239
ায়াম	-5240
ায়ুৰ	-5241
ীকৰণৰ	-5242
ুকুৰা	-5243
▁অভিব	-5244
▁অর্থ	-5245
▁আঁতৰ	-5246
▁আলেক	-5247
▁আৰ্ট	-5248
▁আৰ্থ	-5249
▁উচিত	-5250
▁উদ্ব	-5251
▁এজনক	-5252
▁এডাল	-5253
▁এবছৰ	-5254
▁কালত	-5255
▁কূটন	-5256
▁কৈছে	-5257
▁কোষৰ	-5258
▁গৰাক	-5259
▁ঘাটৰ	-5260
▁চলাব	-5261
▁চুৰা	-5262
▁ছিৰি	-5263
▁তাইৰ	-5264
▁তিৰু	-5265
▁নিগম	-5266
▁পেৰা	-5267
▁প্ৰি	-5268
▁ফ্ৰী	-5269
▁ফৰ্ম	-5270
▁বসতি	-5271
▁বস্ত	-5272
▁ব্লে	-5273
▁মডেল	-5274
▁মণিপ	-5275
▁মাটি	-5276
▁মাৰি	-5277
▁মিঠা	-5278
▁যুগত	-5279
▁সংগত	-5280
▁সমিত	-5281
▁সেউজ	-5282
▁হাতৰ	-5283
▁১৯৫০	-5284
▁১৯৫৪	-5285
▁১৯৮২	-5286
▁১৯৮৩	-5287
▁১৯৯৪	-5288
▁১৯৯৭	-5289
▁২০১১	-5290
▁২০১৫	-5291
▁ৰকেট	-5292
ন্ধীয়	-5293
প্ৰদেশ	-5294
বয়স্ক	-5295
মিয়াও	-5296
াকৈয়ে	-5297
▁আকর্ষ	-5298
▁আকাৰৰ	-5299
▁আচৰিত	-5300
▁আশংকা	-5301
▁ইনিংছ	-5302
▁উপাধি	-5303
▁উলংঘা	-5304
▁ওলোৱা	-5305
▁কলেজৰ	-5306
▁কাষতে	-5307
▁কিনিব	-5308
▁কুতুব	-5309
▁ক্ষমত	-5310
▁গোৱাল	-5311
▁গ্ৰুপ	-5312
▁টেক্স	-5313
▁তিনিব	-5314
▁তুলিব	-5315
▁দলটোক	-5316
▁দলটোৰ	-5317
▁দাবীৰ	-5318
▁দুৰ্ভ	-5319
▁ধ্যান	-5320
▁নেদাৰ	-5321
▁পাঞ্জ	-5322
▁পুলিচ	-5323
▁পৰাকৈ	-5324
▁বিজাপ	-5325
▁বেগমক	-5326
▁বেডমি	-5327
▁বোম্ব	-5328
▁ভাইচৰ	-5329
▁ভাইৰা	-5330
▁মৌচুম	-5331
▁যিসকল	-5332
▁শস্যৰ	-5333
▁শিশুৰ	-5334
▁শ্বাট	-5335
▁ষ্টেড	-5336
▁সঁজুল	-5337
▁সমর্থ	-5338
▁সীমিত	-5339
▁হঠাতে	-5340
▁হ্ৰদৰ	-5341
েৰিয়াৰ	-5342
▁অট্টাল	-5343
▁অনুপাত	-5344
▁অমিতাভ	-5345
▁অৰ্ডাৰ	-5346
▁অৱৰোধৰ	-5347
▁ইভেন্ট	-5348
▁কুমাৰক	-5349
▁ঘণ্টাৰ	-5350
▁জলাশয়	-5351
▁তদন্তৰ	-5352
▁দম্পতী	-5353
▁দৰবাৰত	-5354
▁নাথাকে	-5355
▁নিখুঁত	-5356
▁নিজামৰ	-5357
▁পদাতিক	-5358
▁পাৰিলে	-5359
▁পিন্ধা	-5360
▁পিন্ধি	-5361
▁পৃষ্ঠা	-5362
▁প্রস্ত	-5363
▁প্রৱেশ	-5364
▁প্ৰতিৰ	-5365
▁প্ৰাণী	-5366
▁পৰিষদৰ	-5367
▁বন্ধুত	-5368
▁বিপক্ষ	-5369
▁বিভাগে	-5370
▁বিয়পি	-5371
▁বিষ্ণু	-5372
▁মন্ত্ৰ	-5373
▁মূল্যৰ	-5374
▁শিবিৰত	-5375
▁সঁহাৰি	-5376
▁সফলতাৰ	-5377
▁স্থিতি	-5378
▁অত্যধিক	-5379
▁অসুবিধা	-5380
▁আকস্মিক	-5381
▁আক্ৰমণত	-5382
▁আকৰ্ষিত	-5383
▁ইভেণ্টৰ	-5384
▁উৎকৃষ্ট	-5385
▁ঔৰংজেবৰ	-5386
▁কাডাম্ব	-5387
▁কানাড়া	-5388
▁ক্ষমতাৰ	-5389
▁কৰ্মজীৱ	-5390
▁খলনায়ক	-5391
▁খেলিবলৈ	-5392
▁চাহামান	-5393
▁চিন্তিত	-5394
▁চৰিত্ৰৰ	-5395
▁জানিবলৈ	-5396
▁দেউতাকে	-5397
▁দৈৰ্ঘ্য	-5398
▁নিশ্চয়	-5399
▁পঞ্জাৱৰ	-5400
▁পূৰ্বতে	-5401
▁প্ৰশাসন	-5402
▁বনাঞ্চল	-5403
▁বিজাপুৰ	-5404
▁ব্যাঘ্র	-5405
▁মন্দিৰৰ	-5406
▁মুখ্যতঃ	-5407
▁লক্ষ্মী	-5408
▁সন্তানৰ	-5409
▁সোঁফালৰ	-5410
▁স্থাপিত	-5411
▁ৰাজনীতি	-5412
▁ৰিচিভাৰ	-5413
▁অঞ্চলটোত	-5414
▁অধ্যয়নৰ	-5415
▁আধিপত্যক	-5416
▁ইংলেণ্ডৰ	-5417
▁কংগ্ৰেছে	-5418
▁ক্ৰিকেটত	-5419
▁চাইক্লিং	-5420
▁নোহোৱাকৈ	-5421
▁পদ্মভূষণ	-5422
▁পদ্মিনীৰ	-5423
▁প্ৰকাশিত	-5424
▁প্ৰত্যাহ	-5425
▁পৰম্পৰাৰ	-5426
▁ফেডাৰেচন	-5427
▁বিদ্ৰোহৰ	-5428
▁বিশ্লেষণ	-5429
▁সম্পত্তি	-5430
▁সম্ভাৱ্য	-5431
▁সর্বাধিক	-5432
▁সুৰক্ষাৰ	-5433
▁ৰাজস্থান	-5434
▁ৰাজ্যপাল	-5435
▁অসন্তুষ্ট	-5436
▁ইতিহাসবিদ	-5437
▁নিয়মসমূহ	-5438
▁নির্দিষ্ট	-5439
▁পদ্মাৱতীৰ	-5440
▁পৃষ্ঠপোষক	-5441
▁পৰিস্থিতি	-5442
▁বেছিভাগেই	-5443
▁বৈচিত্ৰ্য	-5444
▁ব্যৱসায়ী	-5445
▁সংস্কৃতিৰ	-5446
▁সাম্রাজ্য	-5447
▁স্কুলীয়া	-5448
▁হিংসাত্মক	-5449
▁ৰাজস্থানৰ	-5450
▁ৰাজেন্দ্ৰ	-5451
▁এতিয়ালৈকে	-5452
▁গাভাস্কাৰৰ	-5453
▁ছেপ্টেম্বৰ	-5454
▁দেখুৱাইছিল	-5455
▁নিউজিলেণ্ড	-5456
▁প্ৰতিবেদনত	-5457
▁প্ৰত্যাহাৰ	-5458
▁ফেব্ৰুৱাৰী	-5459
▁বন্দুকধাৰী	-5460
▁বিষয়াসকলক	-5461
▁ব্যক্তিয়ে	-5462
▁স্বাধীনতাৰ	-5463
▁হায়দৰাবাদ	-5464
▁হেৰুৱাইছিল	-5465
▁ৰাজত্বকালত	-5466
▁এচেঞ্চিয়েল	-5467
▁ক্ষতিগ্ৰস্ত	-5468
▁জলপ্ৰপাতটোৰ	-5469
▁নিয়মিতভাৱে	-5470
▁ফেব্ৰুৱাৰীত	-5471
▁বিনামূলীয়া	-5472
▁কোম্পানীটোৱে	-5473
▁খ্ৰীষ্টপূৰ্ব	-5474
▁খ্ৰীষ্টাব্দত	-5475
▁প্ৰতিক্ৰিয়া	-5476
▁স্থানীয়ভাৱে	-5477
▁হাস্যৰসাত্মক	-5478
▁চলচ্চিত্ৰসমূহত	-5479
গছ	-5480
ঙ্	-5481
চত	-5482
তক	-5483
থল	-5484
ধন	-5485
নম	-5486
মছ	-5487
শল	-5488
সা	-5489
সি	-5490
হো	-5491
ুভ	-5492
ৃণ	-5493
েগ	-5494
েধ	-5495
১৬	-5496
৫৫	-5497
ৰম	-5498
ৱৎ	-5499
ঁজি	-5500
আউট	-5501
ক্ল	-5502
খিন	-5503
চিন	-5504
জিৎ	-5505
ঠিত	-5506
ড়ি	-5507
তাল	-5508
দাস	-5509
দ্দ	-5510
ধ্ব	-5511
নগৰ	-5512
নীৰ	-5513
পেন	-5514
পৰি	-5515
বাব	-5516
বুল	-5517
ভেল	-5518
মতে	-5519
যদি	-5520
ল্ড	-5521
হান	-5522
াকে	-5523
াচী	-5524
িৰু	-5525
ুকা	-5526
োতি	-5527
্টু	-5528
ৰণি	-5529
ৰাগ	-5530
ৰ্জ	-5531
▁জগ	-5532
▁ডক	-5533
▁বচ	-5534
ংগিক	-5535
ক্ষত	-5536
গড়ৰ	-5537
ডাউন	-5538
ত্ৰী	-5539
ন্তী	-5540
পত্র	-5541
পাছত	-5542
পিছত	-5543
ফলিত	-5544
বাবে	-5545
বাহন	-5546
মহীশ	-5547
মাৰৰ	-5548
লগ্ন	-5549
সজ্জ	-5550
হীনত	-5551
াধীশ	-5552
ানাত	-5553
ায়ণ	-5554
াহাট	-5555
িতাত	-5556
িতাৰ	-5557
িব্ৰ	-5558
িমুখ	-5559
িম্ব	-5560
িল্ড	-5561
ীৰ্থ	-5562
ুটিৰ	-5563
ুপ্ত	-5564
ুৰাক	-5565
ুৰীৰ	-5566
ূৰ্ত	-5567
্বতী	-5568
্বিক	-5569
ৰ্টৰ	-5570
▁"""	-5571
▁উঠা	-5572
▁উৰু	-5573
▁এজে	-5574
▁কিন	-5575
▁কিষ	-5576
▁কুল	-5577
▁খিল	-5578
▁গুৰ	-5579
▁গেই	-5580
▁গোৱ	-5581
▁চলা	-5582
▁চলে	-5583
▁চীন	-5584
▁চোল	-5585
▁জঙৰ	-5586
▁জাপ	-5587
▁জিন	-5588
▁টিক	-5589
▁টুই	-5590
▁ডিট	-5591
▁ডেন	-5592
▁ঢাল	-5593
▁তান	-5594
▁তেজ	-5595
▁দশক	-5596
▁দাঁ	-5597
▁ধনৰ	-5598
▁ধ্ৰ	-5599
▁নগদ	-5600
▁নিব	-5601
▁পথৰ	-5602
▁পৰ্	-5603
▁বিহ	-5604
▁মকৰ	-5605
▁মেহ	-5606
▁যুগ	-5607
▁সুখ	-5608
▁সুধ	-5609
▁১৩০	-5610
▁১৬৫	-5611
▁১৮৯	-5612
▁ৰিপ	-5613
▁ৰেজ	-5614
▁ৰেল	-5615
গোলিক	-5616
চিয়ে	-5617
জাতিক	-5618
ঞ্জয়	-5619
দেশিক	-5620
ন্দৰৰ	-5621
পক্ষৰ	-5622
পায়ী	-5623
প্ৰসূ	-5624
ফটেনে	-5625
বিদ্য	-5626
মাণ্ড	-5627
মাত্র	-5628
মুক্ত	-5629
ম্বাৰ	-5630
শাৰীৰ	-5631
স্কৃত	-5632
াইয়া	-5633
াতেৰে	-5634
ান্দৰ	-5635
াবাদৰ	-5636
াবিলা	-5637
িন্নত	-5638
িলিপি	-5639
ুবৰ্গ	-5640
ৃত্বৰ	-5641
োৰাংচ	-5642
্পনিক	-5643
▁অজ্ঞ	-5644
▁অন্ব	-5645
▁আইডি	-5646
▁আচৰণ	-5647
▁আজিৰ	-5648
▁আঠটা	-5649
▁আহিব	-5650
▁আহিল	-5651
▁আৱাস	-5652
▁ইত্য	-5653
▁উন্ম	-5654
▁এবিধ	-5655
▁কইনা	-5656
▁কনজা	-5657
▁খোৱা	-5658
▁খ্রী	-5659
▁গোটৰ	-5660
▁চক্ৰ	-5661
▁চালে	-5662
▁চৰ্ত	-5663
▁ছেৰি	-5664
▁জংচন	-5665
▁জগতৰ	-5666
▁জন্ত	-5667
▁জাফৰ	-5668
▁টকাৰ	-5669
▁টাইপ	-5670
▁টিভি	-5671
▁টেংক	-5672
▁ঢাকি	-5673
▁থোৱা	-5674
▁দলটো	-5675
▁দিনত	-5676
▁দুয়	-5677
▁দেৱত	-5678
▁ধর্ম	-5679
▁নামত	-5680
▁নৰ্ম	-5681
▁নৱাব	-5682
▁পাতি	-5683
▁পেটৰ	-5684
▁প্ৰৱ	-5685
▁পৰাজ	-5686
▁বক্ত	-5687
▁বিধি	-5688
▁মহাম	-5689
▁মিছা	-5690
▁মুৰা	-5691
▁যাওক	-5692
▁যুটি	-5693
▁লাইন	-5694
▁লাগি	-5695
▁লৈছে	-5696
▁শ্বট	-5697
▁শ্রে	-5698
▁সমতল	-5699
▁সমূহ	-5700
▁১৯১৬	-5701
▁১৯৪৬	-5702
▁১৯৭৮	-5703
▁১৯৮৮	-5704
▁১৯৯১	-5705
▁২০২০	-5706
▁ৰঙীন	-5707
▁ৰাইড	-5708
▁ৰাওক	-5709
▁ৰানৰ	-5710
▁ৰোগত	-5711
গতভাৱে	-5712
মহীশূৰ	-5713
ম্যাদী	-5714
শিল্পী	-5715
াৰখণ্ড	-5716
িত্তিক	-5717
েৰীয়ে	-5718
্যায়ন	-5719
ৰিয়াল	-5720
▁অন্তঃ	-5721
▁অপুনি	-5722
▁আকৃতি	-5723
▁ইচ্ছা	-5724
▁উদ্ভৱ	-5725
▁উৎসাহ	-5726
▁এইবাৰ	-5727
▁এবছৰৰ	-5728
▁ওচৰতে	-5729
▁কইনাৰ	-5730
▁কলেজত	-5731
▁কাপুৰ	-5732
▁কাপোৰ	-5733
▁কাৰকৰ	-5734
▁কৌতুক	-5735
▁গাখীৰ	-5736
▁গোলকো	-5737
▁গ্ৰীক	-5738
▁চাণ্ড	-5739
▁জুলাই	-5740
▁টিপুক	-5741
▁দিয়ক	-5742
▁দোস্ত	-5743
▁নিষ্ঠ	-5744
▁পঞ্চম	-5745
▁পিন্ধ	-5746
▁পুনৰা	-5747
▁প্রেম	-5748
▁বচ্চন	-5749
▁বছৰতে	-5750
▁বতাহৰ	-5751
▁বন্ধৰ	-5752
▁বাহিৰ	-5753
▁বিজেপ	-5754
▁বিদ্ব	-5755
▁বিবাদ	-5756
▁বিলাস	-5757
▁বেংকৰ	-5758
▁বেক্ট	-5759
▁বৈদিক	-5760
▁বৰ্ষত	-5761
▁মাঙ্গ	-5762
▁মাটিত	-5763
▁যক্ষগ	-5764
▁যোগ্য	-5765
▁লেন্স	-5766
▁শব্দৰ	-5767
▁সংশোধ	-5768
▁সমষ্ট	-5769
▁সম্পূ	-5770
▁সিমান	-5771
▁সূৰ্য	-5772
▁সেনাক	-5773
▁সোমাই	-5774
▁হেঁচা	-5775
▁ৰাওনা	-5776
▁ৰেচিং	-5777
▁ৰেহাই	-5778
র্ভুক্ত	-5779
▁অটোমান	-5780
▁অনুপ্র	-5781
▁অপৰাধত	-5782
▁আনন্দই	-5783
▁আনন্দৰ	-5784
▁আপোনাল	-5785
▁আব্দুল	-5786
▁ইউৰোপত	-5787
▁ইউৰোপৰ	-5788
▁উজ্জয়	-5789
▁উত্তৰা	-5790
▁উত্তৰে	-5791
▁উপযোগী	-5792
▁উৎসৱটো	-5793
▁একেদৰে	-5794
▁এলেকাত	-5795
▁এসময়ত	-5796
▁কনিষ্ঠ	-5797
▁কল্যাণ	-5798
▁কাপুৰৰ	-5799
▁কিশোৰে	-5800
▁চাণক্য	-5801
▁চিন্তা	-5802
▁চোৰাংচ	-5803
▁ট্ৰফীৰ	-5804
▁তাৰিখে	-5805
▁দিনটোৰ	-5806
▁দিয়াত	-5807
▁নাগালে	-5808
▁নৃত্যৰ	-5809
▁পবিত্ৰ	-5810
▁পালতৰা	-5811
▁পাৰ্টি	-5812
▁পুত্ৰক	-5813
▁পেটেলৰ	-5814
▁প্রকৃত	-5815
▁বচ্চনৰ	-5816
▁বাঙালী	-5817
▁বিক্রী	-5818
▁বুদ্ধৰ	-5819
▁মানুহক	-5820
▁যিটোৱে	-5821
▁যিবোৰে	-5822
▁লণ্ডনত	-5823
▁লোকসভা	-5824
▁শক্তিৰ	-5825
▁শব্দটো	-5826
▁সংঘাতৰ	-5827
▁সংবেদন	-5828
▁সপ্তাহ	-5829
▁সম্রাজ	-5830
▁সৌন্দৰ	-5831
▁স্নাতক	-5832
▁হত্যাৰ	-5833
▁হৈয়েই	-5834
▁ৰাজপ্ৰ	-5835
কাৰীসকলৰ	-5836
ক্ষামূলক	-5837
▁অধ্যাপক	-5838
▁অপৰাজিত	-5839
▁আৰক্ষীক	-5840
▁উদ্ভিদৰ	-5841
▁ক্ষুব্ধ	-5842
▁গুৱাহাট	-5843
▁গ্ৰেণ্ড	-5844
▁চিকিৎসক	-5845
▁চুলতানক	-5846
▁জটিলতাৰ	-5847
▁তাৰপাছত	-5848
▁নামেৰেও	-5849
▁নৱেম্বৰ	-5850
▁পশ্চিমব	-5851
▁পৃথিৱীৰ	-5852
▁প্ৰচাৰৰ	-5853
▁প্ৰথমতে	-5854
▁বিপদজনক	-5855
▁বিষয়াক	-5856
▁বৈদেশিক	-5857
▁ভূমিকাৰ	-5858
▁লুকুৱাই	-5859
▁লেফটেনে	-5860
▁সংক্ৰমণ	-5861
▁সংঘৰ্ষৰ	-5862
▁সিংহাসন	-5863
▁স্বামীৰ	-5864
▁স্বীকৃত	-5865
▁স্বেচ্ছ	-5866
▁অক্টোবৰত	-5867
▁অঞ্চলটোক	-5868
▁অতিবাহিত	-5869
▁অনুমোদিত	-5870
▁অস্পৃশ্য	-5871
▁ইংলেণ্ডত	-5872
▁উপকূলীয়	-5873
▁কাল্পনিক	-5874
▁কিছুমানে	-5875
▁গভীৰভাৱে	-5876
▁জনজাতীয়	-5877
▁নিৰীক্ষণ	-5878
▁পদ্মশ্ৰী	-5879
▁প্ৰকৃততে	-5880
▁প্ৰমাণিত	-5881
▁পৰিয়ালত	-5882
▁পৰিষ্কাৰ	-5883
▁বহুলভাৱে	-5884
▁মনোৰঞ্জন	-5885
▁মাধ্যমিক	-5886
▁মোকাবিলা	-5887
▁শাসকসকলৰ	-5888
▁সংস্কৃতি	-5889
▁সন্তুষ্ট	-5890
▁সম্ভাজীৰ	-5891
▁ৰাতিপুৱা	-5892
▁অনুষ্ঠানৰ	-5893
▁ইণ্টাৰনেট	-5894
▁ঔৰঙ্গজেবে	-5895
▁কিংবদন্তি	-5896
▁ক্ষেত্ৰতো	-5897
▁ক্ৰিকেটাৰ	-5898
▁চলচ্চিত্র	-5899
▁জাইগিৰদাৰ	-5900
▁নিৰ্ধাৰিত	-5901
▁পদ্মাৱতীক	-5902
▁প্ৰাদেশিক	-5903
▁বন্ধুবৰ্গ	-5904
▁বিচাৰিবলৈ	-5905
▁মূল্যায়ন	-5906
▁অস্বাভাৱিক	-5907
▁ইনষ্টিটিউট	-5908
▁কিলোমিটাৰৰ	-5909
▁কোম্পানীটো	-5910
▁দৃষ্টিভংগী	-5911
▁ন্যায়াধীশ	-5912
▁বিদ্যালয়ত	-5913
▁মধ্যপ্ৰদেশ	-5914
▁মধ্যযুগীয়	-5915
▁ষ্টেডিয়াম	-5916
▁অন্তর্ভুক্ত	-5917
▁জালালউদ্দিন	-5918
▁ন্যায়ালয়ৰ	-5919
▁প্ৰতিষ্ঠাপক	-5920
▁সম্প্ৰদায়ৰ	-5921
▁আফগানিস্তানত	-5922
▁ঐতিহাসিকভাৱে	-5923
▁প্ৰতিযোগিতাত	-5924
▁মুখ্যমন্ত্ৰী	-5925
▁তুলনামূলকভাৱে	-5926
▁প্ৰাপ্তবয়স্ক	-5927
▁স্বাভাৱিকভাৱে	-5928
আল	-5929
ছ্	-5930
ডা	-5931
থী	-5932
পণ	-5933
পল	-5934
মই	-5935
শু	-5936
ীদ	-5937
োত	-5938
১৩	-5939
২২	-5940
এটা	-5941
কূল	-5942
খাৰ	-5943
গৰৰ	-5944
চীৰ	-5945
ছনে	-5946
ছেট	-5947
জাজ	-5948
ঠিৰ	-5949
ড্ৰ	-5950
দীৰ	-5951
নতম	-5952
ফাৰ	-5953
ফ্ল	-5954
বিষ	-5955
বুত	-5956
বেক	-5957
মীৰ	-5958
লিত	-5959
হাল	-5960
হিৰ	-5961
াঁৰ	-5962
াধন	-5963
াসে	-5964
িউজ	-5965
িউন	-5966
ুটছ	-5967
ুতম	-5968
ুলভ	-5969
েকৰ	-5970
েটত	-5971
োকা	-5972
োচন	-5973
োটা	-5974
োড়	-5975
োনৰ	-5976
্কি	-5977
্টৰ	-5978
্রা	-5979
ৰিছ	-5980
▁আও	-5981
▁এপ	-5982
▁এৰ	-5983
▁গী	-5984
▁জৱ	-5985
▁টৰ	-5986
▁থল	-5987
▁নৰ	-5988
▁পট	-5989
▁মধ	-5990
▁মী	-5991
▁শো	-5992
▁হত	-5993
▁৩৭	-5994
▁৬৪	-5995
▁৮০	-5996
▁ৰম	-5997
ঃসাহ	-5998
অভিন	-5999
ওঁতে	-6000
ক্যৰ	-6001
গাঁথ	-6002
ঙ্গৰ	-6003
চাইক	-6004
চাইট	-6005
ঞ্চৰ	-6006
ড়ীৰ	-6007
তাৰে	-6008
ধৰ্ম	-6009
ন্সৰ	-6010
প্ৰণ	-6011
মাতৃ	-6012
মুনা	-6013
য়েছ	-6014
র্কৰ	-6015
লতাৰ	-6016
ষ্টন	-6017
ষ্টে	-6018
সপ্ত	-6019
সূৰী	-6020
স্তা	-6021
স্তি	-6022
হাৰৰ	-6023
াণিত	-6024
াদাৰ	-6025
াভিষ	-6026
াময়	-6027
ালিৰ	-6028
াৰ্ম	-6029
িকৰী	-6030
িটিৰ	-6031
িনীত	-6032
িৰাৰ	-6033
ীতিক	-6034
ীৰ্ব	-6035
ুতিক	-6036
ুলাৰ	-6037
েলাৰ	-6038
্গিল	-6039
্তিক	-6040
্রাট	-6041
ৰ্কৰ	-6042
ৱণতা	-6043
▁অকল	-6044
▁অর্	-6045
▁আঁচ	-6046
▁আইট	-6047
▁ইলত	-6048
▁এইচ	-6049
▁এটি	-6050
▁ঔষধ	-6051
▁কটা	-6052
▁কমল	-6053
▁কলৰ	-6054
▁কাফ	-6055
▁কুন	-6056
▁কেভ	-6057
▁কেম	-6058
▁কোৰ	-6059
▁খাপ	-6060
▁খুব	-6061
▁গেম	-6062
▁গৌৰ	-6063
▁ঘোৰ	-6064
▁চাম	-6065
▁চুল	-6066
▁চৰম	-6067
▁ছাত	-6068
▁ছেট	-6069
▁জাগ	-6070
▁ডাই	-6071
▁তাজ	-6072
▁থ্ৰ	-6073
▁দুখ	-6074
▁দোল	-6075
▁ধৰ্	-6076
▁নিগ	-6077
▁নিল	-6078
▁নীৰ	-6079
▁নৰে	-6080
▁পিক	-6081
▁পুখ	-6082
▁ফ্র	-6083
▁বঢ়	-6084
▁বলি	-6085
▁বাক	-6086
▁বুল	-6087
▁বেন	-6088
▁বৈঠ	-6089
▁ভগৱ	-6090
▁ভতি	-6091
▁ভিক	-6092
▁ভিন	-6093
▁ভিৰ	-6094
▁ভোঁ	-6095
▁মণি	-6096
▁মাম	-6097
▁মিঠ	-6098
▁যোধ	-6099
▁যৌন	-6100
▁লিব	-6101
▁লুট	-6102
▁লোহ	-6103
▁শপত	-6104
▁শিত	-6105
▁শোক	-6106
▁সংম	-6107
▁সংহ	-6108
▁সূচ	-6109
▁সোণ	-6110
▁হোৱ	-6111
▁১৫৮	-6112
▁১৮৫	-6113
▁১৮৬	-6114
▁১৯০	-6115
▁২টা	-6116
▁৩০০	-6117
▁ৰিজ	-6118
ংখ্যক	-6119
ক্ষণৰ	-6120
চিত্র	-6121
ত্তিৰ	-6122
দণ্ডৰ	-6123
পক্ষই	-6124
বেষ্ট	-6125
ব্ৰাহ	-6126
মানিক	-6127
মাষ্ট	-6128
হীনতা	-6129
াইটেড	-6130
াবোৰত	-6131
াল্টি	-6132
াস্বৰ	-6133
িক্ষণ	-6134
্ৰিয়	-6135
ৰ্ভাৱ	-6136
▁অজিত	-6137
▁অমৃত	-6138
▁অসমৰ	-6139
▁অৱসৰ	-6140
▁আইনৰ	-6141
▁আচাৰ	-6142
▁আদিল	-6143
▁আফ্ৰ	-6144
▁আভাস	-6145
▁আলুপ	-6146
▁আৱেগ	-6147
▁এখনত	-6148
▁এখনৰ	-6149
▁এটাৰ	-6150
▁কপিল	-6151
▁কম্প	-6152
▁কলিক	-6153
▁কেইম	-6154
▁খালী	-6155
▁খেদি	-6156
▁খেলি	-6157
▁গংগা	-6158
▁গল্প	-6159
▁চীনা	-6160
▁চেতন	-6161
▁ছাইট	-6162
▁ছেইল	-6163
▁জনাই	-6164
▁জয়স	-6165
▁জয়ৰ	-6166
▁জায়	-6167
▁জ্বল	-6168
▁টাটা	-6169
▁ঠেলি	-6170
▁দর্শ	-6171
▁দেখি	-6172
▁নক্স	-6173
▁নাতি	-6174
▁নাৱৰ	-6175
▁নীলা	-6176
▁নৰ্থ	-6177
▁পঢ়ি	-6178
▁পতাৰ	-6179
▁পুনে	-6180
▁প্ৰক	-6181
▁বলাৰ	-6182
▁বাইক	-6183
▁বিৰত	-6184
▁বুজি	-6185
▁ভাষণ	-6186
▁মাংস	-6187
▁মালা	-6188
▁মুখা	-6189
▁যুৱক	-6190
▁লাইভ	-6191
▁সচিব	-6192
▁সমান	-6193
▁সাংগ	-6194
▁সুখী	-6195
▁সুৰা	-6196
▁সেনক	-6197
▁স্তৰ	-6198
▁হুছে	-6199
▁১০০০	-6200
▁১২৯৬	-6201
▁১৯৬২	-6202
▁১৯৬৪	-6203
▁১৯৭৪	-6204
▁১৯৮৬	-6205
চিকিৎস	-6206
ন্দ্ৰী	-6207
মাণৱিক	-6208
শস্ত্ৰ	-6209
শ্বায়	-6210
সংখ্যক	-6211
াইটিছৰ	-6212
ানাধীন	-6213
ামেণ্ট	-6214
াহমানৰ	-6215
িক্ষেপ	-6216
িয়ামৰ	-6217
িস্তান	-6218
▁অৱদান	-6219
▁আগতেই	-6220
▁আয়োগ	-6221
▁আর্হি	-6222
▁আৰোহণ	-6223
▁এলবাম	-6224
▁কনজাং	-6225
▁কীৰ্ত	-6226
▁কোৱাৰ	-6227
▁গহ্বৰ	-6228
▁গুণ্ড	-6229
▁গ্রাহ	-6230
▁চেণ্ট	-6231
▁চেনেল	-6232
▁ছমাহৰ	-6233
▁জোৱান	-6234
▁জৰুৰী	-6235
▁টেনিছ	-6236
▁ডলাৰৰ	-6237
▁তথাপি	-6238
▁তোমাক	-6239
▁তোলাৰ	-6240
▁থকাটো	-6241
▁দলীয়	-6242
▁দুবাৰ	-6243
▁দুর্ভ	-6244
▁দেৱাল	-6245
▁দৰবাৰ	-6246
▁নকৰিব	-6247
▁নির্ধ	-6248
▁নীতিৰ	-6249
▁পুনৰু	-6250
▁পেলাই	-6251
▁প্লেট	-6252
▁পৰিসৰ	-6253
▁বনোৱা	-6254
▁বিসংগ	-6255
▁বেটিং	-6256
▁ব্লেক	-6257
▁বৰ্ণম	-6258
▁মজবুত	-6259
▁মহোৎস	-6260
▁মাটিৰ	-6261
▁মিলিট	-6262
▁মিলিত	-6263
▁মৌলিক	-6264
▁যোদ্ধ	-6265
▁লণ্ডন	-6266
▁শুদ্ধ	-6267
▁শ্ৰীৰ	-6268
▁ষ্টাৰ	-6269
▁সংক্ৰ	-6270
▁সংজ্ঞ	-6271
▁সপ্তম	-6272
▁সমন্ব	-6273
▁স্তৰৰ	-6274
▁স্থিত	-6275
▁স্বৰত	-6276
▁হাছান	-6277
▁ৰেকেট	-6278
কাৰীয়ে	-6279
দ্দেশিত	-6280
ভিত্তিক	-6281
যন্ত্ৰৰ	-6282
সায়নিক	-6283
ান্তীয়	-6284
ুদ্দিনৰ	-6285
▁অন্ধ্ৰ	-6286
▁অভিমুখ	-6287
▁অভিষেক	-6288
▁অৰিহণা	-6289
▁আকর্ষণ	-6290
▁আক্রমণ	-6291
▁আলেকজে	-6292
▁আশীৰ্ব	-6293
▁ইলতুৎম	-6294
▁উচ্চতম	-6295
▁উপাসনা	-6296
▁কেমেৰা	-6297
▁খেলবিধ	-6298
▁গ্ৰহণৰ	-6299
▁চলাবলৈ	-6300
▁চলোৱাৰ	-6301
▁জনাইছে	-6302
▁জ্বলাই	-6303
▁ডব্লিউ	-6304
▁তেলেংগ	-6305
▁দ্ৰাবি	-6306
▁দৰবাৰৰ	-6307
▁নাওখনৰ	-6308
▁নৰ্মদা	-6309
▁পুত্ৰৰ	-6310
▁পোৱাটো	-6311
▁প্রশংস	-6312
▁প্রিয়	-6313
▁প্ৰব্ৰ	-6314
▁প্ৰিন্	-6315
▁পৰ্যবে	-6316
▁ফাউণ্ড	-6317
▁বক্তৃত	-6318
▁বহুকেই	-6319
▁বিদেশত	-6320
▁বিভাজন	-6321
▁বিষয়ৰ	-6322
▁বিহাৰত	-6323
▁ভয়ংকৰ	-6324
▁মনোযোগ	-6325
▁মল্লযু	-6326
▁মুছলিম	-6327
▁যন্ত্ৰ	-6328
▁যোদ্ধা	-6329
▁লোকসকল	-6330
▁শিৱাজী	-6331
▁শীৰ্ষক	-6332
▁সংলগ্ন	-6333
▁সতীৰ্থ	-6334
▁সম্রাট	-6335
▁স্তন্য	-6336
▁হাইদৰে	-6337
▁হাতেৰে	-6338
▁ৰাখিছে	-6339
ঁচাকৈয়ে	-6340
নিৰপেক্ষ	-6341
ষ্ট্রীয়	-6342
স্থানীয়	-6343
ান্ত্ৰিক	-6344
▁অনুগামী	-6345
▁অন্বেষণ	-6346
▁অপাৰেচন	-6347
▁অপেক্ষা	-6348
▁অসমীয়া	-6349
▁আগশাৰীৰ	-6350
▁উদ্ভাৱন	-6351
▁উদ্যোগত	-6352
▁উপাধিৰে	-6353
▁উলিয়াই	-6354
▁ঔৰংজেবে	-6355
▁কাৰিকৰী	-6356
▁কাৰ্গিল	-6357
▁কেৰালাৰ	-6358
▁খান্নাৰ	-6359
▁গুজৰাটী	-6360
▁ছত্ৰপতি	-6361
▁ছেৰিঙ্গ	-6362
▁জনজাতিৰ	-6363
▁জলবায়ু	-6364
▁তাৰপিছত	-6365
▁তিনিবাৰ	-6366
▁তীক্ষ্ণ	-6367
▁তেলেঙ্গ	-6368
▁নাথাকিব	-6369
▁পশ্চিমে	-6370
▁প্রতিটো	-6371
▁প্ৰাণীৰ	-6372
▁পৰাজয়ৰ	-6373
▁পৰামর্শ	-6374
▁পৰিৱেশত	-6375
▁পৰ্যন্ত	-6376
▁ফলপ্ৰসূ	-6377
▁বিনিময়	-6378
▁বিলুপ্ত	-6379
▁বিষয়াৰ	-6380
▁ব্যঞ্জন	-6381
▁ভাবিছিল	-6382
▁ভূখণ্ডৰ	-6383
▁মনোনয়ন	-6384
▁মন্দিৰত	-6385
▁মানদণ্ড	-6386
▁মিডিয়া	-6387
▁লক্ষ্যত	-6388
▁শিৱাজীক	-6389
▁সম্বোধন	-6390
▁সম্ৰাটৰ	-6391
▁সেইবোৰৰ	-6392
▁সেইসমূহ	-6393
▁হেৰুৱাই	-6394
▁হ্ৰদটোৰ	-6395
▁ৰোমাঞ্চ	-6396
▁অন্তৰ্গত	-6397
▁অভিজ্ঞতা	-6398
▁অৱস্থানৰ	-6399
▁ইউনাইটেড	-6400
▁ঔৰংগজেবে	-6401
▁কণ্ঠস্বৰ	-6402
▁গৃহবন্দী	-6403
▁চালুক্যৰ	-6404
▁তথ্যসমূহ	-6405
▁নিয়োজিত	-6406
▁নিৰ্মাতা	-6407
▁নৰেন্দ্ৰ	-6408
▁পাৰ্থক্য	-6409
▁পুনৰুদ্ধ	-6410
▁পেনাল্টি	-6411
▁প্ৰতিশোধ	-6412
▁প্ৰসিদ্ধ	-6413
▁পৰম্পৰাত	-6414
▁বন্ধুত্ব	-6415
▁বাজপেয়ী	-6416
▁বাসিন্দা	-6417
▁বাহাদুৰৰ	-6418
▁বিষ্ণুকু	-6419
▁মহাকাব্য	-6420
▁শাসনকালৰ	-6421
▁সন্ন্যাস	-6422
▁সমাজবাদী	-6423
▁সম্রাজ্ঞ	-6424
▁স্থাপত্য	-6425
▁হাইস্কুল	-6426
▁ৰাজনীতিৰ	-6427
▁অতিৰঞ্জিত	-6428
▁অশ্বাৰোহী	-6429
▁খ্ৰীষ্টান	-6430
▁চিত্তোৰলৈ	-6431
▁জাহাংগীৰৰ	-6432
▁দুর্ভিক্ষ	-6433
▁দুৰ্ভিক্ষ	-6434
▁দ্বিতীয়ক	-6435
▁পাৰমাণৱিক	-6436
▁পুৰস্কাৰৰ	-6437
▁পূৰ্বসূৰী	-6438
▁প্রতিষ্ঠা	-6439
▁প্ৰতিফলিত	-6440
▁ষড়যন্ত্ৰ	-6441
▁অনুষ্ঠানটো	-6442
▁উত্তৰাখণ্ড	-6443
▁গ্ৰেপ্তাৰৰ	-6444
▁চিত্ৰনাট্য	-6445
▁ছত্তীশগড়ত	-6446
▁তামিলনাডুত	-6447
▁তীৰ্থস্থান	-6448
▁নিয়ন্ত্রণ	-6449
▁বিদ্যালয়ৰ	-6450
▁সংগ্ৰহালয়	-6451
▁ৰাজনীতিবিদ	-6452
▁ৰাষ্ট্ৰদূত	-6453
▁আক্ৰমণাত্মক	-6454
▁চালুক্যসকলৰ	-6455
▁তেণ্ডুলকাৰক	-6456
▁তেণ্ডুলকাৰৰ	-6457
▁নিৰ্দ্দেশিত	-6458
▁পুনৰাবৃত্তি	-6459
▁মহাৰাষ্ট্ৰৰ	-6460
▁মালিকানাধীন	-6461
▁শান্তিপূৰ্ণ	-6462
▁স্তন্যপায়ী	-6463
▁আফগানিস্তানৰ	-6464
▁চন্দ্রগুপ্তই	-6465
▁দাক্ষিণাত্যত	-6466
▁নিয়ন্ত্ৰণলৈ	-6467
▁সৈন্যবাহিনীক	-6468
▁উত্তৰাধিকাৰীৰ	-6469
▁নিৰ্ণায়কভাৱে	-6470
▁প্ৰতিযোগিতামূলক	-6471
উৰ	-6472
কৌ	-6473
ঙক	-6474
ঙল	-6475
চ্	-6476
ছক	-6477
ছন	-6478
জল	-6479
ডক	-6480
থন	-6481
পী	-6482
পৃ	-6483
বত	-6484
শৰ	-6485
ষি	-6486
সু	-6487
িফ	-6488
ুচ	-6489
ুজ	-6490
ৃশ	-6491
োছ	-6492
১২	-6493
১৫	-6494
১৮	-6495
৪৭	-6496
৭০	-6497
ংগল	-6498
কান	-6499
খাল	-6500
গীত	-6501
তীৰ	-6502
তেন	-6503
নেহ	-6504
পাক	-6505
পুণ	-6506
বৰা	-6507
ভান	-6508
মতী	-6509
ল্ফ	-6510
শ্র	-6511
সদৰ	-6512
াউদ	-6513
াগত	-6514
াজৰ	-6515
াপী	-6516
িংক	-6517
িউড	-6518
িজম	-6519
িজে	-6520
িমৰ	-6521
ুদা	-6522
ুনে	-6523
ুৰু	-6524
েচি	-6525
েতা	-6526
োচা	-6527
োবৰ	-6528
্না	-6529
৮টা	-6530
ৰাউ	-6531
ৰাব	-6532
ৰীত	-6533
ৰেই	-6534
ৱতী	-6535
▁অক	-6536
▁উশ	-6537
▁এঘ	-6538
▁চপ	-6539
▁ছট	-6540
▁ছল	-6541
▁টি	-6542
▁বব	-6543
▁বশ	-6544
▁সপ	-6545
▁সো	-6546
▁হা	-6547
▁হি	-6548
▁৩৪	-6549
▁ৰচ	-6550
ক্ষে	-6551
কৰ্ত	-6552
গছনি	-6553
গত্য	-6554
গামী	-6555
গিৰি	-6556
ঙ্গা	-6557
চিয়	-6558
থলেট	-6559
দীঘল	-6560
নশীল	-6561
ন্তৰ	-6562
পুৰা	-6563
ফাইল	-6564
বহুল	-6565
বায়	-6566
ব্যৰ	-6567
মতাজ	-6568
মোওও	-6569
ম্বল	-6570
ল্লী	-6571
ষ্ঠী	-6572
হঁতৰ	-6573
াইনৰ	-6574
াগাৰ	-6575
াগ্ৰ	-6576
াজাৰ	-6577
াজ্ঞ	-6578
াপনা	-6579
াপ্প	-6580
াশিৱ	-6581
াহেব	-6582
াৰলৈ	-6583
াৰিক	-6584
িজনত	-6585
ীদাৰ	-6586
ুকুৰ	-6587
ুদেৱ	-6588
ুৰিদ	-6589
ৃষ্ণ	-6590
েইনৰ	-6591
েক্স	-6592
েটিভ	-6593
েলিফ	-6594
োনাক	-6595
্টোৰ	-6596
্ৰিম	-6597
ৰ্কী	-6598
ৰ্মন	-6599
▁অধী	-6600
▁আইঅ	-6601
▁আইব	-6602
▁আগে	-6603
▁আধা	-6604
▁আহম	-6605
▁আৰৱ	-6606
▁এছে	-6607
▁কমি	-6608
▁কোচ	-6609
▁কোৱ	-6610
▁ক্র	-6611
▁কৰম	-6612
▁খেদ	-6613
▁গণত	-6614
▁গোৰ	-6615
▁ঘটে	-6616
▁চিট	-6617
▁ছাট	-6618
▁জাজ	-6619
▁জুজ	-6620
▁জোঁ	-6621
▁ট্য	-6622
▁ডাৰ	-6623
▁তাপ	-6624
▁দুল	-6625
▁ধৰে	-6626
▁নকৰ	-6627
▁নগা	-6628
▁নতু	-6629
▁নাদ	-6630
▁ন্য	-6631
▁পদক	-6632
▁পদত	-6633
▁পাচ	-6634
▁পাদ	-6635
▁পাপ	-6636
▁পিট	-6637
▁পেই	-6638
▁ফটো	-6639
▁ফাট	-6640
▁ফাল	-6641
▁ফিৰ	-6642
▁বুধ	-6643
▁বেত	-6644
▁ভোগ	-6645
▁মঙল	-6646
▁মুক	-6647
▁মুল	-6648
▁মৌখ	-6649
▁মৰা	-6650
▁লওঁ	-6651
▁লতা	-6652
▁শৈশ	-6653
▁হতা	-6654
▁হাউ	-6655
▁হাভ	-6656
▁১১৯	-6657
▁ৰবী	-6658
▁ৰাধ	-6659
▁ৱৰ্	-6660
কালেই	-6661
কেইটা	-6662
গ্রহণ	-6663
গ্ৰাম	-6664
ঞ্চিত	-6665
ঞ্জিন	-6666
ণ্টিক	-6667
পানীৰ	-6668
পুৰুষ	-6669
বিজ্ঞ	-6670
বিহীন	-6671
বেদনৰ	-6672
ম্বিত	-6673
ম্বেল	-6674
লীয়া	-6675
শাসনৰ	-6676
শ্বাহ	-6677
সংগীত	-6678
সিঞ্চ	-6679
হেতেন	-6680
ানাশক	-6681
ীক্ষা	-6682
্কাৰে	-6683
্বতীৰ	-6684
্রমণৰ	-6685
ৰামতি	-6686
▁অক্ষ	-6687
▁অসফল	-6688
▁অহোই	-6689
▁আপোচ	-6690
▁আমিৰ	-6691
▁আহৰণ	-6692
▁আৰাম	-6693
▁উঠাই	-6694
▁উপদে	-6695
▁উপনি	-6696
▁এম্ব	-6697
▁কণ্ট	-6698
▁কন্ন	-6699
▁কমলা	-6700
▁কমেড	-6701
▁ক্ৰে	-6702
▁খোলা	-6703
▁গতিৰ	-6704
▁গাঁত	-6705
▁গীতা	-6706
▁গৌতম	-6707
▁ছফ্ট	-6708
▁জলাহ	-6709
▁টেৰে	-6710
▁ডাটা	-6711
▁তক্ষ	-6712
▁তুমি	-6713
▁তুলি	-6714
▁থাকি	-6715
▁দাউদ	-6716
▁দাৰা	-6717
▁দুর্	-6718
▁নিশা	-6719
▁নেটৰ	-6720
▁ন্যা	-6721
▁পতনৰ	-6722
▁পদবী	-6723
▁পদলৈ	-6724
▁পেকে	-6725
▁পেশী	-6726
▁প্রস	-6727
▁ফুলি	-6728
▁ফুলৰ	-6729
▁বংশৰ	-6730
▁বজাত	-6731
▁বলৱৎ	-6732
▁বাদি	-6733
▁বিংশ	-6734
▁বিগত	-6735
▁ব্লক	-6736
▁ভাগত	-6737
▁ভাঙি	-6738
▁ভিতৰ	-6739
▁ভুৱা	-6740
▁ভোঁস	-6741
▁মংগল	-6742
▁মহাভ	-6743
▁মাধৱ	-6744
▁মানৰ	-6745
▁মেজৰ	-6746
▁মোওও	-6747
▁মোহন	-6748
▁মোহৰ	-6749
▁লাভৰ	-6750
▁লীগৰ	-6751
▁সংঘৰ	-6752
▁সংহত	-6753
▁সভাৰ	-6754
▁সোধা	-6755
▁হাৰে	-6756
▁১৭৬১	-6757
▁১৭৭১	-6758
▁১৮৪৫	-6759
▁১৯৩৫	-6760
▁১৯৫২	-6761
▁১৯৮৫	-6762
▁১৯৯৫	-6763
▁২০১৯	-6764
▁ৰজাই	-6765
▁ৰাণৰ	-6766
▁ৰূপে	-6767
▁ৰেচম	-6768
কিন্তু	-6769
চাইকেল	-6770
প্রকাশ	-6771
সমূহলৈ	-6772
স্পৰিক	-6773
হতীয়া	-6774
াধিকাৰ	-6775
ানুমান	-6776
াহৰলাল	-6777
িন্নতা	-6778
িয়ানৰ	-6779
িষ্টেম	-6780
ীয়মান	-6781
েধাজ্ঞ	-6782
্টিকেল	-6783
্ত্বিক	-6784
্যায়ৰ	-6785
▁অংশটো	-6786
▁অক্সফ	-6787
▁অন্তত	-6788
▁অশোকব	-6789
▁অৱনতি	-6790
▁অৱবাহ	-6791
▁আইতাক	-6792
▁আকবৰক	-6793
▁আগমনৰ	-6794
▁আঘাতৰ	-6795
▁আজমেৰ	-6796
▁আৱদ্ধ	-6797
▁উত্তে	-6798
▁এইদৰে	-6799
▁একাংশ	-6800
▁এথলেট	-6801
▁কামান	-6802
▁কালাম	-6803
▁কেলিফ	-6804
▁কোনেও	-6805
▁ক্ৰমত	-6806
▁কৰায়	-6807
▁খিতাপ	-6808
▁খুৰাক	-6809
▁গণৰাজ	-6810
▁গাঁৱত	-6811
▁গ্ৰেট	-6812
▁ঘটায়	-6813
▁চলাচল	-6814
▁চলায়	-6815
▁চুৰাট	-6816
▁ছবিতো	-6817
▁ছিদ্ৰ	-6818
▁জাষ্ট	-6819
▁টুৰ্ণ	-6820
▁টেবুল	-6821
▁ডাবলছ	-6822
▁ডায়ে	-6823
▁তিনিও	-6824
▁তুৰ্ক	-6825
▁থলুৱা	-6826
▁দাৰ্জ	-6827
▁দুগুণ	-6828
▁নক্সা	-6829
▁নাপিত	-6830
▁নায়ক	-6831
▁নিযুত	-6832
▁পক্ষী	-6833
▁পিছতো	-6834
▁পুঁজি	-6835
▁প্ৰতী	-6836
▁ফিল্ড	-6837
▁বসুৱে	-6838
▁বাক্য	-6839
▁বিনোদ	-6840
▁বিফলত	-6841
▁বৈদ্য	-6842
▁বৈৰাম	-6843
▁বৰঞ্চ	-6844
▁ভগৱান	-6845
▁ভতিজা	-6846
▁ভাগৱত	-6847
▁ভূমিক	-6848
▁মাজতে	-6849
▁মালগু	-6850
▁মাস্ত	-6851
▁মূখ্য	-6852
▁শ্ৰৱণ	-6853
▁সংকটৰ	-6854
▁সংকেত	-6855
▁সংগতি	-6856
▁সংসদৰ	-6857
▁সমলয়	-6858
▁সম্বল	-6859
▁সাংসদ	-6860
▁সুন্দ	-6861
▁সুস্ব	-6862
▁সেনাপ	-6863
▁সৈতেও	-6864
▁সৈমান	-6865
▁হতাহত	-6866
▁হাজিৰ	-6867
▁হামিদ	-6868
▁ৰন্ধা	-6869
▁ৰয়েল	-6870
▁ৰাজীৱ	-6871
▁ৰোমান	-6872
ক্ষিপ্ত	-6873
চিয়েচন	-6874
জামানীৰ	-6875
বিধানিক	-6876
ান্তৰাল	-6877
ৰ্জাতিক	-6878
▁অনিচ্ছ	-6879
▁অনুদান	-6880
▁অনুপ্ৰ	-6881
▁অনুবাদ	-6882
▁অনুৰাগ	-6883
▁অন্ততঃ	-6884
▁অৱদানৰ	-6885
▁আগুৱাই	-6886
▁আগ্ৰাত	-6887
▁ইজিপ্ত	-6888
▁ইন্দ্ৰ	-6889
▁এইসমূহ	-6890
▁কাউণ্ট	-6891
▁কেইদিন	-6892
▁ক্লাবৰ	-6893
▁ক্ষতিৰ	-6894
▁খেলখনত	-6895
▁খেলখনৰ	-6896
▁গ্ৰাহক	-6897
▁চহৰখনত	-6898
▁চান্দৰ	-6899
▁চৰকাৰক	-6900
▁জনোৱাৰ	-6901
▁থাকিলে	-6902
▁দুঃসাহ	-6903
▁দুৰ্ঘট	-6904
▁দেশমুখ	-6905
▁দেৱতাৰ	-6906
▁দ্বীপত	-6907
▁নায়কৰ	-6908
▁নিকটতম	-6909
▁নেহৰুৰ	-6910
▁নোৱাৰি	-6911
▁নৌকৰ্ম	-6912
▁পাঁচজন	-6913
▁পাৰ্কৰ	-6914
▁পুখুৰী	-6915
▁পেলায়	-6916
▁প্রমাণ	-6917
▁প্লেটফ	-6918
▁প্ৰগতি	-6919
▁প্ৰদাহ	-6920
▁প্ৰেমত	-6921
▁বস্তুৰ	-6922
▁বান্দৰ	-6923
▁বিচাৰৰ	-6924
▁বিপৰ্য	-6925
▁বিবৃতি	-6926
▁বিহাৰৰ	-6927
▁বৰষুণৰ	-6928
▁ভিতৰলৈ	-6929
▁মহানগৰ	-6930
▁মহাবংশ	-6931
▁মাজভাগ	-6932
▁মান্তি	-6933
▁মান্না	-6934
▁মেৱাৰৰ	-6935
▁মৌচুমী	-6936
▁শিকোৱা	-6937
▁শিক্ষক	-6938
▁শিবিৰৰ	-6939
▁সংগ্রহ	-6940
▁সকলোৰে	-6941
▁সমুদ্ৰ	-6942
▁সমৰ্থক	-6943
▁সহকাৰী	-6944
▁সৈন্যক	-6945
▁সোণালী	-6946
▁হুছেইন	-6947
▁হ্ৰদটো	-6948
ক্ষেত্ৰত	-6949
ষ্টাব্দৰ	-6950
ানুষ্ঠান	-6951
▁অংশীদাৰ	-6952
▁অত্যন্ত	-6953
▁অভিমুখে	-6954
▁আনুগত্য	-6955
▁আয়োজিত	-6956
▁ইউনিয়ন	-6957
▁উদযাপনৰ	-6958
▁উদ্যানত	-6959
▁এইটোৱেই	-6960
▁একমাত্র	-6961
▁কাটিবলৈ	-6962
▁কানাডাৰ	-6963
▁কাৰ্তিক	-6964
▁কৃত্ৰিম	-6965
▁ক্ৰিয়া	-6966
▁গন্তব্য	-6967
▁গ্ৰাহকৰ	-6968
▁চলচিত্ৰ	-6969
▁চিত্ৰিত	-6970
▁চিনেমাৰ	-6971
▁চুক্তিৰ	-6972
▁চোপ্ৰাৰ	-6973
▁ছন্দময়	-6974
▁জলসিঞ্চ	-6975
▁টিউমাৰৰ	-6976
▁ডিফেন্স	-6977
▁তালিকাত	-6978
▁দিনটোতে	-6979
▁দুয়োকে	-6980
▁দুৰ্গটো	-6981
▁দেখুৱাই	-6982
▁নকৰিবলৈ	-6983
▁নিক্ষেপ	-6984
▁নির্মাণ	-6985
▁ন্যায্য	-6986
▁পদচ্যুত	-6987
▁পদ্ধতিৰ	-6988
▁পদ্মিনী	-6989
▁পাঞ্জাৱ	-6990
▁প্রয়োগ	-6991
▁প্ৰচলিত	-6992
▁প্ৰভাৱত	-6993
▁প্ৰাণীক	-6994
▁পৰ্যটকৰ	-6995
▁ফেডাৰেল	-6996
▁বাসুদেৱ	-6997
▁বাহিৰলৈ	-6998
▁বিপক্ষৰ	-6999
▁বিষ্ণুৰ	-7000
▁বুজাবলৈ	-7001
▁বুৰঞ্জী	-7002
▁ব্যৱধান	-7003
▁ভৌগোলিক	-7004
▁মহাদাজী	-7005
▁মাজভাগত	-7006
▁মুখার্জ	-7007
▁মুহূৰ্ত	-7008
▁মেৰামতি	-7009
▁শৃংখলাৰ	-7010
▁শেষবাৰৰ	-7011
▁শ্ৰদ্ধা	-7012
▁সংগ্ৰাম	-7013
▁সংস্থাৰ	-7014
▁সংৰক্ষণ	-7015
▁সত্যজিৎ	-7016
▁সন্মুখৰ	-7017
▁সম্পাদক	-7018
▁সালসলনি	-7019
▁সুকীয়া	-7020
▁সেইবাবে	-7021
▁সোঁফালে	-7022
▁স্থাপনৰ	-7023
▁স্বামীক	-7024
▁হেম্বেল	-7025
▁ৰাজ্যকৰ	-7026
▁ৰিচাৰ্ড	-7027
্রান্তীয়	-7028
▁আশীৰ্বাদ	-7029
▁ইউনিয়নৰ	-7030
▁উইলিয়াম	-7031
▁উপত্যকাৰ	-7032
▁উপদেষ্টা	-7033
▁কনজাংটিভ	-7034
▁কমাণ্ডাৰ	-7035
▁কূটনৈতিক	-7036
▁কেন্দ্ৰী	-7037
▁ক্ৰিকেটৰ	-7038
▁খুৰ্ৰামে	-7039
▁গোৱালিয়	-7040
▁ছোৱালীজন	-7041
▁জাৰ্মানী	-7042
▁জৱাহৰলাল	-7043
▁নাৰায়ণক	-7044
▁নেতাসকলৰ	-7045
▁নেতৃত্বৰ	-7046
▁নৱেম্বৰৰ	-7047
▁পদক্ষেপৰ	-7048
▁পূৰ্ণিমা	-7049
▁মূল্যৱান	-7050
▁মোগলসকলে	-7051
▁মোগলসকলৰ	-7052
▁যুঁজিছিল	-7053
▁সংক্ৰমণৰ	-7054
▁সংগ্ৰামৰ	-7055
▁সন্ধিয়া	-7056
▁সময়খিনি	-7057
▁সামগ্ৰিক	-7058
▁সেউজীয়া	-7059
▁সোনকালেই	-7060
▁ৱেবছাইটৰ	-7061
▁অলিম্পিকত	-7062
▁আগবঢ়োৱাৰ	-7063
▁আন্তঃগাঁথ	-7064
▁আম্বেদকাৰ	-7065
▁এলাহাবাদত	-7066
▁গুলীচালনা	-7067
▁চতুৰ্থাংশ	-7068
▁দায়িত্বত	-7069
▁নিষেধাজ্ঞ	-7070
▁নিৰ্দেশনা	-7071
▁পাৰস্পৰিক	-7072
▁প্ৰযুক্তি	-7073
▁পৰিৱৰ্তনৰ	-7074
▁বিচ্ছিন্ন	-7075
▁বিশ্বজুৰি	-7076
▁বেডমিণ্টন	-7077
▁মহিলাসকলে	-7078
▁মালায়ালম	-7079
▁মুখপাত্ৰই	-7080
▁সঁচাকৈয়ে	-7081
▁সমান্তৰাল	-7082
▁সমালোচনাৰ	-7083
▁স্বতন্ত্ৰ	-7084
▁ৰাজ্যপালৰ	-7085
▁ৰাজ্যসভাৰ	-7086
▁ৰাজ্যাভিষ	-7087
▁ৰাসায়নিক	-7088
▁আলাউদ্দিনক	-7089
▁উপাদানসমূহ	-7090
▁কেইবাগৰাকী	-7091
▁গাভাস্কাৰে	-7092
▁চিত্ৰগ্ৰহণ	-7093
▁চিনাক্তকৰণ	-7094
▁জনপ্ৰিয়তা	-7095
▁জাহাঙ্গীৰে	-7096
▁নাগালেণ্ডৰ	-7097
▁নোহোৱালৈকে	-7098
▁পৃথ্বীৰাজা	-7099
▁প্রতিস্থান	-7100
▁প্ৰথমগৰাকী	-7101
▁পৰ্বতমালাৰ	-7102
▁বিষয়বস্তু	-7103
▁ব্যক্তিত্ব	-7104
▁ভূখণ্ডসমূহ	-7105
▁মাৰাঠাসকলক	-7106
▁শৃংগেৰীয়ে	-7107
▁সম্ভ্রান্ত	-7108
▁সাধাৰণভাৱে	-7109
▁ৰক্তক্ষৰণৰ	-7110
▁ৰাজ্যসমূহৰ	-7111
▁উদ্যোগীসকলৰ	-7112
▁চলচ্চিত্ৰতো	-7113
▁টুৰ্ণামেণ্ট	-7114
▁শ্বাহজাহানৰ	-7115
▁সন্ত্ৰাসবাদ	-7116
▁সাৰ্বভৌমত্ব	-7117
▁সেনাবাহিনীক	-7118
▁অষ্ট্ৰেলিয়া	-7119
▁উত্তৰাধিকাৰৰ	-7120
▁গ্ৰীষ্মকালীন	-7121
▁জালালউদ্দিনৰ	-7122
▁জিমনাষ্টিক্স	-7123
▁দাক্ষিণাত্যৰ	-7124
▁ধৰ্মনিৰপেক্ষ	-7125
▁প্ৰত্যাখ্যান	-7126
▁বিশ্বাসযোগ্য	-7127
▁পৰম্পৰাগতভাৱে	-7128
▁স্বত্বাধিকাৰীৰ	-7129
অন	-7130
ইচ	-7131
ইড	-7132
এক	-7133
এড	-7134
খত	-7135
ঘৰ	-7136
জক	-7137
জ্	-7138
ণা	-7139
দৌ	-7140
ধো	-7141
ীম	-7142
ুণ	-7143
ৈৰ	-7144
ৌষ	-7145
০৩	-7146
২১	-7147
৪০	-7148
৪৮	-7149
৬২	-7150
৭২	-7151
৭৫	-7152
৯৮	-7153
৯৯	-7154
ৱন	-7155
ংগা	-7156
ংগু	-7157
অনু	-7158
কুশ	-7159
চীন	-7160
ছনৰ	-7161
ছোঁ	-7162
জাই	-7163
জান	-7164
জেন	-7165
ট্ৰ	-7166
ঠাৰ	-7167
ডিএ	-7168
তুৰ	-7169
থিভ	-7170
দলৰ	-7171
নাল	-7172
নেগ	-7173
নেছ	-7174
পথৰ	-7175
পান	-7176
পৰা	-7177
ফলৰ	-7178
ফাল	-7179
ফিৰ	-7180
বাগ	-7181
বেট	-7182
বেত	-7183
বেল	-7184
বেৰ	-7185
ভাই	-7186
ভিড	-7187
ভোজ	-7188
মছত	-7189
মূৰ	-7190
যতি	-7191
লাম	-7192
লেও	-7193
শতক	-7194
শ্ল	-7195
স্ৰ	-7196
হীদ	-7197
হৰা	-7198
াঁজ	-7199
াংক	-7200
াউড	-7201
াতা	-7202
াভা	-7203
ামে	-7204
াসী	-7205
িচন	-7206
িটৰ	-7207
িতো	-7208
িমক	-7209
িলৰ	-7210
ীড়	-7211
ীপৰ	-7212
ুডু	-7213
ুৱন	-7214
ৃঢ়	-7215
োচৰ	-7216
্কা	-7217
্বে	-7218
্যই	-7219
্যব	-7220
ৰোচ	-7221
ৰ্ছ	-7222
ৱাজ	-7223
▁অদ	-7224
▁আঙ	-7225
▁ইছ	-7226
▁ওৰ	-7227
▁খো	-7228
▁গৰ	-7229
▁জৌ	-7230
▁তপ	-7231
▁থে	-7232
▁থৈ	-7233
▁নু	-7234
▁পচ	-7235
▁পণ	-7236
▁পর	-7237
▁ফি	-7238
▁ফৈ	-7239
▁বর	-7240
▁ভল	-7241
▁মৃ	-7242
▁লো	-7243
▁৬৫	-7244
▁৯০	-7245
▁ৰৈ	-7246
▁ৱা	-7247
ঁৰাল	-7248
ংকাত	-7249
উঞ্চ	-7250
কতাত	-7251
কাৰত	-7252
ক্টৰ	-7253
গঞ্জ	-7254
চবুক	-7255
চিএএ	-7256
চ্ছে	-7257
ছেৰে	-7258
ঞ্জি	-7259
টনাত	-7260
ডাৰৰ	-7261
ণিকা	-7262
ণ্ঠন	-7263
ণ্ডত	-7264
তিনি	-7265
দাদৰ	-7266
নন্দ	-7267
ন্না	-7268
পতিৰ	-7269
বন্দ	-7270
বাণী	-7271
বিধি	-7272
বোৰো	-7273
ব্যৱ	-7274
ভাষা	-7275
ম্বন	-7276
ম্মু	-7277
য়নত	-7278
র্তন	-7279
শাসন	-7280
স্তৰ	-7281
হাৰে	-7282
াকাং	-7283
াবাই	-7284
াবিক	-7285
ামটো	-7286
াস্প	-7287
াৰাক	-7288
াৰ্ট	-7289
াৱান	-7290
িক্য	-7291
িগেড	-7292
িনেল	-7293
িলিং	-7294
িৰতা	-7295
ীকৰণ	-7296
ীসকল	-7297
ীৱিত	-7298
ুচিত	-7299
ুটিট	-7300
ুমুখ	-7301
ুৱেল	-7302
েৰীত	-7303
োঁতে	-7304
োড়শ	-7305
োল্ল	-7306
ৌষধি	-7307
্নাই	-7308
্মাত	-7309
্রিম	-7310
্ৰমৰ	-7311
্ৰীণ	-7312
ৰুৱে	-7313
ৰ্ডৰ	-7314
ৱলীৰ	-7315
▁অনি	-7316
▁অৱৰ	-7317
▁আইচ	-7318
▁ইলট	-7319
▁ইলে	-7320
▁উৰা	-7321
▁উৰ্	-7322
▁কংক	-7323
▁কাগ	-7324
▁কুশ	-7325
▁কেশ	-7326
▁কোঠ	-7327
▁খেত	-7328
▁চুফ	-7329
▁ছাছ	-7330
▁জুৰ	-7331
▁জৰী	-7332
▁তিন	-7333
▁তিল	-7334
▁দাত	-7335
▁দাল	-7336
▁দিউ	-7337
▁দিগ	-7338
▁দেহ	-7339
▁ধনু	-7340
▁নাভ	-7341
▁নাল	-7342
▁নিশ	-7343
▁নোপ	-7344
▁পতন	-7345
▁পাম	-7346
▁পূজ	-7347
▁ফাই	-7348
▁বড়	-7349
▁বনৰ	-7350
▁বিস	-7351
▁বুট	-7352
▁বেই	-7353
▁বৈষ	-7354
▁ব্র	-7355
▁ভলী	-7356
▁ভাঙ	-7357
▁ভাত	-7358
▁ভূত	-7359
▁মনে	-7360
▁মেই	-7361
▁মোত	-7362
▁মৰু	-7363
▁যতন	-7364
▁যান	-7365
▁শিৰ	-7366
▁শুভ	-7367
▁শৰণ	-7368
▁সমৰ	-7369
▁সুগ	-7370
▁সুম	-7371
▁হিছ	-7372
▁হিল	-7373
▁১১৪	-7374
▁১৫৩	-7375
▁১৬২	-7376
▁৪০০	-7377
▁৫০০	-7378
▁ৰংগ	-7379
▁ৰবি	-7380
▁ৰাৱ	-7381
▁ৰোড	-7382
▁ৰোধ	-7383
▁ৰোশ	-7384
▁ৱাই	-7385
ইয়াৰ	-7386
কাৰ্য	-7387
ক্তিক	-7388
গ্ৰাফ	-7389
চাৰীৰ	-7390
ছোৱাল	-7391
জন্তু	-7392
জিকেল	-7393
জীৱনী	-7394
দৰ্শক	-7395
ধাৰাৰ	-7396
নিয়া	-7397
নীয়া	-7398
পিয়া	-7399
প্টাৰ	-7400
বাৰুদ	-7401
ভূমিত	-7402
মণ্ডল	-7403
মুল্ক	-7404
লগিৰি	-7405
সাম্য	-7406
হত্যা	-7407
াটোৱে	-7408
ানন্দ	-7409
াবিধো	-7410
ায়েন	-7411
াৰিঙৰ	-7412
িনিটি	-7413
িপত্ৰ	-7414
িয়াক	-7415
িশালী	-7416
োপসাগ	-7417
্য়য়	-7418
্যাণৰ	-7419
্যোতি	-7420
্ৰামৰ	-7421
ৰীয়া	-7422
ৰ্জাৰ	-7423
ৰ্ধনৰ	-7424
ৰ্পিত	-7425
▁অপেচ	-7426
▁অপৰি	-7427
▁অভূত	-7428
▁অহিং	-7429
▁অৰুণ	-7430
▁অৱগত	-7431
▁আঁৰৰ	-7432
▁আগ্র	-7433
▁আগৰত	-7434
▁আধ্য	-7435
▁আপ্প	-7436
▁আমীৰ	-7437
▁আয়ৰ	-7438
▁আলীক	-7439
▁আলোক	-7440
▁আল্ল	-7441
▁আহমদ	-7442
▁আৰ্ক	-7443
▁আৱৰণ	-7444
▁ইজনে	-7445
▁উপপত	-7446
▁এটেক	-7447
▁এমএছ	-7448
▁কাটি	-7449
▁কাৰু	-7450
▁কিনি	-7451
▁কৃষক	-7452
▁ক্ৰছ	-7453
▁খাচী	-7454
▁খেয়	-7455
▁খৰাং	-7456
▁গণেশ	-7457
▁গধুৰ	-7458
▁গল্ফ	-7459
▁ঘোচা	-7460
▁ঘৰতে	-7461
▁চকুপ	-7462
▁চলিব	-7463
▁চিটি	-7464
▁চেৰা	-7465
▁ছুৰী	-7466
▁ছেকে	-7467
▁জুইৰ	-7468
▁জ্বৰ	-7469
▁টোকা	-7470
▁ডকাই	-7471
▁ডাউন	-7472
▁ডায়	-7473
▁তাৰে	-7474
▁থিৰু	-7475
▁দাভা	-7476
▁দাসৰ	-7477
▁দেৱক	-7478
▁ধাৰণ	-7479
▁ধাৰা	-7480
▁নগৰৰ	-7481
▁নলীৰ	-7482
▁নাকচ	-7483
▁নাগা	-7484
▁নিৰু	-7485
▁পালি	-7486
▁পূবে	-7487
▁পূবৰ	-7488
▁ফ্ৰে	-7489
▁বাঁহ	-7490
▁বাসগ	-7491
▁বাৰি	-7492
▁বিহা	-7493
▁বেংক	-7494
▁বেৰি	-7495
▁মচলা	-7496
▁মাংগ	-7497
▁মাইল	-7498
▁মাকৰ	-7499
▁মায়	-7500
▁মাৰে	-7501
▁মিউজ	-7502
▁মিডল	-7503
▁মেইন	-7504
▁মৰিচ	-7505
▁লালক	-7506
▁শংকৰ	-7507
▁শল্য	-7508
▁শিকা	-7509
▁শিলৰ	-7510
▁শুনা	-7511
▁শুনি	-7512
▁শ্বক	-7513
▁সকলৰ	-7514
▁সজাগ	-7515
▁সত্ত	-7516
▁সাধু	-7517
▁সাপে	-7518
▁সাহস	-7519
▁সুৰু	-7520
▁সুৰৰ	-7521
▁সোণৰ	-7522
▁হেমা	-7523
▁১২টা	-7524
▁১৬৬৬	-7525
▁১৭৭২	-7526
▁১৯১৭	-7527
▁১৯২৬	-7528
▁১৯২৯	-7529
▁১৯৩২	-7530
▁১৯৩৬	-7531
▁১৯৪০	-7532
▁১৯৪২	-7533
▁১৯৫৬	-7534
▁১৯৭২	-7535
▁১৯৮৯	-7536
▁১৯৯৩	-7537
▁ৰচিত	-7538
▁ৰাজপ	-7539
▁ৰানত	-7540
▁ৱাৰা	-7541
কাহিনী	-7542
ঞ্জস্য	-7543
তামূলক	-7544
ধ্যক্ষ	-7545
নন্দিন	-7546
পূৰ্বক	-7547
প্ৰধান	-7548
ব্যাপী	-7549
সজ্জিত	-7550
স্বৰূপ	-7551
াত্মিক	-7552
াসংগিক	-7553
িমেণ্ট	-7554
িষ্টাৰ	-7555
েক্টিভ	-7556
েৰিয়া	-7557
▁অপমান	-7558
▁অভাৱৰ	-7559
▁অশোকক	-7560
▁অষ্টম	-7561
▁অৰ্পণ	-7562
▁আইনখন	-7563
▁আগুৰি	-7564
▁আগ্রহ	-7565
▁আদায়	-7566
▁আদৰণি	-7567
▁আৱিষ্	-7568
▁আৱেদন	-7569
▁ইহঁতে	-7570
▁উৎকোচ	-7571
▁এইটোও	-7572
▁এলানি	-7573
▁কণ্ঠৰ	-7574
▁কয়লা	-7575
▁কাবুল	-7576
▁কাৰ্প	-7577
▁কৃষিৰ	-7578
▁কেইখন	-7579
▁ক্লিন	-7580
▁খেলখন	-7581
▁খেলিব	-7582
▁খোদিত	-7583
▁খোৱাৰ	-7584
▁গোল্ড	-7585
▁ছাৰ্চ	-7586
▁ছিজনত	-7587
▁ছিজনৰ	-7588
▁জগতলৈ	-7589
▁জম্মু	-7590
▁জীৱনী	-7591
▁টেম্প	-7592
▁ডেলিভ	-7593
▁তালমে	-7594
▁তালুক	-7595
▁তোমাৰ	-7596
▁দলটোত	-7597
▁দায়ী	-7598
▁দুষ্ট	-7599
▁দুৰ্ব	-7600
▁নিউয়	-7601
▁নিপুণ	-7602
▁নিৰূপ	-7603
▁নিৰ্য	-7604
▁পক্ষা	-7605
▁পদবীৰ	-7606
▁পাৰাম	-7607
▁পাৰিষ	-7608
▁পাৱাৰ	-7609
▁পুথিভ	-7610
▁পুৰাণ	-7611
▁প্রাণ	-7612
▁ফুটেজ	-7613
▁বছৰেই	-7614
▁বসন্ত	-7615
▁বিধ্ব	-7616
▁বিধৱা	-7617
▁বিপ্ল	-7618
▁বিশৃং	-7619
▁বৃত্ত	-7620
▁বেগমৰ	-7621
▁বেনাৰ	-7622
▁বৈষ্ণ	-7623
▁ভায়ে	-7624
▁ভাস্ক	-7625
▁ভূমিত	-7626
▁ভ্রমণ	-7627
▁মনোৰম	-7628
▁মাণ্ড	-7629
▁মাদাৰ	-7630
▁মানুল	-7631
▁মুৰাদ	-7632
▁মূৰটো	-7633
▁মৌখিক	-7634
▁মৌর্য	-7635
▁যিখনে	-7636
▁শাখাৰ	-7637
▁শাসকৰ	-7638
▁শিকোহ	-7639
▁ষোড়শ	-7640
▁ষ্টকৰ	-7641
▁সজোৱা	-7642
▁সমবেত	-7643
▁সময়ে	-7644
▁সমাধি	-7645
▁সামূহ	-7646
▁সীমাৰ	-7647
▁সুনাম	-7648
▁স্তনৰ	-7649
▁স্মৰণ	-7650
▁সৰবৰা	-7651
▁হাতলৈ	-7652
▁হেলিক	-7653
▁ৰঞ্জী	-7654
▁ৰহস্য	-7655
▁ৰাঘোজ	-7656
▁ৰায়ক	-7657
প্রাপ্ত	-7658
বিশ্বাস	-7659
▁অজ্ঞাত	-7660
▁অনুকূল	-7661
▁অশোকবদ	-7662
▁অৰণ্যৰ	-7663
▁আগ্ৰাৰ	-7664
▁আন্দাম	-7665
▁আৱাসিক	-7666
▁ইঞ্জিন	-7667
▁ইণ্ডিজ	-7668
▁ইলেক্ট	-7669
▁উত্থান	-7670
▁উন্নতি	-7671
▁উৎসৰ্গ	-7672
▁এইবোৰৰ	-7673
▁এছিয়া	-7674
▁এলেকাৰ	-7675
▁কন্যাৰ	-7676
▁কলকাতা	-7677
▁কান্না	-7678
▁কিশোৰৰ	-7679
▁খাদ্যৰ	-7680
▁গাঁথনি	-7681
▁গায়কৰ	-7682
▁ঘটনাটো	-7683
▁ঘাইপথত	-7684
▁ঘোঁৰাৰ	-7685
▁চাৰিজন	-7686
▁ছিনেটৰ	-7687
▁ছেলিমে	-7688
▁জুজুটছ	-7689
▁টুইটাৰ	-7690
▁ঠাইখনৰ	-7691
▁তালমকো	-7692
▁তেতিয়	-7693
▁দাতব্য	-7694
▁দুবছৰৰ	-7695
▁দেশীয়	-7696
▁দেৱিকা	-7697
▁দ্বাদশ	-7698
▁ধ্ৰুতম	-7699
▁ধৰিবলৈ	-7700
▁নেহৰুক	-7701
▁পল্লৱী	-7702
▁পাঁচখন	-7703
▁পাণ্ডৱ	-7704
▁পানীয়	-7705
▁প্রকাৰ	-7706
▁পৰাজয়	-7707
▁পৰিক্ষ	-7708
▁পৰিসৰৰ	-7709
▁ফুটবলৰ	-7710
▁বঁটাকে	-7711
▁বনৌষধি	-7712
▁বাগিচা	-7713
▁বাতবিষ	-7714
▁বাস্তৱ	-7715
▁বিধেয়	-7716
▁বিপৰীত	-7717
▁বিভাগৰ	-7718
▁বিশেষণ	-7719
▁বিষয়ক	-7720
▁বিৰতিৰ	-7721
▁ব্যতিক	-7722
▁ভগৱানৰ	-7723
▁ভোঁসলে	-7724
▁ভোটদান	-7725
▁মনোভাৱ	-7726
▁মহিলাই	-7727
▁মাংগাল	-7728
▁যাত্রা	-7729
▁যিবোৰৰ	-7730
▁লাভজনক	-7731
▁লুণ্ঠন	-7732
▁শিশুৱে	-7733
▁সংকলিত	-7734
▁সঙ্গীত	-7735
▁সতীয়া	-7736
▁সমর্থন	-7737
▁সহায়ৰ	-7738
▁সামৰ্থ	-7739
▁সিন্ধু	-7740
▁সুদৃঢ়	-7741
▁হত্যাক	-7742
▁হাভেলি	-7743
▁অগ্ৰগতি	-7744
▁অধিকাৰৰ	-7745
▁অস্পষ্ট	-7746
▁অৱস্থান	-7747
▁আগবঢ়াই	-7748
▁ইত্যাদি	-7749
▁উজ্জ্বল	-7750
▁উত্তেজন	-7751
▁উদয়পুৰ	-7752
▁উপত্যকা	-7753
▁উপাদানৰ	-7754
▁উপার্জন	-7755
▁উপেক্ষা	-7756
▁এছবেষ্ট	-7757
▁এছিয়ান	-7758
▁এনেধৰণৰ	-7759
▁ঐতিহ্যৰ	-7760
▁কর্মজীৱ	-7761
▁কলকাতাত	-7762
▁কল্যাণৰ	-7763
▁কৃত্রিম	-7764
▁খেলপথাৰ	-7765
▁গাড়ীখন	-7766
▁ঘটাইছিল	-7767
▁চাণক্যই	-7768
▁জিম্মাত	-7769
▁ঠাইখিনি	-7770
▁ডাকযোগে	-7771
▁ডিফেঞ্চ	-7772
▁তাৎক্ষণ	-7773
▁তাৎপৰ্য	-7774
▁দম্পতীহ	-7775
▁ধাৰণাটো	-7776
▁নির্দেশ	-7777
▁নিষ্কাশ	-7778
▁নিৰক্ষৰ	-7779
▁নিৰন্তৰ	-7780
▁নিৰ্বাস	-7781
▁নোৱাৰিব	-7782
▁পঞ্জাৱত	-7783
▁পঢ়িবলৈ	-7784
▁পিছদিনা	-7785
▁পিতৃয়ে	-7786
▁প্লাষ্ট	-7787
▁প্ৰদেশত	-7788
▁প্ৰৱণতা	-7789
▁বনৰীয়া	-7790
▁বিতৰ্কৰ	-7791
▁বিশ্বতে	-7792
▁বৃহত্তম	-7793
▁বোম্বাই	-7794
▁ভাইৰাছৰ	-7795
▁ভাণ্ডাৰ	-7796
▁ভিক্টোৰ	-7797
▁ভীমসিংহ	-7798
▁ভূখণ্ডত	-7799
▁ভৱিষ্যত	-7800
▁মধ্যস্থ	-7801
▁মহম্মদে	-7802
▁মহোৎসৱত	-7803
▁মাধৱৰাও	-7804
▁মাস্তুল	-7805
▁মাৰাঠাৰ	-7806
▁মিত্ৰতা	-7807
▁মুক্তিৰ	-7808
▁মৃত্যুত	-7809
▁মেক্সিক	-7810
▁মেঘালয়	-7811
▁যুটীয়া	-7812
▁লিখিবলৈ	-7813
▁লোকসভাত	-7814
▁শান্তিৰ	-7815
▁শৃংখলাত	-7816
▁শ্বাহুৰ	-7817
▁শ্ৰেণীত	-7818
▁শৰণাৰ্থ	-7819
▁সঁহাৰিৰ	-7820
▁সংকুচিত	-7821
▁সংখ্যাৰ	-7822
▁সংগ্ৰহৰ	-7823
▁সংমিশ্ৰ	-7824
▁সংস্কাৰ	-7825
▁সন্দেহত	-7826
▁সন্ধানত	-7827
▁সমালোচক	-7828
▁সমৰ্পিত	-7829
▁সাহায্য	-7830
▁সুন্দৰী	-7831
▁স্থানলৈ	-7832
▁হিমালয়	-7833
▁ৰাজসভাত	-7834
▁অক্টোবৰৰ	-7835
▁অঞ্চলবোৰ	-7836
▁অধিবক্তা	-7837
▁অস্তিত্ব	-7838
▁অস্থায়ী	-7839
▁আধিপত্যৰ	-7840
▁আনুমানিক	-7841
▁আন্দামান	-7842
▁উগ্ৰপন্থ	-7843
▁উৰিষ্যাৰ	-7844
▁ঔৰঙ্গজেব	-7845
▁খুৰ্ৰামক	-7846
▁খুৰ্ৰামৰ	-7847
▁চাণ্ডেলা	-7848
▁চেলছিয়া	-7849
▁চোৱাচিতা	-7850
▁চৰিত্ৰটো	-7851
▁ছাৰ্ভাৰে	-7852
▁তথ্যখিনি	-7853
▁তৃতীয়টো	-7854
▁তেতিয়াও	-7855
▁ত্ৰিপুৰা	-7856
▁থিয়েটাৰ	-7857
▁দুয়োজনে	-7858
▁দেশদ্রোহ	-7859
▁দৈনন্দিন	-7860
▁নিৰপেক্ষ	-7861
▁নেতাসকলক	-7862
▁নোৱাৰিলে	-7863
▁পক্ষাঘাত	-7864
▁পদ্মাৱতী	-7865
▁পদ্মিনীক	-7866
▁পেছাদাৰী	-7867
▁প্রস্তাৱ	-7868
▁প্ৰব্ৰজন	-7869
▁প্ৰশাসনে	-7870
▁প্ৰৱৰ্তন	-7871
▁পৰামৰ্শৰ	-7872
▁পৰীক্ষাত	-7873
▁পৰ্যাপ্ত	-7874
▁বলপূৰ্বক	-7875
▁বহিষ্কাৰ	-7876
▁বিচাৰিছে	-7877
▁বিজ্ঞাপন	-7878
▁বিতৰ্কিত	-7879
▁বিধানসভা	-7880
▁বিশ্বকাপ	-7881
▁ব্যক্তিক	-7882
▁ব্যায়াম	-7883
▁ভাৰসাম্য	-7884
▁মানচিত্ৰ	-7885
▁মাৰাত্মক	-7886
▁মেঘালয়ৰ	-7887
▁লক্ষ্মীক	-7888
▁শিশুসকলে	-7889
▁শিশুসকলৰ	-7890
▁শেষৰফালে	-7891
▁সংৰক্ষণৰ	-7892
▁সম্পৰ্কৰ	-7893
▁স্নায়ুৰ	-7894
▁হিমালয়ৰ	-7895
▁ৰবীন্দ্ৰ	-7896
▁ৰাজধানীৰ	-7897
▁ৰাষ্ট্ৰৰ	-7898
▁অঞ্চলসমূহ	-7899
▁অপেচাদাৰী	-7900
▁অভূতপূৰ্ব	-7901
▁আগবঢ়াইছে	-7902
▁আপোনালোকে	-7903
▁উদ্দেশ্যে	-7904
▁উপস্থিতিৰ	-7905
▁এথলেটিক্স	-7906
▁ঔৰঙ্গজেবৰ	-7907
▁কান্নাড়া	-7908
▁কাহিনীবোৰ	-7909
▁কাৰ্যকলাপ	-7910
▁কেইবাবিধো	-7911
▁কেলেণ্ডাৰ	-7912
▁ক্ষেত্ৰতে	-7913
▁গাইকোৱাড়	-7914
▁গাভাস্কাৰ	-7915
▁চাৰিগৰাকী	-7916
▁চোৰাংচোৱা	-7917
▁জলপ্ৰপাতৰ	-7918
▁নিৰ্ভৰশীল	-7919
▁পাৰিবাৰিক	-7920
▁প্রশিক্ষণ	-7921
▁প্ৰতাপৰাও	-7922
▁প্ৰদৰ্শিত	-7923
▁পৰিয়ালটো	-7924
▁পৰিৱৰ্তিত	-7925
▁পৰ্বতাম্ম	-7926
▁বাংগালোৰত	-7927
▁বাংগালোৰৰ	-7928
▁বাইচাইকেল	-7929
▁বাজপেয়ীৰ	-7930
▁বৈদ্যুতিক	-7931
▁মহিলাসকলৰ	-7932
▁মুখার্জীৰ	-7933
▁শ্বেয়াৰৰ	-7934
▁সংক্ষিপ্ত	-7935
▁সদস্যসকলে	-7936
▁সম্প্ৰচাৰ	-7937
▁সম্রাজ্ঞী	-7938
▁সামঞ্জস্য	-7939
▁ৰক্তক্ষৰণ	-7940
▁ৰামচন্দ্ৰ	-7941
▁ৰেজিমেণ্ট	-7942
▁ৰোমাঞ্চকৰ	-7943
▁অঞ্চলসমূহত	-7944
▁আগবাঢ়িছিল	-7945
▁আত্মপ্রকাশ	-7946
▁আধ্যাত্মিক	-7947
▁এপেণ্ডিক্স	-7948
▁কাৰ্যসূচীৰ	-7949
▁গাভাস্কাৰক	-7950
▁গুলীচালনাৰ	-7951
▁গ্ৰাহকসকলে	-7952
▁ছেৰিঙ্গাপট	-7953
▁জলপ্রপাতটো	-7954
▁দ্বিতীয়খন	-7955
▁নিষেধাজ্ঞা	-7956
▁পূৰ্বপুৰুষ	-7957
▁প্রতিষ্ঠান	-7958
▁প্রতিষ্ঠিত	-7959
▁বিন্দুসাৰে	-7960
▁ব্যৱসায়টো	-7961
▁ব্যৱস্থাপন	-7962
▁লেফটেনেণ্ট	-7963
▁শল্যচিকিৎস	-7964
▁শিল্পীসকলে	-7965
▁শ্বাহজাহান	-7966
▁ষড়যন্ত্ৰৰ	-7967
▁সংস্পৰ্শলৈ	-7968
▁সম্বন্ধীয়	-7969
▁সাম্ৰাজ্যত	-7970
▁স্পষ্টভাৱে	-7971
▁স্বেচ্ছাসে	-7972
▁হেলিকপ্টাৰ	-7973
▁ৰাজপুতসকলে	-7974
▁আঘাতপ্ৰাপ্ত	-7975
▁আন্তৰ্জাতিক	-7976
▁এছেঞ্চিয়েল	-7977
▁কেইবাগৰাকীও	-7978
▁কেন্দ্ৰীভূত	-7979
▁গ্ৰীষ্মকালত	-7980
▁চলচ্চিত্ৰলৈ	-7981
▁দীৰ্ঘম্যাদী	-7982
▁নিউজিলেণ্ডৰ	-7983
▁নিয়ন্ত্ৰিত	-7984
▁নেতৃত্বাধীন	-7985
▁পূৰ্বানুমান	-7986
▁প্রয়োজনীয়	-7987
▁প্ৰণালীবদ্ধ	-7988
▁প্ৰত্যুত্তৰ	-7989
▁বিশ্বযুদ্ধত	-7990
▁ব্যক্তিসকলৰ	-7991
▁ব্যৱসায়টোৰ	-7992
▁মুছলমানসকলৰ	-7993
▁সমৃদ্ধিশালী	-7994
▁সামগ্রীসমূহ	-7995
▁চন্দ্ৰগুপ্তৰ	-7996
▁জাতীয়তাবাদী	-7997
▁জালালুদ্দিনক	-7998
▁সন্ত্ৰাসবাদী	-7999
▁সামগ্ৰীসমূহৰ	-8000
▁বাণিজ্যিকভাৱে	-8001
▁যুক্তৰাষ্ট্ৰত	-8002
▁সমান্তৰালভাৱে	-8003
▁সেনাবাহিনীয়ে	-8004
▁স্বত্বাধিকাৰী	-8005
▁প্ৰতিদ্বন্দিতা	-8006
▁প্ৰয়োজনীয়তাৰ	-8007
▁পৰিস্থিতিতন্ত্ৰ	-8008
অফ	-8009
আধ	-8010
টত	-8011
দূ	-8012
নো	-8013
পো	-8014
বু	-8015
বৈ	-8016
শে	-8017
শৈ	-8018
ীড	-8019
েঁ	-8020
ৌজ	-8021
০ত	-8022
১০	-8023
১৭	-8024
৫০	-8025
৮০	-8026
’।	-8027
আইএ	-8028
ইচি	-8029
এএছ	-8030
কাঠ	-8031
কিল	-8032
কীৰ	-8033
খিত	-8034
গলে	-8035
গিত	-8036
গুন	-8037
গোট	-8038
গৰত	-8039
ঙাই	-8040
চীত	-8041
চুব	-8042
চেৰ	-8043
ছাত	-8044
ছিং	-8045
ছিছ	-8046
জাফ	-8047
জুৰ	-8048
ঞ্ছ	-8049
টোও	-8050
ডাই	-8051
ডুক	-8052
তেহ	-8053
থাম	-8054
থাল	-8055
দিশ	-8056
নবি	-8057
নেল	-8058
প্প	-8059
ফাই	-8060
ফান	-8061
ফুল	-8062
বছৰ	-8063
বিএ	-8064
বৰণ	-8065
ভাল	-8066
ভিক	-8067
মহল	-8068
মিন	-8069
মুঠ	-8070
র্ন	-8071
লোল	-8072
শৃং	-8073
ষাৰ	-8074
হয়	-8075
হাত	-8076
াগে	-8077
াদত	-8078
াদন	-8079
াদু	-8080
াশা	-8081
িকক	-8082
িকল	-8083
িছা	-8084
িতে	-8085
িভে	-8086
িমি	-8087
ীতা	-8088
ুকী	-8089
ুগু	-8090
ুতৰ	-8091
ুৰত	-8092
েদি	-8093
োধি	-8094
োপে	-8095
্কে	-8096
্চন	-8097
্ডি	-8098
্নে	-8099
্ফৰ	-8100
্বি	-8101
্যন	-8102
৩খন	-8103
ৰাত	-8104
ৰিখ	-8105
ৰিদ	-8106
ৰ্খ	-8107
ৰ্দ	-8108
ৱীৰ	-8109
ৱেল	-8110
ৱেৰ	-8111
▁অছ	-8112
▁অত	-8113
▁আখ	-8114
▁ইৰ	-8115
▁চৈ	-8116
▁ছা	-8117
▁জপ	-8118
▁জা	-8119
▁দখ	-8120
▁নম	-8121
▁নল	-8122
▁পছ	-8123
▁লং	-8124
▁লক	-8125
▁সক	-8126
▁হৰ	-8127
▁১ম	-8128
▁২৯	-8129
▁৪৯	-8130
▁৫৬	-8131
▁৭৬	-8132
▁৭৯	-8133
▁ৰক	-8134
▁ৰব	-8135
ঁজাৰ	-8136
ংগাৰ	-8137
আইভি	-8138
এক্স	-8139
ওৱাৰ	-8140
কাজৰ	-8141
কেৰে	-8142
খনলৈ	-8143
গলুৰ	-8144
গাঁও	-8145
গোচৰ	-8146
গ্ৰহ	-8147
ঙ্কন	-8148
ঙ্গল	-8149
ছেইল	-8150
জনীন	-8151
জন্ম	-8152
জাতশ	-8153
জিতে	-8154
ঞ্চি	-8155
ঞ্জত	-8156
টাৰৰ	-8157
ণ্টে	-8158
দেশত	-8159
দেৱে	-8160
দ্দী	-8161
ন্সি	-8162
পাতী	-8163
পানী	-8164
পালন	-8165
পালে	-8166
পূবত	-8167
প্তে	-8168
ফাইট	-8169
ফাওঁ	-8170
বিদে	-8171
বৰ্ণ	-8172
বৰ্ষ	-8173
মুখী	-8174
মুছল	-8175
মেনৰ	-8176
মেৰৰ	-8177
য়াক	-8178
য্যৰ	-8179
র্কে	-8180
র্পণ	-8181
র্বৰ	-8182
শনিক	-8183
ষ্টি	-8184
ষ্ঠৰ	-8185
াইডে	-8186
াকৃত	-8187
াক্ক	-8188
াঞ্চ	-8189
াডাখ	-8190
াদেৱ	-8191
ামাৰ	-8192
ালঘু	-8193
ালাম	-8194
াহিক	-8195
াৰজী	-8196
াৰাই	-8197
িকেই	-8198
িকোণ	-8199
িটেল	-8200
িন্স	-8201
িল্ল	-8202
িৰাং	-8203
ীকৃত	-8204
ীত্ব	-8205
ীৰ্ণ	-8206
ুকিৰ	-8207
ুতাৰ	-8208
ুত্ৰ	-8209
ুপদী	-8210
ুলাম	-8211
ুৰিৰ	-8212
েটিক	-8213
েটিন	-8214
েতাৰ	-8215
েৰণা	-8216
োক্ষ	-8217
োগান	-8218
োচনা	-8219
োহিত	-8220
োৱাই	-8221
্কাৰ	-8222
্যতা	-8223
্ৰমে	-8224
ৰতোপ	-8225
ৰ্জন	-8226
ৰ্টত	-8227
ৰ্ধন	-8228
ৱৰ্ড	-8229
▁অগত	-8230
▁আইড	-8231
▁আনক	-8232
▁আনি	-8233
▁আনৰ	-8234
▁আৰব	-8235
▁উঠে	-8236
▁এৰা	-8237
▁কওক	-8238
▁কথক	-8239
▁কনি	-8240
▁কুঁ	-8241
▁কুট	-8242
▁কুৰ	-8243
▁কেপ	-8244
▁খাট	-8245
▁খুচ	-8246
▁খোট	-8247
▁খোল	-8248
▁খ্য	-8249
▁গাত	-8250
▁গাহ	-8251
▁গুড	-8252
▁গেৰ	-8253
▁গোধ	-8254
▁গোম	-8255
▁গৌণ	-8256
▁ঘাত	-8257
▁চেক	-8258
▁চেত	-8259
▁চোৰ	-8260
▁চৰণ	-8261
▁ছদ্	-8262
▁ছাফ	-8263
▁ছেৰ	-8264
▁জাং	-8265
▁জাট	-8266
▁জাভ	-8267
▁জেম	-8268
▁জেল	-8269
▁জোক	-8270
▁টোপ	-8271
▁ঠেক	-8272
▁ডাঠ	-8273
▁ডাব	-8274
▁ডাল	-8275
▁ডিছ	-8276
▁ডিভ	-8277
▁তিব	-8278
▁তেৰ	-8279
▁তেৱ	-8280
▁ত্র	-8281
▁তৰল	-8282
▁দবা	-8283
▁দয়	-8284
▁দাহ	-8285
▁দৃশ	-8286
▁দৰা	-8287
▁নেন	-8288
▁নৈশ	-8289
▁পতা	-8290
▁পলম	-8291
▁পোচ	-8292
▁পোষ	-8293
▁পৰম	-8294
▁বাধ	-8295
▁বীৰ	-8296
▁বোম	-8297
▁ভিজ	-8298
▁ভুম	-8299
▁ভেক	-8300
▁মটৰ	-8301
▁মনৰ	-8302
▁মাগ	-8303
▁মাপ	-8304
▁মিৰ	-8305
▁মুই	-8306
▁মৌল	-8307
▁য়ে	-8308
▁যেত	-8309
▁শাক	-8310
▁শাল	-8311
▁শ্য	-8312
▁সংল	-8313
▁সদন	-8314
▁হওক	-8315
▁হাব	-8316
▁হোট	-8317
▁হোম	-8318
▁১৫৬	-8319
▁৩টা	-8320
▁৩য়	-8321
▁৪টা	-8322
▁৫টা	-8323
▁৬০০	-8324
▁ৰণধ	-8325
▁ৰেফ	-8326
▁ৰোহ	-8327
▁ৱেল	-8328
কাঢ়ি	-8329
কুণ্ঠ	-8330
কুশলী	-8331
ক্ষিক	-8332
গত্যৰ	-8333
চেষ্ট	-8334
জনমান	-8335
ঞ্চোল	-8336
ঞ্জলি	-8337
ণ্ডেল	-8338
তেওঁৰ	-8339
দ্বাৰ	-8340
দ্বীপ	-8341
ধীয়া	-8342
নবিংশ	-8343
নিহিত	-8344
নিৰ্ম	-8345
বাৰ্গ	-8346
বৃত্ত	-8347
ভাজনৰ	-8348
মাস্প	-8349
ম্পেৰ	-8350
শীলতা	-8351
শ্বিন	-8352
শ্বৰী	-8353
শ্বৰৰ	-8354
ষ্টিগ	-8355
সকলকো	-8356
স্তাত	-8357
স্থাৰ	-8358
হেণ্ড	-8359
াকৰণৰ	-8360
াগাৰৰ	-8361
াত্মা	-8362
ান্সৰ	-8363
াবাদত	-8364
াবাদী	-8365
াবোৰে	-8366
াহাৰৰ	-8367
াৰাংশ	-8368
িকালি	-8369
িবৰ্ম	-8370
িয়েৰ	-8371
িল্যা	-8372
িৰতাৰ	-8373
ীয়াৰ	-8374
ুমাৰী	-8375
েচিডে	-8376
ৈয়াম	-8377
োত্তৰ	-8378
্বত্য	-8379
ৰাইনৰ	-8380
ৰাজাই	-8381
ৰাত্ৰ	-8382
ৰাবলৈ	-8383
ৰাৱলী	-8384
ৰিবলৈ	-8385
ৰ্ষণৰ	-8386
▁অন্ন	-8387
▁অপ্ৰ	-8388
▁অৱধৰ	-8389
▁আজীৱ	-8390
▁আতংক	-8391
▁আফিং	-8392
▁আমাক	-8393
▁আলমক	-8394
▁আলাব	-8395
▁আশ্র	-8396
▁উপনৈ	-8397
▁উশাহ	-8398
▁উৰুৱ	-8399
▁এঘাৰ	-8400
▁এজনৰ	-8401
▁এটাক	-8402
▁এৰাই	-8403
▁ওৰফে	-8404
▁ঔষধি	-8405
▁কণ্ড	-8406
▁কর্ত	-8407
▁কাগজ	-8408
▁কেৰে	-8409
▁কৰোৱ	-8410
▁কৰ্প	-8411
▁খান্	-8412
▁খায়	-8413
▁খালে	-8414
▁খিল্	-8415
▁গণ্ড	-8416
▁গহনা	-8417
▁গুহা	-8418
▁গেৰে	-8419
▁গোটে	-8420
▁গোৰা	-8421
▁ঘোৰৰ	-8422
▁চম্ভ	-8423
▁চাউল	-8424
▁চিঠি	-8425
▁চিনি	-8426
▁চুফী	-8427
▁চৌহদ	-8428
▁ছাংগ	-8429
▁ছিজন	-8430
▁ছেমি	-8431
▁জনগো	-8432
▁জয়চ	-8433
▁জলাধ	-8434
▁জানে	-8435
▁জাৰী	-8436
▁টাৱা	-8437
▁টৰণ্	-8438
▁ডিভি	-8439
▁তত্ব	-8440
▁তদাৰ	-8441
▁তোলা	-8442
▁দাঙি	-8443
▁ধন্য	-8444
▁নবাব	-8445
▁নীৰৱ	-8446
▁নৌকা	-8447
▁পঢ়ক	-8448
▁পণ্ড	-8449
▁পথটো	-8450
▁পন্থ	-8451
▁পহৰা	-8452
▁পুঁজ	-8453
▁পুৰা	-8454
▁প্রণ	-8455
▁পৰাও	-8456
▁ফতেহ	-8457
▁বংগত	-8458
▁বদলি	-8459
▁বর্গ	-8460
▁বর্ণ	-8461
▁বর্ষ	-8462
▁বল্ল	-8463
▁বাবা	-8464
▁বাৰা	-8465
▁বাৰ্	-8466
▁বিতং	-8467
▁ভট্ট	-8468
▁ভাটৌ	-8469
▁ভাড়	-8470
▁ভাবে	-8471
▁ভুৱন	-8472
▁মক্ক	-8473
▁মন্ত	-8474
▁মিজো	-8475
▁মিনি	-8476
▁মেলা	-8477
▁যুগল	-8478
▁লিংগ	-8479
▁লেহে	-8480
▁শিৱৰ	-8481
▁শোভা	-8482
▁সভাত	-8483
▁সমলি	-8484
▁সম্ম	-8485
▁সাধন	-8486
▁স্বত	-8487
▁স্মি	-8488
▁হতাশ	-8489
▁হাওঁ	-8490
▁হানি	-8491
▁হাৰা	-8492
▁হিৰো	-8493
▁হ্যে	-8494
▁হৰিণ	-8495
▁১৭৫২	-8496
▁১৭৯৯	-8497
▁১৯৩০	-8498
▁১৯৩৪	-8499
▁১৯৩৭	-8500
▁১৯৪১	-8501
▁১৯৪৫	-8502
▁১৯৪৯	-8503
▁১৯৫৯	-8504
▁১৯৬১	-8505
▁১৯৬৩	-8506
▁ৰক্ষ	-8507
▁ৰখাত	-8508
▁ৰাইট	-8509
▁ৰাণত	-8510
▁ৰুজু	-8511
▁ৰূপক	-8512
উদাহৰণ	-8513
খ্যানৰ	-8514
জন্তুৰ	-8515
নাট্যৰ	-8516
নাস্বৰ	-8517
বোৰতকৈ	-8518
মাত্ৰা	-8519
শক্তিৰ	-8520
শাস্তি	-8521
ষ্টাইল	-8522
স্বামী	-8523
ালোচনা	-8524
িচিয়ে	-8525
িমিটাৰ	-8526
িয়াকৈ	-8527
ীয়াংশ	-8528
ুনীয়া	-8529
েকীয়া	-8530
েশ্যনে	-8531
্ৰেক্ট	-8532
ৰকণিকা	-8533
ৰাজমান	-8534
▁অজিতে	-8535
▁অনিয়	-8536
▁অর্জন	-8537
▁আগ্নে	-8538
▁আচৰণৰ	-8539
▁আলচাৰ	-8540
▁আলুপা	-8541
▁ইমেইল	-8542
▁উপবাস	-8543
▁উপভাষ	-8544
▁উপাসন	-8545
▁উৰ্দু	-8546
▁এমাহৰ	-8547
▁কবিতা	-8548
▁কাঁড়	-8549
▁কাঞ্চ	-8550
▁কানহা	-8551
▁কাষ্ট	-8552
▁কাৰণত	-8553
▁কাৰাত	-8554
▁কাৰাৰ	-8555
▁কিষাণ	-8556
▁কুকুৰ	-8557
▁কুণ্ড	-8558
▁কুম্ভ	-8559
▁কেনুৰ	-8560
▁কেবিন	-8561
▁কোলাৰ	-8562
▁কৰ্মৰ	-8563
▁খিৰিক	-8564
▁খেলাৰ	-8565
▁গাঁতৰ	-8566
▁গোপনে	-8567
▁গোৱাত	-8568
▁গ্ৰেগ	-8569
▁গৱেষণ	-8570
▁ঘণ্টা	-8571
▁ঘুৰিদ	-8572
▁চহৰলৈ	-8573
▁চিকাৰ	-8574
▁চুপাৰ	-8575
▁চেট্ট	-8576
▁ছিকিম	-8577
▁ছিয়া	-8578
▁ছেটাৰ	-8579
▁ছোৱাল	-8580
▁জিষ্ণ	-8581
▁জীৱিত	-8582
▁টাইমছ	-8583
▁টাইমু	-8584
▁টাৰ্ম	-8585
▁ঠাইখন	-8586
▁ঠাকুৰ	-8587
▁ঠিকনা	-8588
▁ডিষ্ট	-8589
▁তালাক	-8590
▁তাৰকা	-8591
▁তীর্থ	-8592
▁থিৰাং	-8593
▁দুলীপ	-8594
▁দুৱাৰ	-8595
▁দূৰৈত	-8596
▁দেখাত	-8597
▁দেৱতা	-8598
▁দৰ্শন	-8599
▁ধৰ্মই	-8600
▁নাইবা	-8601
▁নাওখন	-8602
▁নাছিৰ	-8603
▁পক্ষত	-8604
▁পাকটো	-8605
▁পাপান	-8606
▁পুত্র	-8607
▁পূর্ণ	-8608
▁পূর্ব	-8609
▁পেডেল	-8610
▁পেশীৰ	-8611
▁পোহৰৰ	-8612
▁বংশধৰ	-8613
▁বনভোজ	-8614
▁বন্ধা	-8615
▁বম্বে	-8616
▁বার্ত	-8617
▁বিক্ৰ	-8618
▁বিথাল	-8619
▁বিপদৰ	-8620
▁বিপনী	-8621
▁বীচ্চ	-8622
▁বুজাব	-8623
▁বৈঠকত	-8624
▁ব্লেড	-8625
▁বৰতোপ	-8626
▁ভাতৃৰ	-8627
▁ভাৱেই	-8628
▁ভীমান	-8629
▁মংগোল	-8630
▁মমতাজ	-8631
▁মাংসৰ	-8632
▁মিঠাই	-8633
▁মিলেন	-8634
▁মুগ্ধ	-8635
▁মুজাফ	-8636
▁মুণ্ড	-8637
▁মোদীৰ	-8638
▁যিজনৰ	-8639
▁যিটোৰ	-8640
▁লগোৱা	-8641
▁লাডাখ	-8642
▁লিপিৰ	-8643
▁শতিকা	-8644
▁শাখাত	-8645
▁শাস্ত	-8646
▁শিখৰত	-8647
▁শুকুৰ	-8648
▁শুষ্ক	-8649
▁শৈলীত	-8650
▁শ্বিৰ	-8651
▁শ্বেহ	-8652
▁ষ্টেট	-8653
▁সংকলন	-8654
▁সংশ্ল	-8655
▁সমগ্র	-8656
▁সমযোগ	-8657
▁সমাজত	-8658
▁সিজনৰ	-8659
▁সুপৰি	-8660
▁সূত্ৰ	-8661
▁স্ক্ৰ	-8662
▁স্বয়	-8663
▁হয়নে	-8664
▁হিচাপ	-8665
▁হ্রাস	-8666
▁১০৮টা	-8667
▁১৯৪০ৰ	-8668
▁ৰক্ষণ	-8669
▁ৰচনাৰ	-8670
▁ৰাণীৰ	-8671
▁ৰিচিভ	-8672
▁ৰুটিন	-8673
▁ৰেষ্ট	-8674
কেন্দ্ৰ	-8675
জনকভাৱে	-8676
জাতশত্ৰ	-8677
তাপূৰ্ণ	-8678
নিৰ্মিত	-8679
প্ৰবন্ধ	-8680
মণ্ডলীৰ	-8681
শ্যকীয়	-8682
সম্পন্ন	-8683
সামাজিক	-8684
স্থায়ী	-8685
ায়েন্স	-8686
াৰ্শনিক	-8687
িন্নতাৰ	-8688
োপসাগৰৰ	-8689
▁অগ্ৰণী	-8690
▁অধীনলৈ	-8691
▁অপৰাধী	-8692
▁অফিচাৰ	-8693
▁অভিব্য	-8694
▁অভিভাৱ	-8695
▁অম্বৰৰ	-8696
▁অৰণ্যত	-8697
▁আইনখনৰ	-8698
▁আণ্ডাৰ	-8699
▁আনিবলৈ	-8700
▁আপত্তি	-8701
▁আব্ৰাহ	-8702
▁আশ্বাস	-8703
▁আৰাৱলী	-8704
▁আৰ্হিৰ	-8705
▁ইম্পেৰ	-8706
▁ইয়ৰ্ক	-8707
▁উত্তৰত	-8708
▁উন্নীত	-8709
▁এইটোৱে	-8710
▁এক্সেল	-8711
▁এনচিএএ	-8712
▁এষ্টিগ	-8713
▁এৰিছিল	-8714
▁কন্নড়	-8715
▁কলিঙ্গ	-8716
▁কাটাৰৰ	-8717
▁কাপোৰৰ	-8718
▁কুমাৰী	-8719
▁কৃতজ্ঞ	-8720
▁কেঁচুৱ	-8721
▁কেইবছৰ	-8722
▁কোনবোৰ	-8723
▁কোনোবা	-8724
▁খেতিয়	-8725
▁গৰাকীৰ	-8726
▁গৰিহণা	-8727
▁চতুর্থ	-8728
▁চাইছিল	-8729
▁ছুইজাৰ	-8730
▁ছেপ্তে	-8731
▁ছেলুকা	-8732
▁জটিলতা	-8733
▁জন্তুৰ	-8734
▁জাহাজৰ	-8735
▁জীৱন্ত	-8736
▁জ্যোতি	-8737
▁ট্ৰাভা	-8738
▁ঠাকুৰৰ	-8739
▁তেওঁলৈ	-8740
▁তৰাইনৰ	-8741
▁দিনটোক	-8742
▁দুর্গত	-8743
▁দেশখনত	-8744
▁দেশাইৰ	-8745
▁দোকানৰ	-8746
▁ধ্বনিত	-8747
▁নাজিৰৰ	-8748
▁নিৰাৱল	-8749
▁নোৱাৰা	-8750
▁পঠিওৱা	-8751
▁পার্কত	-8752
▁পাহাৰত	-8753
▁পেটেলক	-8754
▁প্রচাৰ	-8755
▁প্রশাস	-8756
▁প্রশ্ন	-8757
▁প্রেৰণ	-8758
▁প্ৰকৰণ	-8759
▁প্ৰথমৰ	-8760
▁প্ৰথাৰ	-8761
▁প্ৰসৱৰ	-8762
▁প্ৰেমৰ	-8763
▁পৰিষদে	-8764
▁পৰোক্ষ	-8765
▁পৰ্দাত	-8766
▁বঁটাৰে	-8767
▁বছৰটোত	-8768
▁বঞ্চিত	-8769
▁বনাবলৈ	-8770
▁বান্ধি	-8771
▁বাহলোল	-8772
▁বিকাশত	-8773
▁বিচ্ছে	-8774
▁বিচৰাৰ	-8775
▁বিজয়া	-8776
▁বিন্দু	-8777
▁বিবাহত	-8778
▁বিহাৰী	-8779
▁বৈষম্য	-8780
▁ভুমুকি	-8781
▁ভৈয়াম	-8782
▁ভ্ৰমণত	-8783
▁মহাদেশ	-8784
▁মাজেদি	-8785
▁মাতিলে	-8786
▁মাল্টি	-8787
▁মিজোৰা	-8788
▁মুলতান	-8789
▁যিসকলৰ	-8790
▁যোগায়	-8791
▁লাহোৰত	-8792
▁শ্বহীদ	-8793
▁শ্বাহী	-8794
▁শ্বেইখ	-8795
▁সংকল্প	-8796
▁সংশোধন	-8797
▁সকলোকে	-8798
▁সঞ্জয়	-8799
▁সদস্যক	-8800
▁সদায়ে	-8801
▁সন্তোষ	-8802
▁সমিতিৰ	-8803
▁সম্পদৰ	-8804
▁সহকৰ্ম	-8805
▁সাৰাংশ	-8806
▁সাৱধান	-8807
▁সিহঁতে	-8808
▁সুগন্ধ	-8809
▁সূচায়	-8810
▁সেইয়া	-8811
▁সেৱালৈ	-8812
▁স্থগিত	-8813
▁স্বৰাজ	-8814
▁ৰফিয়ে	-8815
▁ৰাজ্যক	-8816
▁ৰিয়েল	-8817
▁ৰেকেটৰ	-8818
▁ৱৰ্ল্ড	-8819
কাৰীসকলক	-8820
নিৰীক্ষা	-8821
য়াস্ত্ৰ	-8822
াকৃতভাৱে	-8823
াপ্তাহিক	-8824
▁অগ্নিকা	-8825
▁অতিক্রম	-8826
▁অতিক্ৰম	-8827
▁অভিনয়ত	-8828
▁অসাধাৰণ	-8829
▁অহিল্যা	-8830
▁আঁতৰোৱা	-8831
▁আক্ৰমণক	-8832
▁আন্তৰিক	-8833
▁আলোচনাৰ	-8834
▁ইণ্ডিজৰ	-8835
▁উচ্চাৰণ	-8836
▁উলিয়াব	-8837
▁এপ্ৰিলৰ	-8838
▁ওড়িশাৰ	-8839
▁কণ্ঠদান	-8840
▁কায়দাৰ	-8841
▁কাৰাবাস	-8842
▁ক্ষুদ্ৰ	-8843
▁গৰুবোৰে	-8844
▁ঘটনাটোত	-8845
▁ঘটনাটোৰ	-8846
▁চাপিবলৈ	-8847
▁চিন্তাধ	-8848
▁চেন্নাই	-8849
▁চেম্বাৰ	-8850
▁ছাৰ্ভাৰ	-8851
▁ছিষ্টেম	-8852
▁জন্মদিন	-8853
▁জলকীয়া	-8854
▁জাম্পিং	-8855
▁জাহাজখন	-8856
▁ট্ৰাম্প	-8857
▁ট্ৰেকিং	-8858
▁তালিবান	-8859
▁থাকোঁতে	-8860
▁দলসমূহে	-8861
▁দলসমূহৰ	-8862
▁দিগম্বৰ	-8863
▁দিয়াটো	-8864
▁দুয়োৰে	-8865
▁দেউতাকক	-8866
▁নগৰীয়া	-8867
▁নথিপত্ৰ	-8868
▁নাগৰিকৰ	-8869
▁নিৰ্যাত	-8870
▁নীলগিৰি	-8871
▁পঠাইছিল	-8872
▁পর্যায়	-8873
▁পশ্চিমৰ	-8874
▁পাছৱৰ্ড	-8875
▁পাঞ্চোল	-8876
▁পাতিবলৈ	-8877
▁পাৰস্যৰ	-8878
▁পাৰ্টিৰ	-8879
▁পুনৰবাৰ	-8880
▁পুৰোহিত	-8881
▁প্ৰতীকী	-8882
▁প্ৰয়াস	-8883
▁প্ৰশাসক	-8884
▁পৰিৱেশৰ	-8885
▁ফ্ৰাইডে	-8886
▁ফৰৱাৰ্ড	-8887
▁বক্তৃতা	-8888
▁বর্তমান	-8889
▁বাগদাদৰ	-8890
▁বাহ্যিক	-8891
▁বিদ্বান	-8892
▁বিধেয়ক	-8893
▁বিবেচিত	-8894
▁বিষাক্ত	-8895
▁বুধবাৰে	-8896
▁ভাবুকিৰ	-8897
▁ভায়েকৰ	-8898
▁মঙলবাৰে	-8899
▁মণিপুৰৰ	-8900
▁মহম্মদৰ	-8901
▁মহাত্মা	-8902
▁মহাভাৰত	-8903
▁মহাৰাজা	-8904
▁মাতিবলৈ	-8905
▁মাতৃয়ে	-8906
▁মালয়েছ	-8907
▁মালাবাৰ	-8908
▁মিষ্টাৰ	-8909
▁মোৰাৰজী	-8910
▁যাত্ৰাৰ	-8911
▁যিমানেই	-8912
▁শ্বাটলক	-8913
▁শ্বাট্ল	-8914
▁শ্বিলঙৰ	-8915
▁শৰ্মিলা	-8916
▁সঁজুলিৰ	-8917
▁সংঘৰ্ষত	-8918
▁সংসদীয়	-8919
▁সংস্থাই	-8920
▁সকলোতকৈ	-8921
▁সন্মানত	-8922
▁সমন্বয়	-8923
▁সম্ভাজী	-8924
▁সুধিছিল	-8925
▁সুস্থিৰ	-8926
▁সৃষ্টিৰ	-8927
▁সেইদিনা	-8928
▁স্ক্ৰীণ	-8929
▁হেৰুৱাব	-8930
▁ৰূপায়ণ	-8931
▁ৰেটিনাৰ	-8932
চিয়েশ্যন	-8933
পাকিস্তান	-8934
▁অত্যাচাৰ	-8935
▁অত্যাধিক	-8936
▁অধ্যয়নত	-8937
▁অনুশীলনৰ	-8938
▁অৱস্থাতে	-8939
▁আনুগত্যৰ	-8940
▁এপেণ্ডিচ	-8941
▁ঔৰংগজেবক	-8942
▁কিছুদিনৰ	-8943
▁কেইজনমান	-8944
▁কেনোয়িং	-8945
▁কেন্দ্ৰত	-8946
▁কেন্দ্ৰৰ	-8947
▁কোৰিয়াৰ	-8948
▁ক্ষেত্ৰৰ	-8949
▁কৰ্টিকেল	-8950
▁খোজকাঢ়ি	-8951
▁গংগাসকলে	-8952
▁গুলীয়াই	-8953
▁গুৱাহাটী	-8954
▁গোবিন্দই	-8955
▁গৰাকীয়ে	-8956
▁চিত্তোৰত	-8957
▁চিত্তোৰৰ	-8958
▁জাহানাৰা	-8959
▁জেনেৰেলৰ	-8960
▁ট্ৰিনিটি	-8961
▁ডেলিভাৰী	-8962
▁তাৰাবাইৰ	-8963
▁দক্ষিণলৈ	-8964
▁দোষমুক্ত	-8965
▁দৰিদ্ৰতা	-8966
▁নির্ধাৰণ	-8967
▁নিৰ্দেশক	-8968
▁নিৰ্দেশত	-8969
▁নুৰজাহান	-8970
▁পদ্ধতিৰে	-8971
▁পাণ্ডুলি	-8972
▁পাৰ্বতীৰ	-8973
▁পাৰ্বত্য	-8974
▁পুডুচেৰী	-8975
▁পুৰস্কৃত	-8976
▁প্রতিযোগ	-8977
▁প্রতিষ্ঠ	-8978
▁প্রশংসিত	-8979
▁প্ৰকল্পৰ	-8980
▁প্ৰখ্যাত	-8981
▁প্ৰজন্মৰ	-8982
▁প্ৰাচীনত	-8983
▁প্ৰাৰ্থী	-8984
▁পৰিদৰ্শন	-8985
▁বহুকেইটা	-8986
▁বাহাদুৰে	-8987
▁বিজাপুৰী	-8988
▁বিদ্ৰোহী	-8989
▁বিশ্বাসৰ	-8990
▁বিষয়বোৰ	-8991
▁বিৰাজমান	-8992
▁ব্যৱধানত	-8993
▁মন্দিৰটো	-8994
▁মল্লযুঁজ	-8995
▁মহেন্দ্ৰ	-8996
▁মুম্বাইত	-8997
▁মোগলসকলক	-8998
▁মোতায়েন	-8999
▁লক্ষণবোৰ	-9000
▁লক্ষণীয়	-9001
▁শব্দটোৱে	-9002
▁শৃংগেৰীৰ	-9003
▁শ্বাহুৱে	-9004
▁শ্ৰীৰঙ্গ	-9005
▁সংস্কাৰৰ	-9006
▁সত্যাগ্ৰ	-9007
▁সমাধিস্থ	-9008
▁সমাপ্তিৰ	-9009
▁সমালোচকৰ	-9010
▁সম্পর্কৰ	-9011
▁সম্পূর্ণ	-9012
▁সম্ভাজীক	-9013
▁সাংগীতিক	-9014
▁সাপেক্ষে	-9015
▁সামগ্রীৰ	-9016
▁সাহায্যৰ	-9017
▁সীমান্তত	-9018
▁সুসজ্জিত	-9019
▁সুস্বাদু	-9020
▁সৌন্দৰ্য	-9021
▁হাওঁফাওঁ	-9022
▁ৰূপান্তৰ	-9023
▁ৰেটিনোপে	-9024
▁অপৰাধমূলক	-9025
▁ইলতুৎমিছে	-9026
▁উজ্জয়িনী	-9027
▁উদ্যানখনত	-9028
▁উলিয়াবলৈ	-9029
▁এষ্টিগমেট	-9030
▁কাৰাবন্দী	-9031
▁কাৰ্যক্ষম	-9032
▁কাৰ্যসূচী	-9033
▁কৰ্ণিয়াৰ	-9034
▁চণ্ডিগড়ৰ	-9035
▁চেলছিয়াছ	-9036
▁জন্মস্থান	-9037
▁জয়প্ৰকাশ	-9038
▁তথ্যচিত্ৰ	-9039
▁তিনিবাৰকৈ	-9040
▁তেলেংগানা	-9041
▁থিয়েটাৰত	-9042
▁দাৰ্জিলিং	-9043
▁দুঃসাহসিক	-9044
▁দুয়োটাৰে	-9045
▁দুৰ্নীতিৰ	-9046
▁দ্বিতীয়ই	-9047
▁নিযুক্তিৰ	-9048
▁নিৰ্ধাৰণৰ	-9049
▁নুৰজাহানে	-9050
▁পাৰামাৰ্ড	-9051
▁প্রতিলিপি	-9052
▁প্লাষ্টিক	-9053
▁প্ৰগতিশীল	-9054
▁প্ৰতিৰোধৰ	-9055
▁প্ৰশিক্ষক	-9056
▁প্ৰাসংগিক	-9057
▁বন্দীসকলক	-9058
▁বাংলাদেশৰ	-9059
▁বিধানসভাত	-9060
▁বিধানসভাৰ	-9061
▁বিষয়বোৰৰ	-9062
▁বেৰিষ্টাৰ	-9063
▁ব্যতিক্ৰম	-9064
▁ব্যৱসায়ত	-9065
▁ভিট্ৰেক্ট	-9066
▁ভিতৰকণিকা	-9067
▁মহিলাসকলক	-9068
▁মানুলিয়ে	-9069
▁মাহেকীয়া	-9070
▁মৃত্যুবৰণ	-9071
▁সংখ্যালঘু	-9072
▁সন্দেহজনক	-9073
▁সম্ভাৱনাৰ	-9074
▁সুবিধাজনক	-9075
▁হুমায়ুনক	-9076
▁ৰক্তহীনতা	-9077
▁ৰাঘোজীয়ে	-9078
▁ৰাজকুমাৰৰ	-9079
▁ৰাষ্ট্ৰপত	-9080
▁ৰোমাণ্টিক	-9081
▁অট্টালিকাৰ	-9082
▁অনুপ্রাণিত	-9083
▁অন্তঃক্ষেত	-9084
▁অভ্যন্তৰীণ	-9085
▁আগবাঢ়িবলৈ	-9086
▁আম্বেদকাৰৰ	-9087
▁উলিয়াইছিল	-9088
▁কল্পনাস্বৰ	-9089
▁কাৰ্যালয়ত	-9090
▁ক্ৰান্তীয়	-9091
▁গুৰুতৰভাৱে	-9092
▁ডিফেণ্ডাৰৰ	-9093
▁তেণ্ডুলকাৰ	-9094
▁দৃষ্টিগোচৰ	-9095
▁নিৰাপত্তাৰ	-9096
▁নেদাৰলেণ্ড	-9097
▁পদ্মিনীয়ে	-9098
▁পশ্চিমীয়া	-9099
▁পাকিস্তানত	-9100
▁পাকিস্তানে	-9101
▁পাৰ্চীসকলৰ	-9102
▁পুনৰুদ্ধাৰ	-9103
▁পৃথ্বীৰাজক	-9104
▁প্রতীয়মান	-9105
▁প্ৰতিষ্ঠিত	-9106
▁ফ্ৰীষ্টাইল	-9107
▁বুৰঞ্জীবিদ	-9108
▁বৈচিত্ৰ্যৰ	-9109
▁ভুক্তভোগীৰ	-9110
▁মহিলাগৰাকী	-9111
▁মিত্ৰজোঁটে	-9112
▁মিলেনিয়াম	-9113
▁লক্ষ্মীয়ে	-9114
▁শিল্পীসকলৰ	-9115
▁শ্ৰীনিবাসৰ	-9116
▁সংজ্ঞায়িত	-9117
▁সাংবিধানিক	-9118
▁হস্তক্ষেপৰ	-9119
▁হাৰাশাস্তি	-9120
▁হিন্দুসকলৰ	-9121
▁হৃদযন্ত্ৰৰ	-9122
▁ৰাষ্ট্রীয়	-9123
▁ৰেজিমেণ্টৰ	-9124
▁অনুপস্থিতিত	-9125
▁অন্তৰ্নিহিত	-9126
▁আক্ৰমণকাৰীৰ	-9127
▁আত্মবিশ্বাস	-9128
▁ইম্পেৰিয়েল	-9129
▁কন্যাকুমাৰী	-9130
▁ছেপ্টেম্বৰৰ	-9131
▁নেদাৰলেণ্ডৰ	-9132
▁ন্যায়ালয়ে	-9133
▁প্রতিদ্বন্দ	-9134
▁পৰিয়ালটোৱে	-9135
▁পৰীক্ষামূলক	-9136
▁পৰ্যটনস্থলী	-9137
▁বাধ্যতামূলক	-9138
▁বিশ্বযুদ্ধৰ	-9139
▁বেক্টেৰিয়া	-9140
▁ব্যক্তিত্বৰ	-9141
▁ব্ৰিটিছসকলক	-9142
▁ভিক্টোৰিয়া	-9143
▁শ্ৰেণীভুক্ত	-9144
▁সমালোচকসকলে	-9145
▁সমালোচকসকলৰ	-9146
▁সেনাবাহিনীত	-9147
উদাহৰণস্বৰূপে	-9148
▁আন্তঃগাঁথনিৰ	-9149
▁গুৰুত্বপূর্ণ	-9150
▁চলচ্চিত্ৰখনৰ	-9151
▁দৃষ্টিশক্তিৰ	-9152
▁ধ্বনিতীক্ষ্ণ	-9153
▁পৃষ্ঠপোষকতাত	-9154
▁প্ৰক্ৰিয়াটো	-9155
▁প্ৰত্যাহ্বান	-9156
▁প্ৰত্যাৱৰ্তন	-9157
▁প্ৰত্যুত্তৰত	-9158
▁মনোৰঞ্জনমূলক	-9159
▁সংগীতজ্ঞসকলে	-9160
▁সৈন্যবাহিনীৰ	-9161
▁ৰাজ্যাভিষেকৰ	-9162
▁অষ্ট্ৰেলিয়ান	-9163
▁আগ্নেয়াস্ত্ৰ	-9164
▁আফগানিস্তানলৈ	-9165
▁কোম্পানীসমূহে	-9166
▁প্ৰত্যক্ষভাৱে	-9167
▁প্ৰয়োজনীয়তা	-9168
▁বিষ্ণুকুণ্ডিন	-9169
▁শ্ৰেণীবিভাজনৰ	-9170
▁স্বাস্থ্যজনিত	-9171
▁সংখ্যাগৰিষ্ঠতা	-9172
▁চেম্পিয়নশ্বিপৰ	-9173
▁প্ৰতিযোগিতাসমূহ	-9174
'।	-9175
..	-9176
।।	-9177
ঁক	-9178
আক	-9179
ইট	-9180
উড	-9181
কট	-9182
খে	-9183
গন	-9184
গৈ	-9185
ডছ	-9186
ডী	-9187
পদ	-9188
প্	-9189
ফা	-9190
মব	-9191
যো	-9192
লছ	-9193
লম	-9194
াষ	-9195
ুফ	-9196
০৮	-9197
১ত	-9198
৩০	-9199
৩৬	-9200
৪২	-9201
৭৩	-9202
৭৭	-9203
৮৩	-9204
৮৬	-9205
ৰথ	-9206
ৱহ	-9207
’,	-9208
▁,	-9209
▁০	-9210
ইচা	-9211
ইলৰ	-9212
উইন	-9213
ওঁঠ	-9214
কলা	-9215
কাং	-9216
কাছ	-9217
কিশ	-9218
গোপ	-9219
ঙাল	-9220
চিং	-9221
চিল	-9222
ছাগ	-9223
ছিদ	-9224
ছেই	-9225
ছৰত	-9226
জনত	-9227
জাক	-9228
জাদ	-9229
জিট	-9230
টাই	-9231
টাউ	-9232
টাক	-9233
টাছ	-9234
টাত	-9235
টেল	-9236
ডিই	-9237
ডিগ	-9238
ডিট	-9239
ডেন	-9240
তোধ	-9241
ত্থ	-9242
থাই	-9243
থিত	-9244
দৰৰ	-9245
ধিৰ	-9246
ধৰণ	-9247
নাও	-9248
পৃথ	-9249
পেট	-9250
ফিন	-9251
বিভ	-9252
বীণ	-9253
ব্ব	-9254
ভিছ	-9255
ভেন	-9256
মনা	-9257
মলৈ	-9258
মাছ	-9259
মূল	-9260
লগা	-9261
লিছ	-9262
লিন	-9263
লিফ	-9264
লিল	-9265
লীক	-9266
লুক	-9267
শতঃ	-9268
শাখ	-9269
সংঘ	-9270
সেন	-9271
হাব	-9272
হেল	-9273
াইড	-9274
াইম	-9275
াকু	-9276
াগৰ	-9277
াতো	-9278
াবী	-9279
াব্	-9280
ালু	-9281
াহক	-9282
িওড	-9283
িকি	-9284
িচে	-9285
িনো	-9286
িবন	-9287
িবল	-9288
িশা	-9289
ীকো	-9290
ীখন	-9291
ীৱী	-9292
ুখন	-9293
ুটম	-9294
ুলা	-9295
ৃহৰ	-9296
েখা	-9297
েছৰ	-9298
েডি	-9299
েশৰ	-9300
োকক	-9301
োখৰ	-9302
োডে	-9303
োনত	-9304
োপক	-9305
োলছ	-9306
োষৰ	-9307
োহন	-9308
োহা	-9309
্ছদ	-9310
্টে	-9311
্নত	-9312
্যট	-9313
্রস	-9314
২টা	-9315
৫টা	-9316
ৰিত	-9317
ৰেট	-9318
ৰেৰ	-9319
ৰোল	-9320
ৰ্চ	-9321
ৱতে	-9322
▁অচ	-9323
▁অয	-9324
▁আথ	-9325
▁এজ	-9326
▁এভ	-9327
▁এয	-9328
▁ওভ	-9329
▁কী	-9330
▁চম	-9331
▁জঁ	-9332
▁টন	-9333
▁টপ	-9334
▁ডন	-9335
▁ঢৌ	-9336
▁তহ	-9337
▁তা	-9338
▁থক	-9339
▁নন	-9340
▁মৈ	-9341
▁শহ	-9342
▁শূ	-9343
ংগান	-9344
ইমান	-9345
এছআৰ	-9346
এছএছ	-9347
কম্প	-9348
কর্ম	-9349
কলাপ	-9350
কায়	-9351
গলেগ	-9352
গানৰ	-9353
ঘাটৰ	-9354
ঙ্কৰ	-9355
চলতে	-9356
ছিডে	-9357
জেয়	-9358
ঞ্জা	-9359
ঞ্জৰ	-9360
টিএফ	-9361
টিকট	-9362
টিচি	-9363
ড়াৰ	-9364
ডিমা	-9365
ণ্ডী	-9366
ত্ৰক	-9367
দাৰৰ	-9368
দিনে	-9369
দৌলা	-9370
ধাৰা	-9371
নাথৰ	-9372
নেৰী	-9373
ন্ধন	-9374
পট্ট	-9375
ফ্ৰে	-9376
বর্ত	-9377
বেছি	-9378
ভণ্ড	-9379
ভেদে	-9380
ময়ী	-9381
মানি	-9382
মাৰা	-9383
ম্বা	-9384
যদিও	-9385
র্চা	-9386
র্ণৰ	-9387
র্ভত	-9388
র্ভৰ	-9389
শুনা	-9390
ষ্টৰ	-9391
ষ্ণৰ	-9392
সম্ব	-9393
সাধন	-9394
সীমা	-9395
সুলভ	-9396
াংকন	-9397
াংশৰ	-9398
াইনত	-9399
াক্ট	-9400
াগ্র	-9401
াচীন	-9402
ানিক	-9403
াপ্ৰ	-9404
ামতে	-9405
ায়ত	-9406
ায়ম	-9407
ার্থ	-9408
ালতে	-9409
ালোৰ	-9410
াৱলী	-9411
িপিং	-9412
িবিএ	-9413
িমাই	-9414
িশ্ব	-9415
িশ্র	-9416
িৰাই	-9417
ীগড়	-9418
ুট্ট	-9419
ুদ্ৰ	-9420
ুল্য	-9421
ুষিত	-9422
ুৰাই	-9423
ুৰাৰ	-9424
ুৱান	-9425
ৃচ্ছ	-9426
েইনত	-9427
েইলত	-9428
েনেড	-9429
েষণৰ	-9430
েৰাৰ	-9431
ৈয়দ	-9432
োকাৰ	-9433
োদাৰ	-9434
োধ্য	-9435
োপাধ	-9436
োবাক	-9437
োলাত	-9438
োলাভ	-9439
োৱাক	-9440
োৱাদ	-9441
্নতম	-9442
্প্ৰ	-9443
্যাস	-9444
্রমী	-9445
্লিঅ	-9446
্লিন	-9447
্ৰমা	-9448
্ৰাছ	-9449
২০০৬	-9450
ৰাটৰ	-9451
ৰ্গত	-9452
ৰ্ডে	-9453
ৱালা	-9454
ৱালী	-9455
ৱাৰী	-9456
▁অইন	-9457
▁অউৰ	-9458
▁অৱধ	-9459
▁অৱল	-9460
▁অৱস	-9461
▁আংশ	-9462
▁আচল	-9463
▁আছৰ	-9464
▁আড়	-9465
▁আলি	-9466
▁ইকব	-9467
▁ইনছ	-9468
▁এপি	-9469
▁ওঁঠ	-9470
▁ওমৰ	-9471
▁কনৌ	-9472
▁কমন	-9473
▁কাভ	-9474
▁কিত	-9475
▁কিৰ	-9476
▁কুই	-9477
▁কুচ	-9478
▁কূট	-9479
▁কেল	-9480
▁কোট	-9481
▁কৰণ	-9482
▁কৰো	-9483
▁খোৱ	-9484
▁গজন	-9485
▁গুহ	-9486
▁গোক	-9487
▁গ্ল	-9488
▁চাৱ	-9489
▁চিঅ	-9490
▁চিগ	-9491
▁চিঞ	-9492
▁চিত	-9493
▁চিপ	-9494
▁চুন	-9495
▁চেপ	-9496
▁চেৰ	-9497
▁চৌথ	-9498
▁ছখন	-9499
▁ছজন	-9500
▁ছপা	-9501
▁ছাভ	-9502
▁ছাল	-9503
▁ছাহ	-9504
▁ছিৰ	-9505
▁ছুট	-9506
▁জনক	-9507
▁জনৰ	-9508
▁জমি	-9509
▁জিজ	-9510
▁জীৰ	-9511
▁জোপ	-9512
▁টাম	-9513
▁টিম	-9514
▁ডুব	-9515
▁ডেক	-9516
▁থেন	-9517
▁থ্র	-9518
▁দলক	-9519
▁দাগ	-9520
▁দীৱ	-9521
▁দুঘ	-9522
▁দুধ	-9523
▁দৌৰ	-9524
▁ধাত	-9525
▁ধান	-9526
▁ধৃত	-9527
▁নলা	-9528
▁নাচ	-9529
▁নাব	-9530
▁নাহ	-9531
▁নৈৰ	-9532
▁নোল	-9533
▁নৌশ	-9534
▁পাগ	-9535
▁পেৰ	-9536
▁ফাঁ	-9537
▁ফেচ	-9538
▁ফৌজ	-9539
▁বিগ	-9540
▁বীজ	-9541
▁বীট	-9542
▁বেক	-9543
▁বোধ	-9544
▁বৰচ	-9545
▁বৰৰ	-9546
▁ভবা	-9547
▁ভাদ	-9548
▁ভিল	-9549
▁ভ্ৰ	-9550
▁মনম	-9551
▁ময়	-9552
▁মিহ	-9553
▁মীন	-9554
▁মৈত	-9555
▁মৰণ	-9556
▁মৰম	-9557
▁মৰি	-9558
▁যাম	-9559
▁লিম	-9560
▁লুই	-9561
▁লেক	-9562
▁লেপ	-9563
▁শতা	-9564
▁শিপ	-9565
▁শুই	-9566
▁সবল	-9567
▁সমূ	-9568
▁সাদ	-9569
▁সুল	-9570
▁সুস	-9571
▁স্ফ	-9572
▁স্ল	-9573
▁সৰস	-9574
▁হনু	-9575
▁হাক	-9576
▁১২০	-9577
▁১৫৫	-9578
▁১৫৯	-9579
▁১৭০	-9580
▁২৩০	-9581
▁৩৫০	-9582
▁৭০০	-9583
▁ৰিভ	-9584
▁ৰুক	-9585
▁ৰেখ	-9586
▁ৰোপ	-9587
▁ৱাৰ	-9588
▁ৱেব	-9589
আইডিই	-9590
কিশোৰ	-9591
কুমাৰ	-9592
কেশিন	-9593
ক্ষাত	-9594
খ্যিক	-9595
চাইটি	-9596
চালিত	-9597
চুবুৰ	-9598
চেৰয়	-9599
জনিশা	-9600
জিয়া	-9601
ঞ্জিঅ	-9602
ঞ্জীৱ	-9603
ণ্ডাম	-9604
ণ্ডিং	-9605
তাললৈ	-9606
তুস্ৰ	-9607
তোধিক	-9608
ত্রিত	-9609
নীয়ে	-9610
ন্ধ্য	-9611
পাৰ্ট	-9612
পুত্ৰ	-9613
ফিল্ড	-9614
বাটাও	-9615
বাৰ্ট	-9616
বিধিৰ	-9617
বিশেষ	-9618
বেটিক	-9619
বেটেন	-9620
বোৰলৈ	-9621
মগলুৰ	-9622
মাতৃৰ	-9623
ম্বৰত	-9624
ম্ভীৰ	-9625
য়োদশ	-9626
যায়ী	-9627
র্যাদ	-9628
শাসিত	-9629
সংযোগ	-9630
সকলেও	-9631
সায়ন	-9632
সিংহৰ	-9633
স্কোপ	-9634
স্পতি	-9635
াওঁতে	-9636
াণ্ডা	-9637
ানগড়	-9638
ানাৱা	-9639
ান্তত	-9640
াপন্ন	-9641
াপুৰৰ	-9642
াবাৰো	-9643
ামেৰে	-9644
ায়কৰ	-9645
ালীয়	-9646
াহিনী	-9647
াহ্মণ	-9648
াৰ্জী	-9649
াৱালা	-9650
িওৱাৰ	-9651
িক্সড	-9652
িচিএল	-9653
িচ্ছে	-9654
িছিলো	-9655
িজীৱী	-9656
িনহাৰ	-9657
িন্দা	-9658
িয়নত	-9659
িয়াল	-9660
িয়েই	-9661
িয়েট	-9662
িশ্যন	-9663
িষ্টল	-9664
ীয়ান	-9665
ীয়ৰী	-9666
ীৱদ্ধ	-9667
েইটাই	-9668
েক্টৰ	-9669
েশ্বন	-9670
োত্তম	-9671
্ৰনিক	-9672
ৰায়ণ	-9673
ৰিয়া	-9674
ৰ্ধিত	-9675
ৰ্নাম	-9676
ৱসকলৰ	-9677
ৱাড়া	-9678
▁অতিথ	-9679
▁অনুধ	-9680
▁অনুশ	-9681
▁অমান	-9682
▁অলিভ	-9683
▁অশুভ	-9684
▁অসুৰ	-9685
▁অৰ্জ	-9686
▁আইচি	-9687
▁আকাশ	-9688
▁আগমন	-9689
▁আচ্ছ	-9690
▁আচৰে	-9691
▁আছাফ	-9692
▁আঠজন	-9693
▁আনিব	-9694
▁আনুষ	-9695
▁আপাত	-9696
▁আবুল	-9697
▁আবৃত	-9698
▁আলাপ	-9699
▁আলিগ	-9700
▁আল্ট	-9701
▁আহাৰ	-9702
▁আহোম	-9703
▁আৰাক	-9704
▁আৰ্য	-9705
▁ইউএছ	-9706
▁ইউকে	-9707
▁ইউনি	-9708
▁ইলাই	-9709
▁উঠিল	-9710
▁উমাব	-9711
▁উৰ্ব	-9712
▁এঞ্জ	-9713
▁এটাত	-9714
▁এনআই	-9715
▁এনাল	-9716
▁এন্থ	-9717
▁এফএম	-9718
▁ঔদ্য	-9719
▁ঔষধৰ	-9720
▁ককাক	-9721
▁কমিউ	-9722
▁কমিট	-9723
▁কর্প	-9724
▁কাঁচ	-9725
▁কাটা	-9726
▁কাতি	-9727
▁কুঁহ	-9728
▁কুলি	-9729
▁কৃতি	-9730
▁কোংক	-9731
▁কোণৰ	-9732
▁কৰাব	-9733
▁কৰৱা	-9734
▁খনিজ	-9735
▁খালি	-9736
▁খেলে	-9737
▁খৰচী	-9738
▁খৰচৰ	-9739
▁গন্ধ	-9740
▁গাইড	-9741
▁গাওঁ	-9742
▁গাঢ়	-9743
▁গানৰ	-9744
▁গিৰি	-9745
▁গুণী	-9746
▁গোপী	-9747
▁গোলা	-9748
▁গ্রী	-9749
▁গৰ্ভ	-9750
▁ঘূৰে	-9751
▁ঘেৰি	-9752
▁ঘৰখন	-9753
▁ঘৰটো	-9754
▁চম্প	-9755
▁চলিত	-9756
▁চহকী	-9757
▁চাপি	-9758
▁চালক	-9759
▁চিএল	-9760
▁চিলা	-9761
▁ছাইন	-9762
▁জগদ্	-9763
▁জুডো	-9764
▁টপাল	-9765
▁টানি	-9766
▁টিকট	-9767
▁টুৰি	-9768
▁টেকন	-9769
▁ঢালি	-9770
▁তেজী	-9771
▁তেজৰ	-9772
▁থকাত	-9773
▁থাকক	-9774
▁দহজন	-9775
▁দহটা	-9776
▁দেৱৰ	-9777
▁দ্বি	-9778
▁ধৰাৰ	-9779
▁ধৰিব	-9780
▁নব্য	-9781
▁নষ্ট	-9782
▁নাহৰ	-9783
▁নিঃস	-9784
▁নিবি	-9785
▁নিমখ	-9786
▁পর্ব	-9787
▁পাছে	-9788
▁পালক	-9789
▁পুথি	-9790
▁পুৱা	-9791
▁পেটত	-9792
▁পেৰু	-9793
▁পৰিত	-9794
▁পৰিভ	-9795
▁ফল্ট	-9796
▁ফোনৰ	-9797
▁বদ্ধ	-9798
▁বলিং	-9799
▁বসুৰ	-9800
▁বাণী	-9801
▁বাতৰ	-9802
▁বাবৰ	-9803
▁বাহন	-9804
▁বাহু	-9805
▁বিভূ	-9806
▁বিশদ	-9807
▁বেংগ	-9808
▁বেছা	-9809
▁বেজী	-9810
▁বেতন	-9811
▁বেলগ	-9812
▁বেলা	-9813
▁বেৰে	-9814
▁বোলছ	-9815
▁বোৱা	-9816
▁ব্ৰী	-9817
▁বৰফৰ	-9818
▁ভাঁজ	-9819
▁ভাগি	-9820
▁ভাগৰ	-9821
▁ভালে	-9822
▁ভোগী	-9823
▁ভোটৰ	-9824
▁ভৰিৰ	-9825
▁মণ্ট	-9826
▁মদ্য	-9827
▁মনপা	-9828
▁মাছৰ	-9829
▁মাতা	-9830
▁মানে	-9831
▁মালে	-9832
▁মুখত	-9833
▁মূৰত	-9834
▁মূৰৰ	-9835
▁মেইব	-9836
▁মেৰু	-9837
▁মেৰে	-9838
▁যাপন	-9839
▁যিজন	-9840
▁লগাই	-9841
▁লালন	-9842
▁লিপি	-9843
▁লেখা	-9844
▁লৰ্ড	-9845
▁শচীন	-9846
▁শতকৰ	-9847
▁শনিব	-9848
▁শ্রী	-9849
▁সংগী	-9850
▁সক্র	-9851
▁সজ্জ	-9852
▁সমতা	-9853
▁সহ্য	-9854
▁সুখন	-9855
▁স্কট	-9856
▁স্কা	-9857
▁স্তন	-9858
▁হকীৰ	-9859
▁হাংগ	-9860
▁হাবি	-9861
▁১৬৩৬	-9862
▁১৭৫১	-9863
▁১৭৬৬	-9864
▁১৭৮৯	-9865
▁১৮৫৭	-9866
▁১৯০৫	-9867
▁১৯২১	-9868
▁১৯২৫	-9869
▁১৯২৭	-9870
▁১৯৩৩	-9871
▁১৯৩৮	-9872
▁১৯৪৮	-9873
▁১৯৫১	-9874
▁১৯৫৫	-9875
▁১৯৫৮	-9876
▁১৯৬৬	-9877
▁১৯৭৩	-9878
▁১৯৮১	-9879
▁২০২১	-9880
▁৩১জন	-9881
▁৪র্থ	-9882
▁৪ৰ্থ	-9883
▁ৰাছো	-9884
▁ৰাণা	-9885
▁ৰাথো	-9886
▁ৰাৱে	-9887
▁ৰুকন	-9888
▁ৰেখা	-9889
▁ৰেছল	-9890
▁ৰেৱা	-9891
▁ৱোডে	-9892
আধাৰিত	-9893
আপোনাৰ	-9894
কটীয়া	-9895
গ্ৰহণৰ	-9896
চেষ্টা	-9897
জাতীয়	-9898
ডব্লিউ	-9899
ণ্ডাৰে	-9900
ত্ত্বৰ	-9901
দৃষ্টি	-9902
দ্দীনে	-9903
দ্বাৰৰ	-9904
দৰ্শনৰ	-9905
নাসমূহ	-9906
পুঞ্জত	-9907
মাউণ্ট	-9908
যন্ত্ৰ	-9909
যাত্রী	-9910
যাত্ৰী	-9911
লজিকেল	-9912
শৃংখলা	-9913
শ্বাহৰ	-9914
স্থানত	-9915
াচাহেব	-9916
ান্তৰৰ	-9917
ান্বিত	-9918
াসমূহে	-9919
িপুত্ৰ	-9920
িয়ানা	-9921
িয়ালে	-9922
ুদ্ৰিক	-9923
ৃচ্ছিক	-9924
েশ্যনত	-9925
োমিটাৰ	-9926
্রসাৰণ	-9927
ৰমাষ্ট	-9928
ৰিয়ান	-9929
ৰেক্টৰ	-9930
ৱায়েক	-9931
▁অক্ষম	-9932
▁অগ্নি	-9933
▁অধীনৰ	-9934
▁অফিচৰ	-9935
▁অবিৰত	-9936
▁অভাৱত	-9937
▁অম্বু	-9938
▁অৱৰোহ	-9939
▁আঁতৰত	-9940
▁আইএইচ	-9941
▁আইটেম	-9942
▁আছেনে	-9943
▁আজীৱন	-9944
▁আয়াৰ	-9945
▁আৰ্টছ	-9946
▁আৰ্হি	-9947
▁ইংলিছ	-9948
▁ইউনিট	-9949
▁ইনফ্ল	-9950
▁ইমিউন	-9951
▁ইৰাকৰ	-9952
▁উজবেক	-9953
▁উপনদী	-9954
▁একোটা	-9955
▁এজোপা	-9956
▁এনডিএ	-9957
▁কক্ষত	-9958
▁কথাটো	-9959
▁কথাহে	-9960
▁কথোপক	-9961
▁কমেডি	-9962
▁কলবোৰ	-9963
▁কান্ধ	-9964
▁কালিক	-9965
▁কুটিৰ	-9966
▁কুমিট	-9967
▁কৃষিভ	-9968
▁কেম্ব	-9969
▁কোঠাত	-9970
▁কোলাহ	-9971
▁খবৰটো	-9972
▁খেতিৰ	-9973
▁গতিপথ	-9974
▁গাইজন	-9975
▁গিল্ড	-9976
▁গীতটো	-9977
▁গোচৰত	-9978
▁গোচৰৰ	-9979
▁গোণ্ড	-9980
▁গোন্ধ	-9981
▁ঘটনাক	-9982
▁চালাজ	-9983
▁চেগুন	-9984
▁চৈধ্য	-9985
▁চৰাইৰ	-9986
▁চৰ্চা	-9987
▁ছাছান	-9988
▁ছিণ্ড	-9989
▁ছিহাব	-9990
▁ছিৰিজ	-9991
▁ছুৱান	-9992
▁জাগিৰ	-9993
▁জানকী	-9994
▁জাননী	-9995
▁জামোৰ	-9996
▁জায়ে	-9997
▁জীয়ে	-9998
▁জেইলত	-9999
▁টিপুৰ	-10000
▁ট্যুৰ	-10001
▁ডাচ্চ	-10002
▁ডিবিএ	-10003
▁ডেভিছ	-10004
▁ডেভেল	-10005
▁তদাৰক	-10006
▁তপস্য	-10007
▁তেওঁঁ	-10008
▁দাদৰা	-10009
▁দাবীক	-10010
▁দাৰাক	-10011
▁দিশতে	-10012
▁দুজনক	-10013
▁দুবছৰ	-10014
▁দূতাব	-10015
▁দেৱান	-10016
▁দেৱীক	-10017
▁ধৰ্মত	-10018
▁ধৰ্ষণ	-10019
▁নতুবা	-10020
▁নমুনা	-10021
▁নাটকৰ	-10022
▁নিগমৰ	-10023
▁নিজেও	-10024
▁নিয়া	-10025
▁নির্ব	-10026
▁নিহিত	-10027
▁নিৰিখ	-10028
▁নুছৰত	-10029
▁নেতাক	-10030
▁নেতাৰ	-10031
▁পক্ষই	-10032
▁পঢ়াৰ	-10033
▁পথেৰে	-10034
▁পাটলী	-10035
▁পাত্ৰ	-10036
▁পাৰোঁ	-10037
▁পিঠিত	-10038
▁পূজাৰ	-10039
▁পেকেট	-10040
▁পেঞ্চ	-10041
▁পেৰাল	-10042
▁পোল্ল	-10043
▁প্যাৰ	-10044
▁পৰস্প	-10045
▁ফিৰোজ	-10046
▁ফৰমেট	-10047
▁বঙালী	-10048
▁বদ্ৰী	-10049
▁বলিউড	-10050
▁বহুটো	-10051
▁বান্দ	-10052
▁বাবৰৰ	-10053
▁বাৰাণ	-10054
▁বাৰ্ত	-10055
▁বিক্ষ	-10056
▁বিপুল	-10057
▁বিবেক	-10058
▁বিয়ে	-10059
▁বিষটো	-10060
▁বিৰতি	-10061
▁বেটাল	-10062
▁বেল্ট	-10063
▁বেষ্ট	-10064
▁বোমাৰ	-10065
▁ভাড়া	-10066
▁ভালকৈ	-10067
▁ভাৱেৰ	-10068
▁ভূমিৰ	-10069
▁মঞ্চত	-10070
▁মণ্ডল	-10071
▁মতামত	-10072
▁মাস্ক	-10073
▁মাৰ্থ	-10074
▁মিচিগ	-10075
▁মির্জ	-10076
▁মিলাই	-10077
▁মুকুট	-10078
▁মুল্ক	-10079
▁মেট্ৰ	-10080
▁ম্যান	-10081
▁যিটোক	-10082
▁লিপিড	-10083
▁লেহেম	-10084
▁শংকৰে	-10085
▁শিতান	-10086
▁শিশুক	-10087
▁শুকাই	-10088
▁শ্বেত	-10089
▁ষষ্ঠী	-10090
▁ষ্টিক	-10091
▁ষ্টেজ	-10092
▁সংযোজ	-10093
▁সংলাপ	-10094
▁সংহতি	-10095
▁সংহিত	-10096
▁সত্তা	-10097
▁সমাদৰ	-10098
▁সমানে	-10099
▁সাগৰত	-10100
▁সাগৰৰ	-10101
▁সাতখন	-10102
▁সাতজন	-10103
▁সিংহৰ	-10104
▁সীমাত	-10105
▁সুনীল	-10106
▁সুভাষ	-10107
▁সুৰাৰ	-10108
▁সেইখন	-10109
▁সেনাদ	-10110
▁সোৱাদ	-10111
▁সৌন্দ	-10112
▁স্কুন	-10113
▁স্বৰম	-10114
▁হাস্প	-10115
▁হিছাৰ	-10116
▁হিটাৰ	-10117
▁হেগড়	-10118
▁ৰঞ্জি	-10119
▁ৰামান	-10120
▁ৰেঞ্জ	-10121
▁ৰেড্ড	-10122
ক্ষীয়ে	-10123
ছোৱালীক	-10124
জ্জীৱিত	-10125
ধুৰীয়ে	-10126
পশ্চিমে	-10127
প্ৰণালী	-10128
ভাৰতীয়	-10129
মুছলমান	-10130
যাত্ৰাৰ	-10131
যুক্তিৰ	-10132
র্ডাষ্ট	-10133
শিল্পীৰ	-10134
াপতিয়ে	-10135
ায়িত্ব	-10136
ালিয়াৰ	-10137
াষৰীয়া	-10138
াৰখণ্ডৰ	-10139
িবৰ্মনৰ	-10140
েছিয়াৰ	-10141
েশ্যনেল	-10142
ৰাণীয়ে	-10143
ৰ্দিষ্ট	-10144
▁অগ্ৰসৰ	-10145
▁অপোনাক	-10146
▁অমৃতসৰ	-10147
▁অর্ডাৰ	-10148
▁অৱনমিত	-10149
▁আঁচনিৰ	-10150
▁আইনজীৱ	-10151
▁আইবাকৰ	-10152
▁আখ্যান	-10153
▁আগষ্টৰ	-10154
▁আদিত্য	-10155
▁আয়োগৰ	-10156
▁আশ্রয়	-10157
▁আহিবলৈ	-10158
▁আৱেগিক	-10159
▁ইউনিচে	-10160
▁ইছলামী	-10161
▁উদ্বোধ	-10162
▁উপকণ্ঠ	-10163
▁উভয়তে	-10164
▁উলিওৱা	-10165
▁একত্ৰী	-10166
▁একশ্যন	-10167
▁একেধৰণ	-10168
▁ওড়িশা	-10169
▁কমিটিৰ	-10170
▁কাদম্ব	-10171
▁কিতাপৰ	-10172
▁কেমব্ৰ	-10173
▁কেৰালা	-10174
▁কৰিছোঁ	-10175
▁খান্না	-10176
▁খ্যাতি	-10177
▁গাঁঠিৰ	-10178
▁গাইকৱা	-10179
▁গাহৰিৰ	-10180
▁গেৰিলা	-10181
▁গোটটোৰ	-10182
▁গৰ্ভাৱ	-10183
▁চম্ভাল	-10184
▁চুবুৰী	-10185
▁চোপ্ৰা	-10186
▁চৰকাৰত	-10187
▁চৰ্দাৰ	-10188
▁ছেইণ্ট	-10189
▁জন্মগত	-10190
▁জয়পুৰ	-10191
▁জয়সীৰ	-10192
▁জলাধাৰ	-10193
▁জীয়ৰী	-10194
▁জীৱনলৈ	-10195
▁টাইগাৰ	-10196
▁টুকুৰা	-10197
▁টেক্সি	-10198
▁ট্ৰফীত	-10199
▁ডিভিজন	-10200
▁ড্রামা	-10201
▁ততোধিক	-10202
▁তালুকৰ	-10203
▁তুৰ্কী	-10204
▁তেখেতক	-10205
▁তৰোৱাল	-10206
▁দিলীপৰ	-10207
▁দুৰ্গত	-10208
▁দৃশ্যৰ	-10209
▁দেশখনৰ	-10210
▁নগৰখনত	-10211
▁নাগপুৰ	-10212
▁নাজানে	-10213
▁নাবালক	-10214
▁নামটোৰ	-10215
▁নাৰিকল	-10216
▁নিকোবৰ	-10217
▁নিজস্ব	-10218
▁নিয়মা	-10219
▁নিয়মৰ	-10220
▁নির্ভৰ	-10221
▁নিষ্ঠা	-10222
▁নৱবৰ্ষ	-10223
▁পচন্দৰ	-10224
▁পত্নীক	-10225
▁পাৰিষদ	-10226
▁পাৰ্কত	-10227
▁পিষ্টল	-10228
▁পুঁজিৰ	-10229
▁পুলিচৰ	-10230
▁পৃষ্ঠত	-10231
▁পেইণ্ট	-10232
▁পোষকতা	-10233
▁প্রক্র	-10234
▁প্রজাত	-10235
▁প্রেমে	-10236
▁প্ৰডাক	-10237
▁প্ৰবীণ	-10238
▁প্ৰস্থ	-10239
▁প্ৰৰোচ	-10240
▁পৰ্যটক	-10241
▁ববীয়ে	-10242
▁বর্ণনা	-10243
▁বস্ত্ৰ	-10244
▁বহুমুখ	-10245
▁বাউঞ্চ	-10246
▁বাঘেলা	-10247
▁বাবেহে	-10248
▁বাহিৰা	-10249
▁বিক্ৰম	-10250
▁বিজয়ত	-10251
▁বিজয়ে	-10252
▁বিতর্ক	-10253
▁বিতৰণৰ	-10254
▁বিদায়	-10255
▁বিধানৰ	-10256
▁বিপ্লৱ	-10257
▁বিভাগত	-10258
▁বিশৃংখ	-10259
▁বিৱৰণী	-10260
▁বৃত্তি	-10261
▁বেনাৰত	-10262
▁বেনাৰস	-10263
▁বৈষ্ণৱ	-10264
▁ব্য়য়	-10265
▁বৰদিনৰ	-10266
▁বৰ্ধিত	-10267
▁ভূপতিত	-10268
▁ভোজপুৰ	-10269
▁মর্যাদ	-10270
▁মহিলাক	-10271
▁মাইকেল	-10272
▁মানহান	-10273
▁মাপকাঠ	-10274
▁মালহাৰ	-10275
▁মালিকা	-10276
▁মালৱাত	-10277
▁মাৰ্বল	-10278
▁মূল্যত	-10279
▁মেচখনত	-10280
▁মৈত্ৰক	-10281
▁যশৱন্ত	-10282
▁যিসমূহ	-10283
▁যোগানৰ	-10284
▁যোৱাটো	-10285
▁লকডাউন	-10286
▁লাগিছে	-10287
▁লাহোৰৰ	-10288
▁লিখনিত	-10289
▁লিখিছে	-10290
▁লোকজনক	-10291
▁শিতানত	-10292
▁শিষ্টা	-10293
▁শীৰ্ষত	-10294
▁শ্রেণী	-10295
▁শৰ্মাৰ	-10296
▁ষ্টিভে	-10297
▁ষ্টেজি	-10298
▁সংগীতত	-10299
▁সকলোতে	-10300
▁সজাগতা	-10301
▁সঞ্চাল	-10302
▁সতবাহন	-10303
▁সত্যতা	-10304
▁সদস্যৰ	-10305
▁সদাশিৱ	-10306
▁সন্মতি	-10307
▁সপ্তদশ	-10308
▁সমবায়	-10309
▁সমভূমি	-10310
▁সমর্থক	-10311
▁সমলয়ৰ	-10312
▁সমলিংগ	-10313
▁সম্মুখ	-10314
▁সামগ্র	-10315
▁সিহঁতৰ	-10316
▁সীমাৰে	-10317
▁সৈন্যই	-10318
▁স্কুলত	-10319
▁স্কুলৰ	-10320
▁স্থপতি	-10321
▁স্বায়	-10322
▁সৰবৰাহ	-10323
▁হাছানক	-10324
▁হেলিওড	-10325
▁হেৰাটৰ	-10326
▁হোটেলৰ	-10327
▁হোলকাৰ	-10328
▁ৰাউণ্ড	-10329
▁ৰাজকোট	-10330
▁ৰাজসভা	-10331
▁ৰাজ্যই	-10332
▁ৰিজৰ্ট	-10333
▁ৰূপালী	-10334
ক্ষেত্ৰৰ	-10335
ণ্ডিন্যই	-10336
বিজ্ঞানৰ	-10337
শ্বায়াৰ	-10338
সম্পত্তি	-10339
িচ্ছেদ্য	-10340
্প্ৰদায়	-10341
▁অঞ্চললৈ	-10342
▁অভিবাদন	-10343
▁অভিযন্ত	-10344
▁অৱশিষ্ট	-10345
▁আগবঢ়াব	-10346
▁আগ্ৰালৈ	-10347
▁আজিলৈকে	-10348
▁আড়ম্বৰ	-10349
▁আণ্ডাৰউ	-10350
▁আত্মঘাত	-10351
▁আয়ুক্ত	-10352
▁আয়োজনৰ	-10353
▁আর্হিটো	-10354
▁উন্মোচন	-10355
▁উমিয়াম	-10356
▁উৰিষ্যা	-10357
▁এইচআইভি	-10358
▁এইসমূহৰ	-10359
▁একত্রিত	-10360
▁একাডেমী	-10361
▁এফআইডিই	-10362
▁এবিচিএল	-10363
▁ওলাইছিল	-10364
▁ঔৰংগজেব	-10365
▁ঔৰংজেবক	-10366
▁কটাইছিল	-10367
▁কমাণ্ডৰ	-10368
▁কলিকতাৰ	-10369
▁কাউণ্টি	-10370
▁কাজিয়া	-10371
▁কামসমূহ	-10372
▁কিছুদিন	-10373
▁ক্ষতিপূ	-10374
▁কৰ্ণৱাল	-10375
▁খান্নাই	-10376
▁খেয়ালৰ	-10377
▁গাঁওখনৰ	-10378
▁গাঁথনিৰ	-10379
▁গ্ৰন্থত	-10380
▁গ্ৰাহকক	-10381
▁গ্ৰেনেড	-10382
▁ঘৰিয়াল	-10383
▁চিনেমাত	-10384
▁চেলিব্ৰ	-10385
▁চেষ্টাৰ	-10386
▁চোপ্ৰাই	-10387
▁চৰিত্রত	-10388
▁ছোৱালীৰ	-10389
▁জয়ন্তী	-10390
▁জিলাখনৰ	-10391
▁জুনিয়ৰ	-10392
▁জুৰীয়ে	-10393
▁জ্বলোৱা	-10394
▁টেণ্ডুল	-10395
▁ট্ৰাষ্ট	-10396
▁ডাকটিকট	-10397
▁ডিষ্টিল	-10398
▁তক্ষশিল	-10399
▁তুৰ্কীৰ	-10400
▁ত্ৰিম্ব	-10401
▁দিনবোৰত	-10402
▁দিনীয়া	-10403
▁দুবাৰকৈ	-10404
▁দূৰত্বৰ	-10405
▁দৃষ্টিত	-10406
▁দোকানখন	-10407
▁ধন্যবাদ	-10408
▁ধুনীয়া	-10409
▁নাগার্জ	-10410
▁নাটকীয়	-10411
▁নায়িকা	-10412
▁নিদিয়া	-10413
▁নিদিয়ে	-10414
▁নিম্নতম	-10415
▁নোৱাৰাৰ	-10416
▁পঠিয়াব	-10417
▁পণবন্দী	-10418
▁পলায়নৰ	-10419
▁পাদদেশত	-10420
▁পাপানাছ	-10421
▁প্ৰকৃতি	-10422
▁প্ৰচ্ছদ	-10423
▁প্ৰণয়ন	-10424
▁প্ৰতিভা	-10425
▁প্ৰদানৰ	-10426
▁প্ৰমাণে	-10427
▁প্ৰযোজক	-10428
▁প্ৰসংগত	-10429
▁প্ৰিণ্ট	-10430
▁পৰ্যটনৰ	-10431
▁ফাইনেলৰ	-10432
▁বছৰতকৈও	-10433
▁বন্দুকৰ	-10434
▁বাৰ্মাৰ	-10435
▁বিক্ৰীৰ	-10436
▁বিন্ধ্য	-10437
▁বিশেষ্য	-10438
▁বিষয়টো	-10439
▁বিষ্ণুক	-10440
▁বিসংগতি	-10441
▁বুটামটো	-10442
▁বৈকুণ্ঠ	-10443
▁বৈচিত্র	-10444
▁ব্যাঘাত	-10445
▁ভাইচৰয়	-10446
▁ভাড়ালৈ	-10447
▁ভালেমান	-10448
▁ভিত্তিক	-10449
▁মক্কালৈ	-10450
▁মজিয়াত	-10451
▁মদ্যপান	-10452
▁মহাৰাণা	-10453
▁মাংগেলে	-10454
▁মাজনিশা	-10455
▁মাধ্যমত	-10456
▁মাহলৈকে	-10457
▁মাৰ্ক্স	-10458
▁মিৰ্জাৰ	-10459
▁মেকুৰীৰ	-10460
▁মেট্ৰিক	-10461
▁মেলিছিল	-10462
▁মৰুভূমি	-10463
▁যিগৰাকী	-10464
▁যিসমূহে	-10465
▁লক্ষ্মণ	-10466
▁লাহোৰলৈ	-10467
▁শনিবাৰে	-10468
▁শাসনকাল	-10469
▁শিখসকলৰ	-10470
▁শিল্পীৰ	-10471
▁শেষলৈকে	-10472
▁শ্বাহৰু	-10473
▁শ্বিপিং	-10474
▁শ্বুটাৰ	-10475
▁শ্রেষ্ঠ	-10476
▁শ্লোগান	-10477
▁শ্ৰীনগৰ	-10478
▁সংখ্যাত	-10479
▁সংবিধান	-10480
▁সক্রিয়	-10481
▁সন্মিলন	-10482
▁সমতুল্য	-10483
▁সমভূমিৰ	-10484
▁সমষ্টিৰ	-10485
▁সমাধানৰ	-10486
▁সম্বন্ধ	-10487
▁সম্ৰাটে	-10488
▁সমৰ্থনৰ	-10489
▁সমৰ্থিত	-10490
▁সর্বমুঠ	-10491
▁সাগৰীয়	-10492
▁সাতপুৰা	-10493
▁সামূহিক	-10494
▁সিমানেই	-10495
▁সুবিধাৰ	-10496
▁সূক্ষ্ম	-10497
▁সেইখিনি	-10498
▁সেইবোৰত	-10499
▁স্থানতে	-10500
▁স্বৰূপে	-10501
▁স্মেশ্ব	-10502
▁হাতীয়ে	-10503
▁হাস্যৰস	-10504
▁হাৰিছিল	-10505
▁হিন্দীত	-10506
▁হ্ৰদটোত	-10507
▁ৰজাসকলৰ	-10508
▁ৰাছিয়া	-10509
জীৱনীমূলক	-10510
স্পতিবাৰে	-10511
▁অংশগ্রহণ	-10512
▁অজাতশত্ৰ	-10513
▁অনিৰুদ্ধ	-10514
▁অপৰাজেয়	-10515
▁আঁতৰাবলৈ	-10516
▁আগবাঢ়িব	-10517
▁আফ্ৰিকান	-10518
▁আৰম্ভণিত	-10519
▁আৱিষ্কৃত	-10520
▁ইলাইয়াৰ	-10521
▁উচ্চাকাং	-10522
▁উন্নয়নৰ	-10523
▁একাউণ্টৰ	-10524
▁এম্ব্লিঅ	-10525
▁এয়াৰলাই	-10526
▁কাশ্মীৰৰ	-10527
▁কাষৰীয়া	-10528
▁কাহিনীটো	-10529
▁কাৰাগাৰৰ	-10530
▁কিষাণগড়	-10531
▁কৃষ্ণৰাজ	-10532
▁কেইখনমান	-10533
▁কেলিফৰ্ণ	-10534
▁কৰ্ণাটকত	-10535
▁কৰ্মজীৱন	-10536
▁গণতন্ত্র	-10537
▁গণতন্ত্ৰ	-10538
▁গায়ত্ৰী	-10539
▁গ্ৰন্থখন	-10540
▁গ্ৰন্থিৰ	-10541
▁চকুপানীৰ	-10542
▁চণ্ডীগড়	-10543
▁চিকমগলুৰ	-10544
▁চেট্টিনা	-10545
▁চেন্নাইৰ	-10546
▁জনগোষ্ঠী	-10547
▁জলসিঞ্চন	-10548
▁জাহাজখনৰ	-10549
▁জীৱনকালত	-10550
▁জুজুটছুৰ	-10551
▁তালিবানৰ	-10552
▁তৃতীয়খন	-10553
▁দয়ানন্দ	-10554
▁দুৰ্ঘটনা	-10555
▁দুৰ্নীতি	-10556
▁দেখুৱায়	-10557
▁দোস্তানা	-10558
▁দ্ৰাবিড়	-10559
▁ধৰ্মান্ত	-10560
▁নিউয়ৰ্ক	-10561
▁নিষ্কাশন	-10562
▁পাঞ্জাৱী	-10563
▁পুনৰুত্থ	-10564
▁পুলকেশিন	-10565
▁পৃষ্ঠাটো	-10566
▁পৃষ্ঠীয়	-10567
▁পেৰিয়াৰ	-10568
▁পৌৰৱসকলৰ	-10569
▁প্রকৃততে	-10570
▁প্রযোজনা	-10571
▁প্রস্তুত	-10572
▁প্ৰচেষ্ট	-10573
▁প্ৰতাৰণা	-10574
▁প্ৰথমবাৰ	-10575
▁প্ৰযোজিত	-10576
▁প্ৰেছিডে	-10577
▁পৰিক্ষেত	-10578
▁পৰিত্যাগ	-10579
▁পৰিপূৰ্ণ	-10580
▁পৰিমাণটো	-10581
▁পৰিয়ালক	-10582
▁পৰিসংখ্য	-10583
▁বস্তুবোৰ	-10584
▁বাওঁফালৰ	-10585
▁বাণিজ্যৰ	-10586
▁বাণীৱদ্ধ	-10587
▁বিজাপুৰৰ	-10588
▁বিদ্যমান	-10589
▁বিদ্যুতৰ	-10590
▁বিধ্বস্ত	-10591
▁বিশেষত্ব	-10592
▁বিশ্বাসী	-10593
▁বিষ্ণুৱে	-10594
▁বিসংগতিৰ	-10595
▁ব্ৰিটেইন	-10596
▁ভক্তসকলে	-10597
▁ভাইচেৰয়	-10598
▁ভূমিকম্প	-10599
▁ভৱিষ্যতে	-10600
▁মন্তব্যৰ	-10601
▁মাংগালোৰ	-10602
▁মাঙ্গালে	-10603
▁মাটিকালি	-10604
▁মানদণ্ডৰ	-10605
▁মানেকশ্ব	-10606
▁মালগুড়ী	-10607
▁মালভূমিত	-10608
▁মিডিয়াৰ	-10609
▁মুজাফ্ফৰ	-10610
▁মৃত্যুৱে	-10611
▁মেক্সিকো	-10612
▁মৰণোত্তৰ	-10613
▁যক্ষগানৰ	-10614
▁যুদ্ধবিৰ	-10615
▁লক্ষ্মীৰ	-10616
▁লণ্ডভণ্ড	-10617
▁শাসকসকলক	-10618
▁শিশুসকলক	-10619
▁শীতকালীন	-10620
▁শ্বানাৱা	-10621
▁শৰণাৰ্থী	-10622
▁সংমিশ্ৰণ	-10623
▁সমিতিয়ে	-10624
▁সম্বলপুৰ	-10625
▁সুপৰিচিত	-10626
▁সেইসমূহৰ	-10627
▁স্পষ্টকৈ	-10628
▁স্বশাসনৰ	-10629
▁স্বৰকম্প	-10630
▁সৰ্বকালৰ	-10631
▁হালধীয়া	-10632
▁হেৰুওৱাৰ	-10633
▁ৰক্তবাহী	-10634
▁ৰক্ষণাবে	-10635
▁ৰাজধানীত	-10636
▁ৰূপসমূহৰ	-10637
▁ৰেকৰ্ডিং	-10638
▁ৰেষ্টুৰে	-10639
সপ্তাহমানৰ	-10640
সম্বন্ধীয়	-10641
িচিয়েন্সি	-10642
োপাধ্যায়ৰ	-10643
▁অতিথিসকলৰ	-10644
▁অতিমাত্ৰা	-10645
▁অধিবক্তাই	-10646
▁অভিজ্ঞতাৰ	-10647
▁আকর্ষণীয়	-10648
▁আগবঢ়াবলৈ	-10649
▁আত্মহত্যা	-10650
▁আনন্দময়ী	-10651
▁আৰামদায়ক	-10652
▁ইংলেণ্ডলৈ	-10653
▁ইভেণ্টেৰে	-10654
▁উদ্দেশ্যত	-10655
▁উদ্দেশ্যৰ	-10656
▁উপমহাদেশত	-10657
▁উপাসনাস্থ	-10658
▁এলাহাবাদৰ	-10659
▁কাৰাগাৰলৈ	-10660
▁কিংবদন্তী	-10661
▁কেইবাবাৰো	-10662
▁কেৰিয়াৰত	-10663
▁ক্লিনিকেল	-10664
▁ক্ষতিসাধন	-10665
▁কৰ্মচাৰীৰ	-10666
▁কৰ্মজীৱনৰ	-10667
▁গায়কসকলৰ	-10668
▁গুৱাহাটীৰ	-10669
▁চেতনানাশক	-10670
▁জনসংখ্যাৰ	-10671
▁জনসাধাৰণক	-10672
▁জন্মগ্ৰহণ	-10673
▁জাহাঙ্গীৰ	-10674
▁ডিচেম্বৰৰ	-10675
▁ডিটেক্টিভ	-10676
▁তত্বাৱধান	-10677
▁দাদাচাহেব	-10678
▁দেখুৱাইছে	-10679
▁দেশদ্রোহী	-10680
▁দেশীয়কৰণ	-10681
▁নিদিয়াকৈ	-10682
▁নিশ্চয়কৈ	-10683
▁নিষ্ঠাৱান	-10684
▁নিৰুদ্দেশ	-10685
▁নিৰ্দেশিত	-10686
▁নিৰ্বাচনী	-10687
▁নুৰজাহানক	-10688
▁নুৰজাহানৰ	-10689
▁পত্নীসকলৰ	-10690
▁পশ্চিমবংগ	-10691
▁পিন্ধিবলৈ	-10692
▁পুডুচেৰীৰ	-10693
▁পুথিভঁৰাল	-10694
▁পোনপটীয়া	-10695
▁প্রচেষ্টা	-10696
▁প্রত্যক্ষ	-10697
▁প্রদর্শনী	-10698
▁প্রাসাদটো	-10699
▁প্ৰতিবাদত	-10700
▁প্ৰতিলিপি	-10701
▁প্ৰস্তাৱৰ	-10702
▁প্ৰাচীনতম	-10703
▁প্ৰায়বোৰ	-10704
▁প্ৰাসাদটো	-10705
▁পৰিচালনাৰ	-10706
▁পৰ্যবেক্ষ	-10707
▁ফেডাৰেচনৰ	-10708
▁বন্দুকধাৰ	-10709
▁বিমানবন্দ	-10710
▁বিশেষজ্ঞৰ	-10711
▁বিশ্বকাপত	-10712
▁বিশ্বকাপৰ	-10713
▁বিষয়সমূহ	-10714
▁ব্যয়বহুল	-10715
▁ব্ৰিটেইনৰ	-10716
▁ভিট্ৰিয়া	-10717
▁ভুক্তভোগী	-10718
▁মধ্যমীয়া	-10719
▁মধ্যৱৰ্তী	-10720
▁মহাদেশীয়	-10721
▁মাউণ্টেইন	-10722
▁মাঙ্গালোৰ	-10723
▁মাৰাঠাসকল	-10724
▁মিত্ৰজোঁট	-10725
▁মেক্সিকোৰ	-10726
▁যাদৃচ্ছিক	-10727
▁শিল্পকলাৰ	-10728
▁শুকুৰবাৰে	-10729
▁শ্বেইস্তা	-10730
▁শ্ৰেষ্ঠতম	-10731
▁সংখ্যাবোৰ	-10732
▁সংস্পৰ্শৰ	-10733
▁সদস্যসকলৰ	-10734
▁সমযোগিতাৰ	-10735
▁সম্পূর্ণৰ	-10736
▁সাপ্তাহিক	-10737
▁সামুদ্ৰিক	-10738
▁সামৰ্থ্যৰ	-10739
▁সেৱাসমূহৰ	-10740
▁সৈনিকসকলৰ	-10741
▁হেমাঞ্জিঅ	-10742
▁ৰাজকুমাৰক	-10743
▁ৰাজকুমাৰী	-10744
▁অনুসন্ধানত	-10745
▁অবিচ্ছেদ্য	-10746
▁অভয়াৰণ্যৰ	-10747
▁অভিব্যক্তি	-10748
▁ইভেণ্টসমূহ	-10749
▁কল্পকাহিনী	-10750
▁কাৰ্য্যকৰী	-10751
▁কেইবছৰমানৰ	-10752
▁কেইমাহমানৰ	-10753
▁ক্রান্তীয়	-10754
▁কৰ্তৃপক্ষক	-10755
▁খ্ৰীষ্টীয়	-10756
▁গান্ধীবাদী	-10757
▁গোলকোণ্ডাৰ	-10758
▁গোৱালিয়ৰৰ	-10759
▁চিকিৎসালয়	-10760
▁ছত্তীশগড়ৰ	-10761
▁ছাছানিয়ান	-10762
▁ছোৱালীজনীক	-10763
▁জনপ্রিয়তা	-10764
▁জিমনাষ্টিক	-10765
▁ডায়েবেটিক	-10766
▁তাৰাবাইয়ে	-10767
▁তীৰ্থযাত্ৰ	-10768
▁তেলেঙ্গানা	-10769
▁দুৰ্গৰক্ষী	-10770
▁দৃশ্যগ্ৰহণ	-10771
▁দ্বায়িত্ব	-10772
▁নাগৰিকসকলৰ	-10773
▁পশ্চিমবংগৰ	-10774
▁পাঠ্যক্ৰমত	-10775
▁পাণ্ডুলিপি	-10776
▁প্রাৰম্ভিক	-10777
▁প্ৰতিপক্ষই	-10778
▁প্ৰত্যেকটো	-10779
▁প্ৰত্যেকেই	-10780
▁প্ৰশিক্ষকে	-10781
▁পৰোক্ষভাৱে	-10782
▁পৰ্যটকসকলে	-10783
▁পৰ্যবেক্ষণ	-10784
▁বনাঞ্চলেৰে	-10785
▁বিন্দুসাৰৰ	-10786
▁বিশ্বাসঘাত	-10787
▁বৈশিষ্ট্যৰ	-10788
▁মঙ্গোলসকলে	-10789
▁মিত্ৰজোঁটৰ	-10790
▁লক্ষণসমূহৰ	-10791
▁লিখনিসমূহত	-10792
▁শিষ্টাচাৰৰ	-10793
▁সম্প্রসাৰণ	-10794
▁সাম্ৰাজ্যই	-10795
▁সিদ্ধান্তক	-10796
▁সেনাধ্যক্ষ	-10797
▁সেনাপতিয়ে	-10798
▁স্বাস্থ্যৰ	-10799
▁হত্যাকাণ্ড	-10800
▁হিন্দুসকলে	-10801
▁ৰাজকুমাৰীক	-10802
▁ৰাজপ্ৰতিনি	-10803
▁ৰাজেন্দ্ৰই	-10804
▁অনুগামীসকলে	-10805
▁অনুজ্ঞাপত্র	-10806
▁অনুষ্ঠানটোৰ	-10807
▁অভয়াৰণ্যখন	-10808
▁অৰ্থনীতিবিদ	-10809
▁ইলেক্ট্ৰনিক	-10810
▁কাৰিকৰীভাৱে	-10811
▁ক্ষমতাচ্যুত	-10812
▁চিত্ৰনাট্যৰ	-10813
▁তীর্থযাত্রী	-10814
▁দায়িত্বভাৰ	-10815
▁দ্বীপপুঞ্জত	-10816
▁নিশ্চিতভাৱে	-10817
▁নিৰ্ভৰযোগ্য	-10818
▁পঞ্জীয়নকৃত	-10819
▁পাৰিলেহেতেন	-10820
▁প্ৰতিষ্ঠানৰ	-10821
▁পৰিচালকসকলৰ	-10822
▁পৰিস্থিতিটো	-10823
▁পৰ্বতাম্মাই	-10824
▁বাদ্যযন্ত্ৰ	-10825
▁বিমানবন্দৰৰ	-10826
▁ব্যৱস্থাপনা	-10827
▁ব্ৰিটিছসকলে	-10828
▁ব্ৰিটিছসকলৰ	-10829
▁মধ্যপ্ৰদেশৰ	-10830
▁লক্ষ্যসমূহৰ	-10831
▁শ্বাহাজীয়ে	-10832
▁ষ্টার্ডাষ্ট	-10833
▁সংস্কৰণসমূহ	-10834
▁সম্প্ৰসাৰণৰ	-10835
▁সাম্প্ৰদায়	-10836
▁সুৰক্ষামূলক	-10837
▁সেনাপতিসকলৰ	-10838
▁স্থায়ীভাৱে	-10839
▁স্বেচ্ছাসেৱ	-10840
▁ৰাজহুৱাভাৱে	-10841
▁ৰাষ্ট্ৰপতিৰ	-10842
প্ৰধানমন্ত্ৰী	-10843
▁অন্তঃক্ষেত্র	-10844
▁এষ্টিগমেটিজম	-10845
▁খ্রীষ্টাব্দত	-10846
▁গন্তব্যস্থান	-10847
▁জলপ্ৰপাতসমূহ	-10848
▁পাৰিলেহেঁতেন	-10849
▁পুনৰুজ্জীৱিত	-10850
▁বন্দুকধাৰীজন	-10851
▁বিদ্ৰোহীসকলৰ	-10852
▁বিমানবন্দৰটো	-10853
▁বৃহস্পতিবাৰে	-10854
▁ব্যৱস্থাপনাৰ	-10855
▁শ্ৰদ্ধাঞ্জলি	-10856
▁শ্ৰেণীবিভাজন	-10857
▁সম্পূৰ্ণভাৱে	-10858
▁অষ্ট্ৰেলিয়াত	-10859
▁তাৎক্ষণিকভাৱে	-10860
▁নিৰ্দেশনাসমূহ	-10861
▁পঞ্জীয়নভুক্ত	-10862
▁প্ৰত্যক্ষদৰ্শ	-10863
▁ৰাষ্ট্ৰপতিয়ে	-10864
▁কনজাংটিভাইটিছৰ	-10865
▁প্ৰতিদ্বন্দ্বী	-10866
▁প্ৰতিযোগিতাখনৰ	-10867
▁প্ৰতিৰক্ষামূলক	-10868
▁বিদ্যালয়সমূহত	-10869
▁বৈচিত্ৰ্যপূৰ্ণ	-10870
▁শিক্ষাৰ্থীসকলক	-10871
▁ব্যৱহাৰকাৰীসকলে	-10872
অৱ	-10873
ওন	-10874
কম	-10875
কৃ	-10876
গড	-10877
গণ	-10878
ঘট	-10879
চৌ	-10880
ছী	-10881
ঠৰ	-10882
ণু	-10883
ণে	-10884
দম	-10885
ধে	-10886
ফু	-10887
মজ	-10888
মৌ	-10889
ম্	-10890
লু	-10891
শি	-10892
হন	-10893
হল	-10894
ূম	-10895
োড	-10896
োস	-10897
ৌধ	-10898
২৫	-10899
ুধ	-10900
৩২	-10901
৩৫	-10902
৩৮	-10903
৪৩	-10904
৭৪	-10905
৮২	-10906
৮৪	-10907
ৱি	-10908
"")	-10909
ঁটি	-10910
ঁয়	-10911
ংকট	-10912
ংগী	-10913
ংশৰ	-10914
উইং	-10915
এনে	-10916
ওনা	-10917
কলে	-10918
কহে	-10919
কাট	-10920
কাণ	-10921
কীল	-10922
কেএ	-10923
কোৱ	-10924
গনি	-10925
গাহ	-10926
গুই	-10927
চতু	-10928
চনে	-10929
চাপ	-10930
চিৰ	-10931
চোন	-10932
চৰা	-10933
ছাল	-10934
ছেন	-10935
ছৰা	-10936
জাল	-10937
জেক	-10938
জৰত	-10939
টান	-10940
টিৰ	-10941
ড়ক	-10942
ডান	-10943
ডেফ	-10944
ণ্ণ	-10945
তৃত	-10946
তৰণ	-10947
থিট	-10948
থেল	-10949
থ্ল	-10950
দাই	-10951
দীপ	-10952
দোষ	-10953
ধনৰ	-10954
ধীন	-10955
নাগ	-10956
নীত	-10957
পটো	-10958
পাট	-10959
পিৰ	-10960
বিত	-10961
বেন	-10962
বোধ	-10963
ভাক	-10964
ভাব	-10965
ভিল	-10966
ভেজ	-10967
ভ্য	-10968
ভ্ৰ	-10969
ভৱন	-10970
মছৰ	-10971
মলৰ	-10972
মাপ	-10973
মিক	-10974
মুৰ	-10975
মোদ	-10976
মোৰ	-10977
য়ী	-10978
র্ফ	-10979
র্ল	-10980
লটে	-10981
লপথ	-10982
লেৰ	-10983
শেখ	-10984
ষদৰ	-10985
সংস	-10986
সাং	-10987
সাহ	-10988
সীৰ	-10989
সুঁ	-10990
সূৰ	-10991
সৰণ	-10992
হুৰ	-10993
হৃদ	-10994
হৰৰ	-10995
াঁত	-10996
াইং	-10997
াইচ	-10998
াইপ	-10999
াইশ	-11000
াউথ	-11001
াগম	-11002
াগল	-11003
াগা	-11004
াচু	-11005
াছৰ	-11006
াতৰ	-11007
ানম	-11008
ানৈ	-11009
াবত	-11010
িঙত	-11011
িচৰ	-11012
িটল	-11013
িণী	-11014
িনহ	-11015
িপল	-11016
িবক	-11017
িশী	-11018
ীষা	-11019
ীৰা	-11020
ুচি	-11021
ুটা	-11022
ুটৰ	-11023
ুনক	-11024
ুপী	-11025
ুলন	-11026
ূণৰ	-11027
ূমি	-11028
ৃহত	-11029
েএছ	-11030
েকট	-11031
েখন	-11032
েগী	-11033
েৰক	-11034
েৰা	-11035
োকৰ	-11036
োগৰ	-11037
োদৰ	-11038
োপল	-11039
োলন	-11040
োলৰ	-11041
োৰী	-11042
্গা	-11043
্চী	-11044
্টছ	-11045
্টো	-11046
্নৰ	-11047
্যম	-11048
্ৰত	-11049
্ৰন	-11050
১টা	-11051
ৰতা	-11052
ৰতো	-11053
ৰাচ	-11054
ৰাছ	-11055
ৰিব	-11056
ৱলৈ	-11057
ৱাট	-11058
ৱাস	-11059
ৱাহ	-11060
ৱীদ	-11061
ৱৰী	-11062
▁অৰ	-11063
▁আণ	-11064
▁উড	-11065
▁এগ	-11066
▁কঁ	-11067
▁কভ	-11068
▁খং	-11069
▁খৃ	-11070
▁ছৌ	-11071
▁ডু	-11072
▁তো	-11073
▁থা	-11074
▁দফ	-11075
▁নট	-11076
▁নব	-11077
▁নূ	-11078
▁পী	-11079
▁পৌ	-11080
▁বগ	-11081
▁বট	-11082
▁বণ	-11083
▁মড	-11084
▁যা	-11085
▁লঘ	-11086
▁শক	-11087
▁সব	-11088
▁হম	-11089
▁৪৮	-11090
▁৫৩	-11091
▁৬৩	-11092
▁৬৭	-11093
▁৬৯	-11094
▁৮৫	-11095
▁৮৬	-11096
▁৯৬	-11097
▁৯৯	-11098
ংকাই	-11099
সৌধ	-11100
ংকিল	-11101
ংকৃত	-11102
অধিক	-11103
আমাৰ	-11104
আমেৰ	-11105
আলোচ	-11106
আৰএফ	-11107
এইটো	-11108
এইডছ	-11109
এনচি	-11110
এফপি	-11111
কতাৰ	-11112
কলাঁ	-11113
কালৈ	-11114
কিঙৰ	-11115
কেএফ	-11116
কৌশল	-11117
ক্ষক	-11118
ক্ৰছ	-11119
খনতে	-11120
খনেই	-11121
খোৱা	-11122
গুটি	-11123
গুৰু	-11124
গ্ৰে	-11125
গৰাই	-11126
ঙ্গে	-11127
চিবে	-11128
চীনে	-11129
চেৰা	-11130
চ্ছত	-11131
ছন্দ	-11132
ছফুল	-11133
ছাইড	-11134
ছাইম	-11135
ছিৰে	-11136
ছেছে	-11137
ছোথো	-11138
জিআৰ	-11139
জোৰা	-11140
জ্জন	-11141
জ্ঞা	-11142
টাইল	-11143
টিভি	-11144
টোৰে	-11145
ট্ৰে	-11146
ড়িত	-11147
ডালৰ	-11148
ডিটি	-11149
ডেনে	-11150
ণ্টক	-11151
ণ্টৰ	-11152
তাৰণ	-11153
ত্রু	-11154
ত্রৰ	-11155
ত্ৰৰ	-11156
থ্লন	-11157
দস্য	-11158
দানি	-11159
দাৰী	-11160
দিশা	-11161
দূৰণ	-11162
দেৱৰ	-11163
দ্যা	-11164
ধানৰ	-11165
ধুৰী	-11166
ধ্বজ	-11167
নগৰত	-11168
নগৰৰ	-11169
নাছৰ	-11170
ন্টা	-11171
ন্টো	-11172
ন্মত	-11173
পাচল	-11174
পাৰা	-11175
পিয়	-11176
পূবৰ	-11177
পোছা	-11178
পোৱা	-11179
প্ৰে	-11180
ফায়	-11181
বছৰে	-11182
বাইল	-11183
বামত	-11184
বাহত	-11185
বাহৰ	-11186
বুলি	-11187
বেলি	-11188
ব্যত	-11189
ব্ৰে	-11190
বৰ্গ	-11191
ভদ্ৰ	-11192
ভাগৰ	-11193
মন্ত	-11194
মহাৰ	-11195
মাছৰ	-11196
মানক	-11197
ম্যৰ	-11198
য়কৰ	-11199
দোষী	-11200
য়াই	-11201
যোৱা	-11202
র্কট	-11203
র্তি	-11204
লজাৰ	-11205
শ্মা	-11206
শ্যক	-11207
ষেকৰ	-11208
ষ্পী	-11209
ষ্মা	-11210
সকলো	-11211
সাদৰ	-11212
সেৱা	-11213
স্বী	-11214
হাৰ্	-11215
াকৰণ	-11216
াখাপ	-11217
াচ্ছ	-11218
াজাই	-11219
াজিত	-11220
াটুৰ	-11221
াণিক	-11222
াত্য	-11223
ানীজ	-11224
াপনত	-11225
াফিৰ	-11226
াব্ল	-11227
ামণি	-11228
ামাত	-11229
ামাল	-11230
ামীৰ	-11231
ামেড	-11232
ায়া	-11233
ায়ৰ	-11234
ালাচ	-11235
ালীত	-11236
াসাৰ	-11237
াৰিং	-11238
াৰিজ	-11239
াৰেট	-11240
াৰেন	-11241
াৰোপ	-11242
িউডৰ	-11243
িকাই	-11244
িচিট	-11245
িচিৰ	-11246
িজ্ঞ	-11247
িটিক	-11248
িনাই	-11249
িনাৰ	-11250
িন্ছ	-11251
িপ্ৰ	-11252
িবাহ	-11253
িবাৰ	-11254
িলাছ	-11255
িলিপ	-11256
ীড়ন	-11257
ীস্ব	-11258
ুটিং	-11259
ুটিক	-11260
ুডিঅ	-11261
ুণ্ণ	-11262
ুদ্ধ	-11263
ুনাক	-11264
ুৱাৰ	-11265
ূনতম	-11266
ূর্ত	-11267
ৃতিত	-11268
েকিক	-11269
েচনৰ	-11270
েলিম	-11271
েল্ল	-11272
োগিক	-11273
োজাত	-11274
োটাধ	-11275
োটোক	-11276
োবাৰ	-11277
োভাক	-11278
োভিত	-11279
োশ্ব	-11280
োস্ল	-11281
্টিক	-11282
্টুপ	-11283
্তলা	-11284
্তেও	-11285
্নাৰ	-11286
্নীৰ	-11287
্বাব	-11288
্যাদ	-11289
্ৰিজ	-11290
্ৰিণ	-11291
্ৰিৰ	-11292
০০টা	-11293
১৯৯৯	-11294
২০০১	-11295
ৰঙ্গ	-11296
ৰাইট	-11297
ৰাজন	-11298
ৰাডু	-11299
ৰামম	-11300
ৰামৰ	-11301
ৰিটি	-11302
ৰেখা	-11303
ৰোপণ	-11304
ৰ্গা	-11305
ৰ্ছৰ	-11306
ৰ্দশ	-11307
ৰ্ভৰ	-11308
ৰ্মা	-11309
ৰ্শৰ	-11310
ৰ্ষত	-11311
ৱগড়	-11312
ৱতাৰ	-11313
ৱদ্ধ	-11314
ৱর্ত	-11315
ৱেইট	-11316
ৱেশত	-11317
▁(""	-11318
▁অফ্	-11319
▁আঁঠ	-11320
▁আখৰ	-11321
▁আছফ	-11322
▁আতা	-11323
▁আদন	-11324
▁আনে	-11325
▁আপড	-11326
▁আপে	-11327
▁আবু	-11328
▁আলজ	-11329
▁আৰা	-11330
▁ইনড	-11331
▁ইনফ	-11332
▁ইনভ	-11333
▁ইন্	-11334
▁ইবন	-11335
▁উমৈ	-11336
▁একন	-11337
▁এদল	-11338
▁এফএ	-11339
▁ওপৰ	-11340
▁কণী	-11341
▁কলহ	-11342
▁কিগ	-11343
▁কেছ	-11344
▁কোণ	-11345
▁খাৰ	-11346
▁খুল	-11347
▁গজে	-11348
▁গাধ	-11349
▁গাফ	-11350
▁গাব	-11351
▁গিৰ	-11352
▁গুগ	-11353
▁গেদ	-11354
▁গেল	-11355
▁গোঁ	-11356
▁গৰখ	-11357
▁গৰম	-11358
▁ঘটা	-11359
▁ঘটি	-11360
▁চাং	-11361
▁চাও	-11362
▁চিম	-11363
▁চুক	-11364
▁চোপ	-11365
▁চোহ	-11366
▁ছটা	-11367
▁ছাদ	-11368
▁ছান	-11369
▁ছিম	-11370
▁ছোভ	-11371
▁জিঅ	-11372
▁জুখ	-11373
▁জেক	-11374
▁জেজ	-11375
▁জোন	-11376
▁জৰি	-11377
▁টডৰ	-11378
▁টিচ	-11379
▁টুল	-11380
▁ডিম	-11381
▁ডেই	-11382
▁ডেল	-11383
▁ঢেঁ	-11384
▁তাহ	-11385
▁তৃণ	-11386
▁তৰা	-11387
▁দভা	-11388
▁দশম	-11389
▁দীন	-11390
▁দৰৱ	-11391
▁নকল	-11392
▁নলী	-11393
▁নীল	-11394
▁নেগ	-11395
▁নেছ	-11396
▁নৱম	-11397
▁পকা	-11398
▁পর্	-11399
▁পাউ	-11400
▁পিল	-11401
▁ফাথ	-11402
▁ফেই	-11403
▁ফেৰ	-11404
▁ফোঁ	-11405
▁বতৰ	-11406
▁বমি	-11407
▁বলী	-11408
▁বলৰ	-11409
▁বাচ	-11410
▁বুক	-11411
▁বেস	-11412
▁বোক	-11413
▁বৰে	-11414
▁ভজা	-11415
▁ভনী	-11416
▁ভাউ	-11417
▁ভাস	-11418
▁ভিভ	-11419
▁ভেদ	-11420
▁ভেৰ	-11421
▁ভোক	-11422
▁মগধ	-11423
▁মছল	-11424
▁মুদ	-11425
▁মৃৎ	-11426
▁মেড	-11427
▁মেম	-11428
▁মোল	-11429
▁মৌৰ	-11430
▁যতি	-11431
▁য়শ	-11432
▁যোশ	-11433
▁লাই	-11434
▁লাউ	-11435
▁লাও	-11436
▁লিজ	-11437
▁লিভ	-11438
▁লুৱ	-11439
▁লেট	-11440
▁লেভ	-11441
▁লেহ	-11442
▁লোভ	-11443
▁শাহ	-11444
▁শৈৱ	-11445
▁ষাঁ	-11446
▁সিজ	-11447
▁সিপ	-11448
▁সীত	-11449
▁সুঁ	-11450
▁সৰহ	-11451
▁হওঁ	-11452
▁হাদ	-11453
▁হুঁ	-11454
▁হুল	-11455
▁১০৫	-11456
▁১০৭	-11457
▁১১০	-11458
▁১৫০	-11459
▁১৬৪	-11460
▁২খন	-11461
▁২৫০	-11462
▁২৬০	-11463
▁৬টা	-11464
▁ৰঘু	-11465
▁ৰজন	-11466
▁ৰফি	-11467
▁ৰাছ	-11468
▁ৰুম	-11469
▁ৰেগ	-11470
▁ৰোজ	-11471
▁ৰোম	-11472
▁ৱাক	-11473
▁ৱাট	-11474
▁ৱাল	-11475
▁ৱিজ	-11476
▁ৱেৰ	-11477
ঁজাৰু	-11478
কনাৰৰ	-11479
কভাৱে	-11480
কান্ত	-11481
কাশ্ম	-11482
কাৰ্ড	-11483
কাৱাজ	-11484
ক্ষ্ণ	-11485
ক্ৰমত	-11486
খিনিত	-11487
খ্যাৰ	-11488
গড়লৈ	-11489
গাঁৱৰ	-11490
গিৰিত	-11491
গীতটো	-11492
গোপাল	-11493
ঙ্গাৰ	-11494
চর্চা	-11495
চালুক	-11496
চাৰীক	-11497
চাৰ্ট	-11498
চোৱাত	-11499
চ্ছেদ	-11500
জামান	-11501
জিটিভ	-11502
জিৰাৰ	-11503
ঞ্চাই	-11504
ঞ্চাৰ	-11505
ঞ্জনে	-11506
ঞ্জীৰ	-11507
টাউনত	-11508
টোৱেও	-11509
ডগলেগ	-11510
ডসমূহ	-11511
ণমানি	-11512
ণ্টিন	-11513
ণ্ডাই	-11514
তঃস্ফ	-11515
তীয়ে	-11516
দাৱৰী	-11517
দীয়ে	-11518
দ্বয়	-11519
ধৰ্মী	-11520
নিষ্ট	-11521
ন্ত্য	-11522
ন্যতম	-11523
ন্সিৰ	-11524
পক্ষে	-11525
পট্টি	-11526
পত্ৰত	-11527
পালনৰ	-11528
পিয়ল	-11529
পুত্র	-11530
পেনিং	-11531
প্তাৰ	-11532
প্ৰভা	-11533
বালিৰ	-11534
বাহিক	-11535
বিভাজ	-11536
বিয়া	-11537
বেশনৰ	-11538
বৰ্ণত	-11539
বৰ্মন	-11540
ভাৰ্চ	-11541
মনীয়	-11542
মবক্ক	-11543
মালাই	-11544
মিটাৰ	-11545
মূত্র	-11546
ম্বৰৰ	-11547
য়াৱহ	-11548
য়িঙৰ	-11549
য়েহে	-11550
যাত্র	-11551
র্মান	-11552
র্য্য	-11553
শাজনক	-11554
ষ্টনত	-11555
সভালৈ	-11556
সময়ৰ	-11557
স্তাদ	-11558
স্থলত	-11559
স্বজন	-11560
াইকেই	-11561
াইজাৰ	-11562
াইনাৰ	-11563
াইবোৰ	-11564
াগৰাক	-11565
াঙ্কন	-11566
াজিলে	-11567
াতকৈও	-11568
াদেৱী	-11569
ানেৰৰ	-11570
ান্তে	-11571
াপুৰম	-11572
াপ্পা	-11573
াবাইক	-11574
াম্পা	-11575
াম্বৰ	-11576
াম্মা	-11577
াসম্প	-11578
াৰালৈ	-11579
াৰেৰে	-11580
াৰ্ডে	-11581
াৱলীত	-11582
াৱশেষ	-11583
িউটাৰ	-11584
িগেডৰ	-11585
িচিআই	-11586
িন্দৰ	-11587
িবায়	-11588
িবিউন	-11589
িবোৰক	-11590
িবোৰৰ	-11591
িব্ৰু	-11592
িয়াং	-11593
িয়াপ	-11594
িয়েন	-11595
িল্লা	-11596
ীড়িত	-11597
ীয়েই	-11598
ুগালৰ	-11599
ুটোৱে	-11600
ুয়াৰ	-11601
েণ্টত	-11602
েলাইট	-11603
্নতাত	-11604
্বলিং	-11605
্যতাৰ	-11606
্রীয়	-11607
্ৰাজক	-11608
্ৰিচন	-11609
ৰাজ্য	-11610
ৰাণিক	-11611
ৰাণীৰ	-11612
ৰাময়	-11613
ৰ্ছিদ	-11614
ৰ্দশী	-11615
ৱর্তন	-11616
ৱালাৰ	-11617
▁অংশই	-11618
▁অইলৰ	-11619
▁অকলে	-11620
▁অঙ্গ	-11621
▁অচিন	-11622
▁অছুত	-11623
▁অজয়	-11624
▁অণ্ট	-11625
▁অনাথ	-11626
▁অপুৰ	-11627
▁অয়ন	-11628
▁অলপো	-11629
▁অহিব	-11630
▁আঁৰত	-11631
▁আইনত	-11632
▁আক্ষ	-11633
▁আগলৈ	-11634
▁আঙুল	-11635
▁আজাৰ	-11636
▁আজিজ	-11637
▁আদিও	-11638
▁আনজন	-11639
▁আমনি	-11640
▁আয়ত	-11641
▁আয়ে	-11642
▁আর্থ	-11643
▁আলমে	-11644
▁আলাস	-11645
▁আৰবী	-11646
▁আৰোগ	-11647
▁আৰ্ম	-11648
▁ইউপি	-11649
▁ইকটা	-11650
▁ইটাৰ	-11651
▁ইণ্ট	-11652
▁উইলছ	-11653
▁উকীল	-11654
▁উক্ত	-11655
▁উগ্র	-11656
▁উজবে	-11657
▁উদাৰ	-11658
▁উদ্ধ	-11659
▁উলুগ	-11660
▁উৎসৰ	-11661
▁এংলো	-11662
▁এইকে	-11663
▁একচন	-11664
▁এজনে	-11665
▁এটাই	-11666
▁এটাও	-11667
▁এনজি	-11668
▁এপাত	-11669
▁ঐক্য	-11670
▁ওকাল	-11671
▁ওচৰে	-11672
▁কচ্ছ	-11673
▁কঞ্জ	-11674
▁কটাৰ	-11675
▁কথাৰ	-11676
▁কমিছ	-11677
▁কমেই	-11678
▁কল্ল	-11679
▁কাইফ	-11680
▁কাকো	-11681
▁কাচি	-11682
▁কাণৰ	-11683
▁কাপৰ	-11684
▁কামে	-11685
▁কিমি	-11686
▁কিলা	-11687
▁কীৰে	-11688
▁কুলী	-11689
▁কেশৱ	-11690
▁কেৰল	-11691
▁কৈৰা	-11692
▁কোঁচ	-11693
▁কোটি	-11694
▁কোণত	-11695
▁কোমল	-11696
▁ক্যা	-11697
▁কৰুণ	-11698
▁খননৰ	-11699
▁খাঁৰ	-11700
▁খেদা	-11701
▁গঠনত	-11702
▁গঠনৰ	-11703
▁গড়ে	-11704
▁গড়ৰ	-11705
▁গতিত	-11706
▁গয়া	-11707
▁গহ্ব	-11708
▁গাংগ	-11709
▁গাৰো	-11710
▁গিবন	-11711
▁গীতত	-11712
▁গুড়	-11713
▁গুলি	-11714
▁গেংল	-11715
▁গৌৰৱ	-11716
▁ঘড়ী	-11717
▁ঘণ্ট	-11718
▁ঘুৰী	-11719
▁ঘেঁহ	-11720
▁ঘোষণ	-11721
▁চতুৰ	-11722
▁চাৰে	-11723
▁চিপি	-11724
▁ছবিও	-11725
▁ছাউথ	-11726
▁ছিনড	-11727
▁জনাব	-11728
▁জয়া	-11729
▁জিংক	-11730
▁জেৰী	-11731
▁জোৰে	-11732
▁জৌহৰ	-11733
▁জৰ্জ	-11734
▁টিকা	-11735
▁টেলি	-11736
▁তাতে	-11737
▁তামৰ	-11738
▁তালৰ	-11739
▁ত্বৰ	-11740
▁দয়া	-11741
▁দশৰথ	-11742
▁দীপম	-11743
▁দুদু	-11744
▁দুপৰ	-11745
▁দোলন	-11746
▁ধৃতম	-11747
▁ধৰোঁ	-11748
▁নথিভ	-11749
▁নহওক	-11750
▁নাইক	-11751
▁নাইজ	-11752
▁নামগ	-11753
▁নামে	-11754
▁নিধি	-11755
▁নিৰা	-11756
▁নেটত	-11757
▁নেতি	-11758
▁নেতৃ	-11759
▁পইচা	-11760
▁পকেট	-11761
▁পতাত	-11762
▁পর্ত	-11763
▁পলাত	-11764
▁পাইপ	-11765
▁পাটল	-11766
▁পাতল	-11767
▁পানহ	-11768
▁পাবৰ	-11769
▁পামত	-11770
▁পাশে	-11771
▁পুনঃ	-11772
▁পুৰব	-11773
▁পুৰী	-11774
▁পূবত	-11775
▁পোনে	-11776
▁পোহৰ	-11777
▁পোৰা	-11778
▁প্ৰভ	-11779
▁প্ৰল	-11780
▁পৰ্ণ	-11781
▁ফলতো	-11782
▁ফিটা	-11783
▁ফুটৰ	-11784
▁ফুলা	-11785
▁ফেলু	-11786
▁ফ্লপ	-11787
▁বংশই	-11788
▁বংশক	-11789
▁বঙ্গ	-11790
▁বধিৰ	-11791
▁বনাই	-11792
▁বনাব	-11793
▁বাইৰ	-11794
▁বাঘৰ	-11795
▁বাটত	-11796
▁বাবু	-11797
▁বামন	-11798
▁বিতা	-11799
▁বিমল	-11800
▁বিষৰ	-11801
▁বেদৰ	-11802
▁বেয়	-11803
▁ব্যব	-11804
▁ব্লু	-11805
▁বৰোদ	-11806
▁বৰ্খ	-11807
▁ভাটৰ	-11808
▁ভাবি	-11809
▁ভৰিত	-11810
▁ভৱনত	-11811
▁মজুত	-11812
▁মধুব	-11813
▁মনোজ	-11814
▁মনোম	-11815
▁মনোহ	-11816
▁মস্ত	-11817
▁মহাস	-11818
▁মহেশ	-11819
▁মাকক	-11820
▁মাতি	-11821
▁মাধো	-11822
▁মানস	-11823
▁মালৱ	-11824
▁মাৰ্	-11825
▁মীনা	-11826
▁মৃদু	-11827
▁মেকম	-11828
▁মেহে	-11829
▁মেৰা	-11830
▁মৰাৰ	-11831
▁যাদৱ	-11832
▁লওঁক	-11833
▁লবলৈ	-11834
▁লাইক	-11835
▁লাইট	-11836
▁লাজৰ	-11837
▁লাৰা	-11838
▁লিংক	-11839
▁লিখি	-11840
▁লীনা	-11841
▁লেহত	-11842
▁শংকু	-11843
▁শক্ত	-11844
▁শীতল	-11845
▁শুজা	-11846
▁শোকৰ	-11847
▁শ্বি	-11848
▁সংকট	-11849
▁সংকী	-11850
▁সজাই	-11851
▁সপোন	-11852
▁সহসা	-11853
▁সাঁচ	-11854
▁সিংঘ	-11855
▁সুনি	-11856
▁সুৰে	-11857
▁সূচক	-11858
▁সূতা	-11859
▁সোঁত	-11860
▁স্কে	-11861
▁স্থল	-11862
▁হাঁহ	-11863
▁হামি	-11864
▁হাৰৰ	-11865
▁হিলছ	-11866
▁হৰ্ণ	-11867
▁১০টা	-11868
▁১১জন	-11869
▁১২৯১	-11870
▁১৩জন	-11871
▁১৩০৬	-11872
▁১৫জন	-11873
▁১৫৮৬	-11874
▁১৬০৮	-11875
▁১৬২৭	-11876
▁১৬৫৯	-11877
▁১৬৮০	-11878
▁১৭২০	-11879
▁১৭৪০	-11880
▁১৭৪৯	-11881
▁১৭৫৮	-11882
▁১৭৫৯	-11883
▁১৭৬৫	-11884
▁১৭৬৭	-11885
▁১৭৬৮	-11886
▁১৭৮২	-11887
▁১৭৮৪	-11888
▁১৭৮৭	-11889
▁১৮টা	-11890
▁১৮৩৩	-11891
▁১৮৬৬	-11892
▁১৯জন	-11893
▁১৯১০	-11894
▁১৯১২	-11895
▁১৯২৩	-11896
▁১৯২৪	-11897
▁১৯২৮	-11898
▁১৯৩৯	-11899
▁১৯৬৮	-11900
▁২০খন	-11901
▁৫০০০	-11902
▁ৰখাই	-11903
▁ৰপ্ত	-11904
▁ৰয়ে	-11905
▁ৰাঘৱ	-11906
▁ৰাজত	-11907
▁ৰিলে	-11908
▁ৰুলছ	-11909
▁ৰেংক	-11910
▁ৰেমন	-11911
▁ৰোগী	-11912
▁ৰোপণ	-11913
▁ৰোশন	-11914
▁ৰৱিক	-11915
ংকাৰিক	-11916
কনিষ্ঠ	-11917
কোত্তৰ	-11918
কোৱালি	-11919
ক্ষমতা	-11920
চ্ছতাৰ	-11921
চৰকাৰী	-11922
ছোৱালী	-11923
জাজিৰা	-11924
ণিলৈকে	-11925
ণ্ডিনা	-11926
তুৰ্কী	-11927
দাৱালা	-11928
দীসকলে	-11929
দ্বীপত	-11930
দ্বীপৰ	-11931
ন্দ্রৰ	-11932
পাচলিৰ	-11933
প্রায়	-11934
প্ৰকাৰ	-11935
পৰায়ণ	-11936
ফুটুকী	-11937
বন্দীৰ	-11938
বাহিনী	-11939
বিধানৰ	-11940
বিন্দৰ	-11941
বিভাজন	-11942
বিভূষণ	-11943
বৰ্ধনৰ	-11944
ভূমিলৈ	-11945
ভ্ৰষ্ট	-11946
মন্ত্ৰ	-11947
মাস্পে	-11948
মাৰাঠা	-11949
মুল্কক	-11950
মেণ্টৰ	-11951
ম্বলুৰ	-11952
যুদ্ধত	-11953
যোজনাৰ	-11954
শিল্পৰ	-11955
শীলতাৰ	-11956
শ্বাহী	-11957
সাধাৰণ	-11958
সামৰিক	-11959
স্তম্ভ	-11960
স্থাপন	-11961
াচুছেট	-11962
াদায়ক	-11963
ান্তিৰ	-11964
ান্ত্র	-11965
ান্দ্ৰ	-11966
াপানীৰ	-11967
াবাদাম	-11968
ামাণিক	-11969
াম্মাদ	-11970
াল্লুৰ	-11971
াহ্বান	-11972
াৰসকলে	-11973
াৰ্জীৰ	-11974
িটিক্স	-11975
িতাখনত	-11976
িয়ায়	-11977
িয়ালৈ	-11978
িয়ালৰ	-11979
িয়াৰৰ	-11980
ুট্টিৰ	-11981
েখনীয়	-11982
েণ্টিক	-11983
েণ্টেল	-11984
েশ্যনৰ	-11985
্ৰিণ্ট	-11986
ৰাউণ্ড	-11987
ৰাজ্যৰ	-11988
ৰাত্ৰি	-11989
ৱৰ্তনৰ	-11990
▁অঞ্জন	-11991
▁অটিজম	-11992
▁অপহৃত	-11993
▁অপ্চন	-11994
▁অভাৰত	-11995
▁অমৃতস	-11996
▁অমৰীশ	-11997
▁অষ্টা	-11998
▁অসম্প	-11999
▁অহিংস	-12000
▁অৱতাৰ	-12001
▁আঁচনি	-12002
▁আঁতৰৰ	-12003
▁আগ্ৰা	-12004
▁আঙুলি	-12005
▁আজহাৰ	-12006
▁আণৱিক	-12007
▁আধাৰত	-12008
▁আনটোৰ	-12009
▁আনবোৰ	-12010
▁আনিলে	-12011
▁আবেলি	-12012
▁আশাৰে	-12013
▁আহিলে	-12014
▁ইকবাল	-12015
▁ইৰাকী	-12016
▁ইৰাণী	-12017
▁উদগনি	-12018
▁উদঙাই	-12019
▁উপনগৰ	-12020
▁উলম্ব	-12021
▁এংকিল	-12022
▁এইয়া	-12023
▁একগোট	-12024
▁একেখন	-12025
▁এডোখৰ	-12026
▁এণ্টি	-12027
▁ওপৰতে	-12028
▁ওভতাই	-12029
▁ককাদে	-12030
▁কটোৱা	-12031
▁কনৌজৰ	-12032
▁কমেডী	-12033
▁কয়দী	-12034
▁কর্কট	-12035
▁কলম্ব	-12036
▁কাঁচৰ	-12037
▁কাইলৈ	-12038
▁কাকতত	-12039
▁কাকতৰ	-12040
▁কাদেৰ	-12041
▁কানাড	-12042
▁কান্ন	-12043
▁কাফুৰ	-12044
▁কার্ড	-12045
▁কালিদ	-12046
▁কাৰ্ব	-12047
▁কাৰ্ল	-12048
▁কৃষকৰ	-12049
▁কেন্স	-12050
▁কোৰাণ	-12051
▁কোৱেল	-12052
▁কৌশলে	-12053
▁ক্ষয়	-12054
▁ক্ৰমে	-12055
▁ক্ৰিঅ	-12056
▁ক্ৰিছ	-12057
▁কৰোঁত	-12058
▁কৰ্পছ	-12059
▁খণ্ডই	-12060
▁খণ্ডৰ	-12061
▁খাবলৈ	-12062
▁খোখাৰ	-12063
▁গণনাৰ	-12064
▁গতিৰে	-12065
▁গাদ্দ	-12066
▁গাবলৈ	-12067
▁গাৰ্ড	-12068
▁গুড়ি	-12069
▁গুল্ম	-12070
▁গেইমত	-12071
▁গেৰেজ	-12072
▁গোকাক	-12073
▁গোধৰা	-12074
▁গোপাল	-12075
▁গ্রহণ	-12076
▁গ্রীক	-12077
▁গ্ৰাফ	-12078
▁গ্ৰেড	-12079
▁গ্ৰেন	-12080
▁ঘটিছে	-12081
▁ঘাঁহৰ	-12082
▁ঘোৰপা	-12083
▁চন্দা	-12084
▁চপোৱা	-12085
▁চম্বল	-12086
▁চাউলৰ	-12087
▁চাকৰি	-12088
▁চালনা	-12089
▁চাৰুল	-12090
▁চিআইএ	-12091
▁চিচিট	-12092
▁চিঞৰি	-12093
▁চিপাহ	-12094
▁চুন্ন	-12095
▁চেঞ্চ	-12096
▁চেৰাই	-12097
▁চৌহদৰ	-12098
▁চৰ্তত	-12099
▁ছদ্মন	-12100
▁ছন্দৰ	-12101
▁ছয়জন	-12102
▁ছাফাভ	-12103
▁ছিদ্দ	-12104
▁ছুৰীৰ	-12105
▁ছৈয়দ	-12106
▁জটিলত	-12107
▁জন্তু	-12108
▁জাভেদ	-12109
▁জিন্দ	-12110
▁জিয়া	-12111
▁জ্বলা	-12112
▁টোপনি	-12113
▁ঠাইতে	-12114
▁ঠাইলৈ	-12115
▁ডকাইত	-12116
▁ডাৰ্ক	-12117
▁ডেংগু	-12118
▁ডেভিড	-12119
▁ঢাকনি	-12120
▁তথ্যও	-12121
▁তাজিক	-12122
▁তাঞ্জ	-12123
▁তাতকৈ	-12124
▁তালাব	-12125
▁তিছৰা	-12126
▁তীব্র	-12127
▁তেলেগ	-12128
▁তেৱোঁ	-12129
▁ত্ৰিশ	-12130
▁ত্ৰুট	-12131
▁দক্ষত	-12132
▁দর্শন	-12133
▁দাৰাৰ	-12134
▁দিৱসত	-12135
▁দুৰ্য	-12136
▁দূৰলৈ	-12137
▁দেশতে	-12138
▁দেশাই	-12139
▁দেৱীৰ	-12140
▁দৰ্শক	-12141
▁ধাতুৰ	-12142
▁ধৰ্মা	-12143
▁নকৰাৰ	-12144
▁নন্দক	-12145
▁নন্দী	-12146
▁নাজান	-12147
▁নিকোব	-12148
▁নিচেই	-12149
▁নিজৰা	-12150
▁নিদিব	-12151
▁নিৰ্ভ	-12152
▁নিৱাস	-12153
▁পঠোৱা	-12154
▁পঢ়িব	-12155
▁পথটোত	-12156
▁পাখাল	-12157
▁পাচলি	-12158
▁পাটনা	-12159
▁পানীত	-12160
▁পার্চ	-12161
▁পার্ট	-12162
▁পালিৰ	-12163
▁পাল্ক	-12164
▁পিটাৰ	-12165
▁পুনেৰ	-12166
▁পেণ্ট	-12167
▁পেন্ট	-12168
▁পেল্ল	-12169
▁পেৰিছ	-12170
▁পোৰ্ট	-12171
▁পোৱাত	-12172
▁প্রথা	-12173
▁প্লেগ	-12174
▁প্ৰজা	-12175
▁প্ৰথা	-12176
▁ফাণ্ড	-12177
▁ফালকে	-12178
▁ফাৰুক	-12179
▁ফাৰ্গ	-12180
▁ফাৰ্ম	-12181
▁ফুনাক	-12182
▁ফোনটো	-12183
▁বংশগত	-12184
▁বজাৰৰ	-12185
▁বলৰাম	-12186
▁বসতিৰ	-12187
▁বহুতে	-12188
▁বহুতৰ	-12189
▁বাওনা	-12190
▁বাগৰি	-12191
▁বাঞ্ছ	-12192
▁বাদলৰ	-12193
▁বানিজ	-12194
▁বায়ে	-12195
▁বালিৰ	-12196
▁বাসভৱ	-12197
▁বাহাৰ	-12198
▁বাৰাম	-12199
▁বিকাৰ	-12200
▁বিবিধ	-12201
▁বিস্ম	-12202
▁বুজিব	-12203
▁বুন্দ	-12204
▁বেইটন	-12205
▁বেণ্ড	-12206
▁বৈজ্ঞ	-12207
▁ব্ৰংক	-12208
▁ভলিবল	-12209
▁ভলীবল	-12210
▁ভিএইচ	-12211
▁ভিতৰচ	-12212
▁ভূগোল	-12213
▁ভূষিত	-12214
▁ভেংকট	-12215
▁ভেঙ্ক	-12216
▁ভোটাধ	-12217
▁মগজুৰ	-12218
▁মতানৈ	-12219
▁মনীষা	-12220
▁মনোনি	-12221
▁মহাবল	-12222
▁মাইনৰ	-12223
▁মাত্য	-12224
▁মানৱত	-12225
▁মালাব	-12226
▁মিৰিক	-12227
▁মুছাৰ	-12228
▁মূলধন	-12229
▁মূৰ্ত	-12230
▁মেগাজ	-12231
▁মেননৰ	-12232
▁মেৱাৰ	-12233
▁মোগলে	-12234
▁যমুনা	-12235
▁যুঁজৰ	-12236
▁লঘুৰে	-12237
▁লিখাৰ	-12238
▁লিখিব	-12239
▁লিম্ফ	-12240
▁লুকুৱ	-12241
▁লেজাৰ	-12242
▁লোকেই	-12243
▁লোহৰি	-12244
▁লোৱাত	-12245
▁শংকুৰ	-12246
▁শচীনে	-12247
▁শতাংশ	-12248
▁শতাব্	-12249
▁শত্রু	-12250
▁শাসকে	-12251
▁শাৰীত	-12252
▁শিৰোন	-12253
▁শীলাম	-12254
▁শৈশৱৰ	-12255
▁শ্যাম	-12256
▁ষ্টাফ	-12257
▁ষ্ট্র	-12258
▁সংসদত	-12259
▁সংসাৰ	-12260
▁সচিবে	-12261
▁সচিবৰ	-12262
▁সন্ধি	-12263
▁সমদলৰ	-12264
▁সমূহৰ	-12265
▁সহজেই	-12266
▁সাময়	-12267
▁সামাজ	-12268
▁সাহসী	-12269
▁সিংঘল	-12270
▁সুখনা	-12271
▁সুধিব	-12272
▁সুশীল	-12273
▁সেলিম	-12274
▁স্কেল	-12275
▁স্তৰত	-12276
▁হওঁতে	-12277
▁হৃদয়	-12278
▁হেল্ল	-12279
▁হৰ্ষৰ	-12280
▁১৯৩০ৰ	-12281
▁১৯৭০ৰ	-12282
▁১৯৮০ৰ	-12283
▁ৰকেটৰ	-12284
▁ৰণধীৰ	-12285
▁ৰাইফল	-12286
▁ৰাজহৰ	-12287
▁ৰাজাৰ	-12288
▁ৰাতিৰ	-12289
▁ৰামসু	-12290
▁ৰাহুল	-12291
▁ৰিপেচ	-12292
▁ৰেফাৰ	-12293
ংক্ৰিয়	-12294
অভিনেতা	-12295
কাৰ্য্য	-12296
ক্লিয়া	-12297
খিনিয়ে	-12298
টেশ্যনত	-12299
ণ্ডাৰ্ড	-12300
তত্ত্বৰ	-12301
তুকালীন	-12302
ধনঞ্জয়	-12303
নিৰ্বাচ	-12304
নেগেটিভ	-12305
নেহৰুৱে	-12306
প্ৰতিটো	-12307
বাহাজাৰ	-12308
বিদ্যাৰ	-12309
বিদ্যুৎ	-12310
বিলোচনা	-12311
ব্ৰাহিম	-12312
ভিকুলাম	-12313
যাত্ৰাত	-12314
লহেঁতেন	-12315
শাস্ত্ৰ	-12316
শ্চিত্ত	-12317
শ্বুটিং	-12318
সেনাপতি	-12319
স্ক্ৰিণ	-12320
স্তুতিৰ	-12321
হাৰ্দ্য	-12322
াকাণ্ডৰ	-12323
াগ্রস্ত	-12324
াতাসকলে	-12325
াধিকাৰৰ	-12326
ায়কত্ব	-12327
াৰখণ্ডত	-12328
িত্যক্ত	-12329
িয়ানাৰ	-12330
ুটিট্টু	-12331
ুদ্দিনে	-12332
েনশ্বাহ	-12333
্রান্তি	-12334
০০০তকৈও	-12335
ৰদ্বাৰা	-12336
ৰাইয়াৰ	-12337
ৰুদ্দিন	-12338
ৱতেশ্বৰ	-12339
▁অংশটোত	-12340
▁অগ্নিৰ	-12341
▁অঞ্চলক	-12342
▁অত্যাৱ	-12343
▁অনন্তই	-12344
▁অনাময়	-12345
▁অনুকৰণ	-12346
▁অনুচিত	-12347
▁অনুশোচ	-12348
▁অন্যথা	-12349
▁অপছন্দ	-12350
▁অপহৰণৰ	-12351
▁অভ্যাস	-12352
▁অমান্য	-12353
▁অর্থাৎ	-12354
▁অলংকাৰ	-12355
▁অলংকৃত	-12356
▁অস্থিৰ	-12357
▁অৰ্চনা	-12358
▁আকৃতিৰ	-12359
▁আগলৈকে	-12360
▁আগ্ৰহৰ	-12361
▁আগৰতলা	-12362
▁আচ্ছাদ	-12363
▁আতংকিত	-12364
▁আদালতে	-12365
▁আধাতকৈ	-12366
▁আনন্দে	-12367
▁আবেদনৰ	-12368
▁আমদানি	-12369
▁আলোচনী	-12370
▁আশংকাত	-12371
▁আশ্ৰমত	-12372
▁আৰএছএছ	-12373
▁আৰ্থিক	-12374
▁আৰ্দ্ৰ	-12375
▁আৰ্হিত	-12376
▁আৱণ্টন	-12377
▁ইচ্ছুক	-12378
▁ইণ্ডোন	-12379
▁ইত্যাদ	-12380
▁ইনলাইন	-12381
▁ইয়াতে	-12382
▁ইলটুটম	-12383
▁ইষ্টাৰ	-12384
▁উইকেটৰ	-12385
▁উচ্চতৰ	-12386
▁উৎপন্ন	-12387
▁উৎসর্গ	-12388
▁উৰাবাত	-12389
▁উৰুৱাই	-12390
▁এইবুলি	-12391
▁একাদশৰ	-12392
▁এঘাৰজন	-12393
▁এপাৰ্ট	-12394
▁এপিথেল	-12395
▁এফএমচি	-12396
▁এমএছটি	-12397
▁এমটিভি	-12398
▁কটোৱাৰ	-12399
▁কবিতাত	-12400
▁কমনৱেল	-12401
▁কল্পনা	-12402
▁কাঁড়ৰ	-12403
▁কাছিমে	-12404
▁কাঠেৰে	-12405
▁কাপুৰে	-12406
▁কাফুৰৰ	-12407
▁কাৰণটো	-12408
▁কাৰ্ডৰ	-12409
▁কুইন্স	-12410
▁কুস্তি	-12411
▁কৃষ্ণৰ	-12412
▁কেঁচাম	-12413
▁কেইবাদ	-12414
▁কেইবাব	-12415
▁কেইবাশ	-12416
▁কেকলাঁ	-12417
▁কেম্পট	-12418
▁কোলাহল	-12419
▁কোৰ্ছৰ	-12420
▁কোৰ্টৰ	-12421
▁কৰাচীত	-12422
▁কৰাবলৈ	-12423
▁কৰ্ণেল	-12424
▁খানদেশ	-12425
▁খিয়াম	-12426
▁খিৰিকী	-12427
▁খুচুৰা	-12428
▁খেলবোৰ	-12429
▁খোৱাকৈ	-12430
▁গছজোপা	-12431
▁গতিধাৰ	-12432
▁গম্ভীৰ	-12433
▁গাড়ীৰ	-12434
▁গোমধান	-12435
▁গোষ্ঠী	-12436
▁গ্ৰুপৰ	-12437
▁গৰিষ্ঠ	-12438
▁ঘটোৱাৰ	-12439
▁ঘাঁহনি	-12440
▁চতুশ্র	-12441
▁চলিবলৈ	-12442
▁চান্দক	-12443
▁চালিকা	-12444
▁চাহিবক	-12445
▁চিএলপি	-12446
▁চিটিএছ	-12447
▁চিত্ৰণ	-12448
▁চুৰাটৰ	-12449
▁চৌধুৰী	-12450
▁ছবিকেই	-12451
▁ছবিখনক	-12452
▁ছাংগাই	-12453
▁ছাণ্টা	-12454
▁ছিনড্ৰ	-12455
▁ছিনেটত	-12456
▁ছেছোথো	-12457
▁জনজাতি	-12458
▁জনবহুল	-12459
▁জলদস্য	-12460
▁জাজিৰা	-12461
▁জাতিগত	-12462
▁জাহানে	-12463
▁জাহানৰ	-12464
▁জোঁৱাই	-12465
▁জোকাৰি	-12466
▁জ্ঞাপন	-12467
▁জৰিমনা	-12468
▁টিউমাৰ	-12469
▁ট্ৰায়	-12470
▁টৰন্টো	-12471
▁ঠাণ্ডা	-12472
▁ডাঙৰকৈ	-12473
▁ডাটাবে	-12474
▁ডাব্বে	-12475
▁ডিব্ৰু	-12476
▁ডেৰাডু	-12477
▁তদন্তত	-12478
▁তন্ত্ৰ	-12479
▁তপস্যা	-12480
▁তাজমহল	-12481
▁তাপ্তি	-12482
▁তালুকত	-12483
▁তাৰানা	-12484
▁ত্ৰুটি	-12485
▁তৰকাৰী	-12486
▁দলবোৰে	-12487
▁দাখিলৰ	-12488
▁দালালে	-12489
▁দীপবংশ	-12490
▁দুয়োগ	-12491
▁দুৰ্গা	-12492
▁দুৰ্দশ	-12493
▁দেখিছে	-12494
▁দেৱানহ	-12495
▁দেৱালৰ	-12496
▁দোকানত	-12497
▁দ্ৰব্য	-12498
▁দৰমহাৰ	-12499
▁ধ্বংসৰ	-12500
▁ধৰ্ষণৰ	-12501
▁নগৈছিল	-12502
▁নাছিকৰ	-12503
▁নাদিয়	-12504
▁নাপিতৰ	-12505
▁নালাগে	-12506
▁নিজাকৈ	-12507
▁নিজামে	-12508
▁নিদিলে	-12509
▁নিয়াৰ	-12510
▁নিৰূপক	-12511
▁নিৰূপণ	-12512
▁নোপোৱা	-12513
▁নৌশাদৰ	-12514
▁নৰসিংহ	-12515
▁পঞ্চাশ	-12516
▁পঠাবলৈ	-12517
▁পঠোৱাৰ	-12518
▁পণ্ডিচ	-12519
▁পতিয়ন	-12520
▁পাতিলে	-12521
▁পানীৰে	-12522
▁পাৰভেজ	-12523
▁পাৰ্টী	-12524
▁পিছতহে	-12525
▁পীড়িত	-12526
▁পুত্ৰই	-12527
▁পুনেলৈ	-12528
▁পুৰাণত	-12529
▁পূজাৰী	-12530
▁পূর্বৰ	-12531
▁পেকেজি	-12532
▁পেকেজৰ	-12533
▁পেচাগত	-12534
▁পোহৰলৈ	-12535
▁প্রতিৰ	-12536
▁প্ৰজাৰ	-12537
▁প্ৰতিও	-12538
▁প্ৰশংস	-12539
▁প্ৰসংগ	-12540
▁প্ৰাথম	-12541
▁প্ৰৱাহ	-12542
▁পৰিমাপ	-12543
▁পৰিষদত	-12544
▁পৰিসৰত	-12545
▁পৰ্বতৰ	-12546
▁ফলাফলৰ	-12547
▁ফাইনেল	-12548
▁ফাইবাৰ	-12549
▁ফেচবুক	-12550
▁ফেয়াৰ	-12551
▁ফেলুদা	-12552
▁ফ্লাইট	-12553
▁বঁটাসহ	-12554
▁বচাবলৈ	-12555
▁বছৰটোৰ	-12556
▁বলটোৱে	-12557
▁বহুবাৰ	-12558
▁বাগানৰ	-12559
▁বাজেয়	-12560
▁বাদখাল	-12561
▁বাষ্পী	-12562
▁বাসগৃহ	-12563
▁বাৰিষা	-12564
▁বাৰ্তা	-12565
▁বাৰ্মা	-12566
▁বিকাশক	-12567
▁বিজেএছ	-12568
▁বিজেপি	-12569
▁বিথালভ	-12570
▁বিদিশা	-12571
▁বিদেশৰ	-12572
▁বিদ্যা	-12573
▁বিনোদন	-12574
▁বিপণনৰ	-12575
▁বিপাশা	-12576
▁বিবাদত	-12577
▁বিৰক্ত	-12578
▁বিৰলাৰ	-12579
▁বীৰত্ব	-12580
▁বুৰহান	-12581
▁বেচেৰা	-12582
▁বেয়াৰ	-12583
▁বোধহয়	-12584
▁বোম্বে	-12585
▁ব্যাসৰ	-12586
▁ব্যাহত	-12587
▁ব্লকবা	-12588
▁বৰোদাৰ	-12589
▁ভয়ানক	-12590
▁ভয়াৱহ	-12591
▁ভলীবলৰ	-12592
▁ভাইৰাছ	-12593
▁ভেকচিন	-12594
▁ভ্রমণৰ	-12595
▁মজিয়া	-12596
▁মণিপুৰ	-12597
▁মণ্ডলী	-12598
▁মল্লযো	-12599
▁মহাকাব	-12600
▁মহানদী	-12601
▁মাইক্ৰ	-12602
▁মাত্ৰা	-12603
▁মালয়ে	-12604
▁মাৰাথন	-12605
▁মিউজিক	-12606
▁মিশ্ৰণ	-12607
▁মিহলাই	-12608
▁মুখীয়	-12609
▁মূলসুঁ	-12610
▁মেকুৰী	-12611
▁মৈত্ৰে	-12612
▁মৌৰ্যই	-12613
▁মৰমেৰে	-12614
▁যাওঁতে	-12615
▁যোগেদি	-12616
▁যোধপুৰ	-12617
▁লক্ষণৰ	-12618
▁লিখনিৰ	-12619
▁শাৰীটো	-12620
▁শুকানে	-12621
▁শ্বিনহ	-12622
▁শৰীৰটো	-12623
▁শৰীৰিক	-12624
▁ষ্টাইল	-12625
▁ষ্ট্ৰে	-12626
▁ষ্টৰ্ম	-12627
▁সংকোচন	-12628
▁সংগঠনে	-12629
▁সংঘর্ষ	-12630
▁সংঘাতত	-12631
▁সংৰোপণ	-12632
▁সজ্জিত	-12633
▁সঞ্চয়	-12634
▁সঞ্জীৱ	-12635
▁সদস্যই	-12636
▁সন্ত্র	-12637
▁সন্ধিৰ	-12638
▁সপক্ষে	-12639
▁সবিশেষ	-12640
▁সময়সূ	-12641
▁সময়ৰে	-12642
▁সমুদ্র	-12643
▁সমৰ্পণ	-12644
▁সহনশীল	-12645
▁সাক্ষী	-12646
▁সাহসিক	-12647
▁সাৰঙ্গ	-12648
▁সিনহাৰ	-12649
▁সিন্ধি	-12650
▁সুৰুঙা	-12651
▁সূত্ৰই	-12652
▁সেনাদল	-12653
▁সেয়াও	-12654
▁স্কন্দ	-12655
▁স্থানো	-12656
▁স্নায়	-12657
▁স্ফটিক	-12658
▁স্বচ্ছ	-12659
▁স্বভাৱ	-12660
▁স্মাৰক	-12661
▁হস্তগত	-12662
▁হাইজেক	-12663
▁হাইদৰৰ	-12664
▁হাৰেমত	-12665
▁হিংসাৰ	-12666
▁হিউমেন	-12667
▁হেক্টৰ	-12668
▁হেৰুৱা	-12669
▁হোৱাইট	-12670
▁হ্রদটো	-12671
▁ৰক্ষাৰ	-12672
▁ৰঘুনাথ	-12673
▁ৰঞ্জিত	-12674
▁ৰবাৰ্ট	-12675
▁ৰসায়ন	-12676
▁ৰহমানে	-12677
▁ৰাঘোজী	-12678
▁ৰাজস্থ	-12679
▁ৰাধিকা	-12680
▁ৰাৱালৰ	-12681
▁ৰেড্ডি	-12682
অভিনেতাৰ	-12683
আমেৰিকান	-12684
তুস্ৰাৱৰ	-12685
ত্ত্ববিদ	-12686
দ্বিতীয়	-12687
দ্যালয়ে	-12688
বিভাজিকা	-12689
ব্ৰাহ্মণ	-12690
সাধাৰণতে	-12691
াপ্ৰাপ্ত	-12692
াব্লিকান	-12693
াসম্পন্ন	-12694
াস্বৰূপে	-12695
িবলগীয়া	-12696
ীয়াসকলে	-12697
ীয়াসকলৰ	-12698
োস্লোভাক	-12699
▁অংগীকাৰ	-12700
▁অধীনস্থ	-12701
▁অনুপল্ল	-12702
▁অনুভূতি	-12703
▁অনুসাৰে	-12704
▁অনুৰোধৰ	-12705
▁অভিযোগক	-12706
▁অভিযোজন	-12707
▁অৰুণাচল	-12708
▁অৰ্ডাৰৰ	-12709
▁অৰ্ধশতক	-12710
▁অৱলম্বন	-12711
▁অৱশ্যেই	-12712
▁অৱস্থাক	-12713
▁আইডিয়া	-12714
▁আক্রমণৰ	-12715
▁আক্ষৰিক	-12716
▁আগতীয়া	-12717
▁আগৰতলাৰ	-12718
▁আজাৰবাই	-12719
▁আটাইকেই	-12720
▁আটাইবোৰ	-12721
▁আনন্দিত	-12722
▁আলোকপাত	-12723
▁আলোচনীৰ	-12724
▁ইংৰাজীত	-12725
▁ইচ্ছানু	-12726
▁ইজিপ্তৰ	-12727
▁ইভেণ্টত	-12728
▁ইমানবোৰ	-12729
▁উত্তোলন	-12730
▁উত্থানৰ	-12731
▁উন্নতিৰ	-12732
▁উপনিবেশ	-12733
▁উপপত্নী	-12734
▁উপভাষাত	-12735
▁উৎপাদনৰ	-12736
▁উৎপীড়ন	-12737
▁এইসমূহে	-12738
▁একেধৰণে	-12739
▁এছিয়াত	-12740
▁এডৱাৰ্ড	-12741
▁এতিয়াৰ	-12742
▁এন্থ্ৰে	-12743
▁ওড়িয়া	-12744
▁কন্যাকো	-12745
▁কলকাতাৰ	-12746
▁কাকতীয়	-12747
▁কাৰোবাক	-12748
▁কাৰ্ডখন	-12749
▁কৃষিকাৰ	-12750
▁কেবাটাও	-12751
▁কেম্পিং	-12752
▁কেৰেলাৰ	-12753
▁কোনোমতে	-12754
▁কৌশলেৰে	-12755
▁ক্লান্ত	-12756
▁ক্ষমতাত	-12757
▁ক্ষিপ্ৰ	-12758
▁ক্ষুদ্র	-12759
▁কৰাটোৱে	-12760
▁কৰালৈকে	-12761
▁কৰিশ্মা	-12762
▁খেলুৱৈক	-12763
▁গঠনমূলক	-12764
▁গতিধাৰা	-12765
▁গন্ধৰ্ব	-12766
▁গীৰ্জাৰ	-12767
▁গুপ্তাই	-12768
▁গুৰ্জাৰ	-12769
▁গোচৰটোত	-12770
▁গোদাৱৰী	-12771
▁গ্রাহকক	-12772
▁গ্রীষ্ম	-12773
▁গৰ্ভৱতী	-12774
▁ঘটনাবোৰ	-12775
▁চাণক্যৰ	-12776
▁চান্দ্ৰ	-12777
▁চাপিছিল	-12778
▁চাৰিগুণ	-12779
▁চাৰ্টাৰ	-12780
▁চুক্তিত	-12781
▁চুপাৰিচ	-12782
▁চেণ্টাৰ	-12783
▁ছাটাৰাৰ	-12784
▁ছিকন্দৰ	-12785
▁ছেইলবোট	-12786
▁ছেকেণ্ড	-12787
▁জাজিৰাৰ	-12788
▁জাফ্ৰিৰ	-12789
▁জিম্বাব	-12790
▁জীৱনটোৰ	-12791
▁জৈনসকলৰ	-12792
▁জ্যোতিষ	-12793
▁টুৰ্নাম	-12794
▁টেৰেছাই	-12795
▁ঠাইসমূহ	-12796
▁ঠিকাদাৰ	-12797
▁ডকাইতিৰ	-12798
▁ডায়েৰী	-12799
▁ডিজিটেল	-12800
▁ড্ৰাগছৰ	-12801
▁তিনিওটা	-12802
▁তিব্বতী	-12803
▁তিৰুনেল	-12804
▁ত্ৰিকোণ	-12805
▁ত্ৰিপুত	-12806
▁থ্রিলাৰ	-12807
▁দাসত্বৰ	-12808
▁দিল্লীক	-12809
▁দুখীয়া	-12810
▁দুঘণ্টা	-12811
▁দুর্গটো	-12812
▁দুৰ্গলৈ	-12813
▁দুৰ্ভাগ	-12814
▁দেওবাৰে	-12815
▁দেখিবলৈ	-12816
▁দেখুৱাব	-12817
▁দোষাৰোপ	-12818
▁দৰাচলতে	-12819
▁ধনুৰ্বি	-12820
▁ধাৰাসাৰ	-12821
▁ধ্ৰুপদী	-12822
▁নম্বৰটো	-12823
▁নাগাৰ্জ	-12824
▁নাগৰিকক	-12825
▁নাঞ্জাৰ	-12826
▁নিবিদাৰ	-12827
▁নির্বাচ	-12828
▁নিৰাময়	-12829
▁নিৰ্বাহ	-12830
▁নূন্যতম	-12831
▁নেগেটিভ	-12832
▁নেতাসকল	-12833
▁ন্যূনতম	-12834
▁নৱবৰ্ষৰ	-12835
▁পঞ্জাবৰ	-12836
▁পটভূমিৰ	-12837
▁পদাৰ্থৰ	-12838
▁পদ্ধতিত	-12839
▁পর্য্যট	-12840
▁পাৰিবলৈ	-12841
▁পাৰ্টীৰ	-12842
▁পিছফালে	-12843
▁পিছফালৰ	-12844
▁পুলডাউন	-12845
▁পূৰ্বেই	-12846
▁পোল্লাচ	-12847
▁পৌৰাণিক	-12848
▁প্রত্যা	-12849
▁প্রথমখন	-12850
▁প্রথমজন	-12851
▁প্রথমটো	-12852
▁প্রদত্ত	-12853
▁প্রবন্ধ	-12854
▁প্রাচীন	-12855
▁প্ৰকাশক	-12856
▁প্ৰচণ্ড	-12857
▁প্ৰদেশক	-12858
▁প্ৰমাণৰ	-12859
▁প্ৰশস্ত	-12860
▁পৰস্পৰৰ	-12861
▁পৰিবহণৰ	-12862
▁ফতেহপুৰ	-12863
▁বজাইছিল	-12864
▁বহুমুখী	-12865
▁বাৰিষাৰ	-12866
▁বাৰ্তাল	-12867
▁বাৰ্লিন	-12868
▁বিকৃতিৰ	-12869
▁বিচ্যুত	-12870
▁বিজেপিৰ	-12871
▁বিনোদনৰ	-12872
▁বিবাহিত	-12873
▁বিভাজিত	-12874
▁বিলিয়ন	-12875
▁বিশাখাপ	-12876
▁বিশুদ্ধ	-12877
▁বিষয়াই	-12878
▁বিসৰ্জন	-12879
▁বুজিবলৈ	-12880
▁বৈবাহিক	-12881
▁বৰ্ষাৰণ	-12882
▁ভাঙিবলৈ	-12883
▁ভিন্নতা	-12884
▁ভোজপুৰী	-12885
▁মন্দিৰো	-12886
▁মহাবংশত	-12887
▁মহাবীৰৰ	-12888
▁মহাবোধি	-12889
▁মহামাৰী	-12890
▁মাজভাগৰ	-12891
▁মাত্ৰাৰ	-12892
▁মাদুৰাই	-12893
▁মানিছিল	-12894
▁মাপকাঠী	-12895
▁মাহবোৰত	-12896
▁মাৰৱাৰৰ	-12897
▁মিচিগান	-12898
▁মিলিয়ন	-12899
▁মিৰ্জাক	-12900
▁মুলতানত	-12901
▁মুলতানৰ	-12902
▁মুৰ্ছিদ	-12903
▁মেকুলাৰ	-12904
▁মেগছেছে	-12905
▁মৌচুমীৰ	-12906
▁যন্ত্ৰৰ	-12907
▁যোগ্যতা	-12908
▁যোধপুৰৰ	-12909
▁লোকসভাৰ	-12910
▁শব্দটোৰ	-12911
▁শব্দবোৰ	-12912
▁শাস্তিৰ	-12913
▁শিক্ষকৰ	-12914
▁শিক্ষিত	-12915
▁শিখসকলে	-12916
▁শিবিৰলৈ	-12917
▁শিলগুটি	-12918
▁শিলাময়	-12919
▁শিশুটিক	-12920
▁শিশুটিৰ	-12921
▁শিশুসকল	-12922
▁শিৱালয়	-12923
▁শুনিবলৈ	-12924
▁শ্বিলঙত	-12925
▁শ্বিৰভৰ	-12926
▁শ্বোটোক	-12927
▁ষ্টুডিঅ	-12928
▁ষ্টেজিং	-12929
▁ষ্ট্ৰিপ	-12930
▁সংশোধনৰ	-12931
▁সংস্থাত	-12932
▁সংহিতাৰ	-12933
▁সকলোৱেই	-12934
▁সন্তানক	-12935
▁সভ্যতাৰ	-12936
▁সমন্বিত	-12937
▁সমষ্টিত	-12938
▁সমৃদ্ধি	-12939
▁সম্পর্ক	-12940
▁সম্বলিত	-12941
▁সশস্ত্ৰ	-12942
▁সাময়িক	-12943
▁সাৱধানে	-12944
▁সুগন্ধি	-12945
▁সেইবোৰক	-12946
▁স্থিৰতা	-12947
▁সৰস্বতী	-12948
▁হাউছফুল	-12949
▁হাততালি	-12950
▁হিউষ্টন	-12951
▁হেণ্ডকা	-12952
▁হেৰুৱাৰ	-12953
▁হ্ৰদটোক	-12954
▁ৰক্তপাত	-12955
▁ৰচনাবোৰ	-12956
▁ৰপ্তানি	-12957
▁ৰাগসমূহ	-12958
▁ৰাজবংশই	-12959
▁ৰাণাবিক	-12960
▁ৰাষ্ট্র	-12961
▁ৰূপাংকন	-12962
কিলোমিটাৰ	-12963
কেন্দ্ৰিক	-12964
চুবুৰীয়া	-12965
তাত্ত্বিক	-12966
পূৰ্ণভাৱে	-12967
প্ৰতিষ্ঠা	-12968
শ্বায়াৰৰ	-12969
িগেডিয়াৰ	-12970
িলায়েন্স	-12971
▁অক্ষুণ্ণ	-12972
▁অধিগ্ৰহণ	-12973
▁অধিবৰ্ষত	-12974
▁অধ্যাদেশ	-12975
▁অনিচ্ছুক	-12976
▁অনুযায়ী	-12977
▁অনুস্থান	-12978
▁অন্তিমটো	-12979
▁অন্তৰেৰে	-12980
▁অপমানজনক	-12981
▁অমুছলমান	-12982
▁অশোকবদনত	-12983
▁অৱবাহিকা	-12984
▁আঁকোৱালি	-12985
▁আঁতৰোৱাৰ	-12986
▁আক্রান্ত	-12987
▁আগ্ৰহেৰে	-12988
▁আত্মঘাতী	-12989
▁আনুষংগিক	-12990
▁আপেক্ষিক	-12991
▁আফ্ৰিকাৰ	-12992
▁আব্ৰাহাম	-12993
▁আমেৰিকাত	-12994
▁আলংকাৰিক	-12995
▁আলাবামাৰ	-12996
▁আলাস্কাৰ	-12997
▁আৱিৰ্ভাৱ	-12998
▁ইউনিচেফৰ	-12999
▁ইনফ্লুৱে	-13000
▁ইব্ৰাহিম	-13001
▁ইষ্টাৰ্ণ	-13002
▁উত্তীৰ্ণ	-13003
▁উদ্বোধনী	-13004
▁উদ্যোগটো	-13005
▁উন্মুক্ত	-13006
▁উপত্যকাত	-13007
▁উপস্থাপক	-13008
▁উপাখ্যান	-13009
▁উৎপত্তিৰ	-13010
▁উৎসসমূহে	-13011
▁একাডেমীৰ	-13012
▁ঔদ্যোগিক	-13013
▁ঔৰংগজেবৰ	-13014
▁কংক্ৰিচন	-13015
▁কঞ্জাক্ট	-13016
▁কাউণ্টিৰ	-13017
▁কাশ্মীৰী	-13018
▁কিষানগড়	-13019
▁কুচকাৱাজ	-13020
▁কূটনীতিত	-13021
▁কৃতজ্ঞতা	-13022
▁কৃষকসকলক	-13023
▁কেঁচুৱাক	-13024
▁কেনুয়িং	-13025
▁কেন্দ্রৰ	-13026
▁ক্ষমতালৈ	-13027
▁খেলপথাৰত	-13028
▁গজেন্দ্ৰ	-13029
▁গতিবিধিৰ	-13030
▁গাড়ীখনত	-13031
▁গুজৰাটলৈ	-13032
▁গেংলিয়ন	-13033
▁গোটসমূহৰ	-13034
▁গোবিন্দৰ	-13035
▁গ্রাউণ্ড	-13036
▁ঘটনাবোৰৰ	-13037
▁চক্ৰবর্ত	-13038
▁চতুৰ্দশী	-13039
▁চিকিৎসকে	-13040
▁চিকিৎসকৰ	-13041
▁চিচিটিভি	-13042
▁চেণ্টাৰত	-13043
▁চৰমপন্থী	-13044
▁ছবিসমূহত	-13045
▁ছাটাৰালৈ	-13046
▁ছিণ্ড্ৰম	-13047
▁ছেকেণ্ডৰ	-13048
▁ছেটেলাইট	-13049
▁ছোভিয়েট	-13050
▁জগদ্দেৱে	-13051
▁জাঁজিৰাৰ	-13052
▁জানিছিলো	-13053
▁জাহাংগীৰ	-13054
▁টাইমুৰিদ	-13055
▁টাম্বলিং	-13056
▁ট্ৰাভাংক	-13057
▁ট্ৰিবিউন	-13058
▁ট্ৰেকিঙৰ	-13059
▁ডিজাইনাৰ	-13060
▁তাপমাত্ৰ	-13061
▁তালিকাখন	-13062
▁তাৰাবাইক	-13063
▁তেতিয়াই	-13064
▁তেতিয়াহ	-13065
▁ত্ৰয়োদশ	-13066
▁ত্ৰিপুৰী	-13067
▁দাৰ্শনিক	-13068
▁দুয়োটাই	-13069
▁দুৰ্বলতা	-13070
▁দূৰদৰ্শন	-13071
▁দূৰসংযোগ	-13072
▁দূৰৱৰ্তী	-13073
▁দৃঢ়ভাৱে	-13074
▁দৃশ্যমান	-13075
▁দেশাইয়ে	-13076
▁দেৱৰাজাই	-13077
▁দৈৰ্ঘ্যৰ	-13078
▁নগৰৰক্ষী	-13079
▁নথিভুক্ত	-13080
▁নামমাত্ৰ	-13081
▁নেতাসকলে	-13082
▁নেতৃত্বক	-13083
▁পঞ্জাৱলৈ	-13084
▁পত্নীয়ে	-13085
▁পর্যাপ্ত	-13086
▁পর্যায়ত	-13087
▁পাঞ্জাবী	-13088
▁পাণ্ডৱনি	-13089
▁পৃথিৱীখন	-13090
▁পেলোৱাটো	-13091
▁প্রচেষ্ট	-13092
▁প্রধানতঃ	-13093
▁প্রবাহিত	-13094
▁প্রাথমিক	-13095
▁প্রাসাদত	-13096
▁প্ৰকৃতিৰ	-13097
▁প্ৰক্ষেপ	-13098
▁প্ৰণালীৰ	-13099
▁প্ৰবাহিত	-13100
▁প্ৰশাসনক	-13101
▁প্ৰান্তৰ	-13102
▁প্ৰাসাদৰ	-13103
▁প্ৰেচিডে	-13104
▁পৰিৱেশনৰ	-13105
▁পৰ্ণপাতী	-13106
▁ফ্ৰান্সৰ	-13107
▁বক্তৃতাৰ	-13108
▁বদ্ৰীনাথ	-13109
▁বনাঞ্চলত	-13110
▁বাংগালোৰ	-13111
▁বাওঁফালে	-13112
▁বানপানীৰ	-13113
▁বিচ্ছেদৰ	-13114
▁বিজ্ঞানত	-13115
▁বিতংভাৱে	-13116
▁বিতাড়িত	-13117
▁বিদ্রোহৰ	-13118
▁বিনিময়ৰ	-13119
▁বিমানখনৰ	-13120
▁বিলম্বিত	-13121
▁বিষয়টোত	-13122
▁বেডমিণ্ট	-13123
▁ব্যস্ততম	-13124
▁ব্যৱধানৰ	-13125
▁ব্যৱহাৰত	-13126
▁ব্ৰেণ্ডৰ	-13127
▁বৰ্খাস্ত	-13128
▁ভাইচৰয়ৰ	-13129
▁ভাটৌটোৱে	-13130
▁ভাতৃসকলৰ	-13131
▁ভাস্কৰ্য	-13132
▁ভাৱধাৰাৰ	-13133
▁ভীমসিংহই	-13134
▁ভীমসিংহক	-13135
▁মংগোলীয়	-13136
▁মলদ্বাৰৰ	-13137
▁মহাভাৰতৰ	-13138
▁মাতৃভাষা	-13139
▁মাদ্ৰাজত	-13140
▁মানহানিৰ	-13141
▁মাৰ্থিন্	-13142
▁মিজোৰামৰ	-13143
▁মিলিটাৰী	-13144
▁মিলিটেৰী	-13145
▁মুছলমানৰ	-13146
▁মুহূৰ্তত	-13147
▁মেঘালয়ত	-13148
▁মেচসমূহৰ	-13149
▁মেলবৰ্ণত	-13150
▁মেৰুদণ্ড	-13151
▁যক্ষগানত	-13152
▁যুঁজিবলৈ	-13153
▁লক্ষ্যৰে	-13154
▁লিবিয়াৰ	-13155
▁লীগসমূহৰ	-13156
▁লোকপিয়ল	-13157
▁শৃংখলাটো	-13158
▁শ্বাজিলে	-13159
▁শ্বাহৰুখ	-13160
▁শ্ৰীলংকা	-13161
▁শ্ৰেণীকো	-13162
▁ষ্ট্ৰাইক	-13163
▁সংগীতানু	-13164
▁সংবিধানৰ	-13165
▁সঠিকভাৱে	-13166
▁সন্দর্ভত	-13167
▁সন্মিলনত	-13168
▁সন্মিলনৰ	-13169
▁সম্মুখীন	-13170
▁সাংখ্যিক	-13171
▁সাহিত্যই	-13172
▁সিংহাসনৰ	-13173
▁সেইসমূহে	-13174
▁সেনাপতিক	-13175
▁সেৱাসমূহ	-13176
▁সোঁপন্থী	-13177
▁সোমেশ্বৰ	-13178
▁স্থিৰতাৰ	-13179
▁স্বতঃস্ফ	-13180
▁স্বত্তেও	-13181
▁স্মৰণীয়	-13182
▁হাংগেৰীৰ	-13183
▁হাস্যৰসৰ	-13184
▁হিচাপেহে	-13185
▁হেণ্ডগান	-13186
▁হেৰুৱায়	-13187
▁ৰাজগোপাল	-13188
▁ৰাজ্যখনে	-13189
▁ৰিচিভাৰে	-13190
▁ৱোডেয়াৰ	-13191
ক্রান্তীয়	-13192
সাংস্কৃতিক	-13193
ৰাষ্ট্রীয়	-13194
▁অংশগ্ৰহণৰ	-13195
▁অট্টালিকা	-13196
▁অতিথিসকলক	-13197
▁অতিথিসকলে	-13198
▁অভিনেত্রী	-13199
▁অলিম্পিকৰ	-13200
▁অৰ্থনীতিত	-13201
▁অৱবাহিকাত	-13202
▁আন্দামানৰ	-13203
▁আহমেদাবাদ	-13204
▁ইউনিভাৰ্চ	-13205
▁ইণ্ডিয়াৰ	-13206
▁ইতিমধ্যেই	-13207
▁ইলতুৎমিছৰ	-13208
▁উইলিয়ামৰ	-13209
▁উগ্ৰপন্থী	-13210
▁উজবেকসকলৰ	-13211
▁উদ্যানখনক	-13212
▁উপস্থিতিত	-13213
▁উমৈহতীয়া	-13214
▁একাধিকবাৰ	-13215
▁ঔৰঙ্গজেৱে	-13216
▁ককাদেউতাক	-13217
▁কমিউনিষ্ট	-13218
▁কম্পিউটাৰ	-13219
▁কাডাম্বাৰ	-13220
▁কুঁহিয়াৰ	-13221
▁কেইদিনমান	-13222
▁কেন্দ্ৰটো	-13223
▁কেমব্ৰিজৰ	-13224
▁ক্ষেত্রতে	-13225
▁খোৱাপানীৰ	-13226
▁গাইকোৱাডে	-13227
▁গুৰুগ্ৰাম	-13228
▁গ্ৰন্থখনত	-13229
▁ঘটনাসমূহৰ	-13230
▁চহৰসমূহলৈ	-13231
▁চাইক্লিঙৰ	-13232
▁চালাজিয়ন	-13233
▁চাৰিওফালৰ	-13234
▁চিত্ৰকলাৰ	-13235
▁চুলতানপুৰ	-13236
▁জনসাধাৰণে	-13237
▁জলপ্রপাতৰ	-13238
▁জলপ্ৰপাতক	-13239
▁জলবিদ্যুৎ	-13240
▁জলসিঞ্চনৰ	-13241
▁জানুৱাৰীৰ	-13242
▁জাহাংগীৰে	-13243
▁জাহাজবোৰৰ	-13244
▁জোঁৱায়েক	-13245
▁টাৰ্মিনেল	-13246
▁টেক্সটাইল	-13247
▁টেলিভিছনত	-13248
▁ডাইৰেক্টৰ	-13249
▁তক্ষশিলাত	-13250
▁তালিকাখনত	-13251
▁তীব্ৰভাৱে	-13252
▁তৃতীয়াংশ	-13253
▁থাইলেণ্ডৰ	-13254
▁থিয়েটাৰৰ	-13255
▁দয়ানন্দই	-13256
▁দামাজীয়ে	-13257
▁দিবলগীয়া	-13258
▁দীৰ্ঘদিনৰ	-13259
▁দুয়োধৰণৰ	-13260
▁দুৰ্ঘটনাত	-13261
▁দুৰ্ঘটনাৰ	-13262
▁দেখুৱাবলৈ	-13263
▁দেশব্যাপী	-13264
▁দেৱতাসকলৰ	-13265
▁দ্বীপসমূহ	-13266
▁দৰিদ্ৰতাৰ	-13267
▁দৰ্শকসকলৰ	-13268
▁নিগমসমূহৰ	-13269
▁নির্ধাৰিত	-13270
▁নিৰ্যাতনৰ	-13271
▁ন্যায্যতা	-13272
▁পঞ্জীয়নৰ	-13273
▁পঠিয়াবলৈ	-13274
▁পাহাৰবোৰৰ	-13275
▁পুডুচেৰীত	-13276
▁পুত্ৰসকলক	-13277
▁পুলকেশিনে	-13278
▁পুৰুষসকলে	-13279
▁পৃষ্ঠাটোত	-13280
▁প্রতিবেদন	-13281
▁প্রদর্শনৰ	-13282
▁প্লেটফর্ম	-13283
▁প্লেটফৰ্ম	-13284
▁প্ৰতাপগড়	-13285
▁প্ৰতিদিনে	-13286
▁প্ৰতিবাদৰ	-13287
▁প্ৰদৰ্শনত	-13288
▁প্ৰস্থানৰ	-13289
▁প্ৰাণীকুল	-13290
▁প্ৰিন্টাৰ	-13291
▁পৰিত্যক্ত	-13292
▁পৰিব্ৰাজক	-13293
▁পৰিসংখ্যা	-13294
▁পৰ্বতমালা	-13295
▁ফেডাৰেচনে	-13296
▁বাংলাদেশত	-13297
▁বাঞ্ছনীয়	-13298
▁বান্ধিছিল	-13299
▁বান্ধৱগড়	-13300
▁বাসুদেৱনৰ	-13301
▁বিজ্ঞাপনৰ	-13302
▁বিনিয়োগৰ	-13303
▁বিন্দুসাৰ	-13304
▁বিপৰ্যয়ৰ	-13305
▁বিভিন্নতা	-13306
▁বিশ্লেষণৰ	-13307
▁বিস্ফোৰণত	-13308
▁বিস্ফোৰিত	-13309
▁বিস্ময়কৰ	-13310
▁বৈজ্ঞানিক	-13311
▁ব্যৱহাৰিক	-13312
▁ব্ৰাহ্মণৰ	-13313
▁ভোটাধিকাৰ	-13314
▁ভ্ৰমণকালত	-13315
▁মধ্যস্থতা	-13316
▁মল্লযুঁজৰ	-13317
▁মানচিত্ৰত	-13318
▁মালিকীস্ব	-13319
▁মিলিমিটাৰ	-13320
▁মুম্বাইলৈ	-13321
▁মুহাম্মাদ	-13322
▁মৃতদেহবোৰ	-13323
▁মেইনমাষ্ট	-13324
▁মৌৰ্যসকলে	-13325
▁মৌৰ্যসকলৰ	-13326
▁মৰিচিয়ান	-13327
▁যাবলগীয়া	-13328
▁লক্ষণসমূহ	-13329
▁শতিকালৈকে	-13330
▁শত্ৰুসকলক	-13331
▁শৃংখলাটোত	-13332
▁শ্বাট্লকক	-13333
▁শ্ৰীলংকাত	-13334
▁শৰীৰচর্চা	-13335
▁ষ্টিভেন্স	-13336
▁সংস্কৃতিত	-13337
▁সদস্যসকলক	-13338
▁সদাশিৱৰাও	-13339
▁সন্ধানহীন	-13340
▁সময়ছোৱাৰ	-13341
▁সমস্যাবোৰ	-13342
▁সম্পত্তিৰ	-13343
▁সাৰ্বজনীন	-13344
▁সৌহাৰ্দ্য	-13345
▁স্থপতিবিদ	-13346
▁স্প্ৰিণ্ট	-13347
▁স্বায়ত্ত	-13348
▁স্মৃতিসৌধ	-13349
▁হাওঁফাওঁৰ	-13350
▁ৰক্ষীসকলে	-13351
▁ৰাজপুতানা	-13352
▁ৰাজ্যবোৰৰ	-13353
▁ৰিয়েলিটি	-13354
▁ৰেড্ডীয়ে	-13355
▁অগতানুগতিক	-13356
▁অধ্যক্ষতাত	-13357
▁অনুপস্থিতি	-13358
▁অনুপ্রেৰণা	-13359
▁অনুপ্ৰাণিত	-13360
▁অভিনেতাজনৰ	-13361
▁অভিযোগসমূহ	-13362
▁অৰণ্যসমূহৰ	-13363
▁আত্মসমর্পণ	-13364
▁আনন্দদায়ক	-13365
▁আম্বেদকাৰক	-13366
▁আহমেদাবাদৰ	-13367
▁ইউৰোপীয়ান	-13368
▁ইতিহাসবিদে	-13369
▁উল্লেখনীয়	-13370
▁একনায়কত্ব	-13371
▁এনালিটিক্স	-13372
▁এৰাভিকুলাম	-13373
▁কাৰ্যালয়ৰ	-13374
▁কিংবদন্তিৰ	-13375
▁কিংবদন্তীৰ	-13376
▁কিছুসংখ্যক	-13377
▁কেইদিনমানৰ	-13378
▁কেইবাহাজাৰ	-13379
▁কেলেণ্ডাৰৰ	-13380
▁কৌণ্ডিন্যই	-13381
▁ক্ষতিপূৰণৰ	-13382
▁কৰ্তৃপক্ষৰ	-13383
▁খেলুৱৈসুলভ	-13384
▁গ্ৰহণযোগ্য	-13385
▁গ্ৰাহকসকলক	-13386
▁চিত্রনাট্য	-13387
▁চিৰস্থায়ী	-13388
▁চেট্টিনাড়	-13389
▁চেলিব্ৰিটি	-13390
▁ছত্তীশগড়ী	-13391
▁ছোৱালীজনীৰ	-13392
▁জলপ্ৰপাতলৈ	-13393
▁জলবিভাজিকা	-13394
▁দম্পতীহালৰ	-13395
▁দুয়োপক্ষই	-13396
▁দুর্ভিক্ষৰ	-13397
▁দুৰ্ভিক্ষৰ	-13398
▁দ্বৈতসংগীত	-13399
▁ধ্বংসাৱশেষ	-13400
▁নাগার্জুনে	-13401
▁নাহৰফুটুকী	-13402
▁নিয়ন্ত্ৰক	-13403
▁নিয়মাৱলীৰ	-13404
▁নিৰপেক্ষতা	-13405
▁ন্যায়সংগত	-13406
▁ন্যায়ালয়	-13407
▁পণ্ডিতসকলে	-13408
▁পদ্মবিভূষণ	-13409
▁পাটলিপুত্ৰ	-13410
▁পাটলীপুত্র	-13411
▁পুলাকেশিনক	-13412
▁পেৰাম্বলুৰ	-13413
▁প্রতিপক্ষৰ	-13414
▁প্রতিবেদনৰ	-13415
▁প্রত্যাহাৰ	-13416
▁প্রভাৱশালী	-13417
▁প্রমাণপত্র	-13418
▁প্রস্তাৱনা	-13419
▁প্রস্তুতিৰ	-13420
▁প্ৰচেষ্টাৰ	-13421
▁প্ৰতাপৰাওৰ	-13422
▁প্ৰতিনিধিৰ	-13423
▁প্ৰতিপক্ষৰ	-13424
▁প্ৰতিৰক্ষা	-13425
▁প্ৰদানকাৰী	-13426
▁প্ৰদাহজনিত	-13427
▁প্ৰযুক্তিৰ	-13428
▁প্ৰিন্টাৰৰ	-13429
▁পৰিক্ষেত্র	-13430
▁পৰিয়ালটোৰ	-13431
▁বংগোপসাগৰৰ	-13432
▁বাজেয়াপ্ত	-13433
▁বাস্কেটবলৰ	-13434
▁বিকল্পসমূহ	-13435
▁বিষয়সমূহৰ	-13436
▁ব্যক্তিজনৰ	-13437
▁ব্যৱস্থাটো	-13438
▁ব্যৱস্থাপক	-13439
▁ব্ৰেণ্ডটোৰ	-13440
▁বৰ্ণনামূলক	-13441
▁ভিট্ৰিয়াছ	-13442
▁মঙ্গোলসকলক	-13443
▁মঙ্গোলসকলৰ	-13444
▁মাঙ্গালেছা	-13445
▁মাজভাগলৈকে	-13446
▁যিগৰাকীয়ে	-13447
▁যুদ্ধবিৰতি	-13448
▁যোদ্ধাসকলে	-13449
▁লেফটেনেন্ট	-13450
▁শিক্ষাৰ্থী	-13451
▁শীৰ্ষস্থান	-13452
▁শ্ৰেণীবদ্ধ	-13453
▁সংগ্ৰহকাৰী	-13454
▁সংজ্ঞানাশক	-13455
▁সত্যাগ্ৰহৰ	-13456
▁সন্ন্যাসীৰ	-13457
▁সমৰ্থকসকলৰ	-13458
▁সাম্ৰাজ্যক	-13459
▁সিদ্ধান্তত	-13460
▁সিদ্ধান্তৰ	-13461
▁সুবিধাসমূহ	-13462
▁স্নায়ুডাল	-13463
▁সৰ্বকনিষ্ঠ	-13464
▁হাৰিয়ানাই	-13465
▁ৰাজতন্ত্ৰৰ	-13466
▁ৰাজত্বকালৰ	-13467
ছোৱালীকেইটাই	-13468
▁অগ্নিকাণ্ডৰ	-13469
▁অজাতশত্ৰুৱে	-13470
▁অধিনায়কত্ব	-13471
▁অনুপস্থিতিৰ	-13472
▁অনুষ্ঠানটোত	-13473
▁আলেকজেণ্ডাৰ	-13474
▁আৰম্ভণিলৈকে	-13475
▁উদ্যোগসমূহৰ	-13476
▁উপাদানসমূহৰ	-13477
▁উপার্জনক্ষম	-13478
▁কান্দাহাৰলৈ	-13479
▁কাৰ্যালয়লৈ	-13480
▁কুতুবুদ্দিন	-13481
▁কেন্দ্রস্থল	-13482
▁কৰিলেহেঁতেন	-13483
▁গ্ৰন্থসমূহৰ	-13484
▁চিন্তাধাৰাৰ	-13485
▁চেকোস্লোভাক	-13486
▁ছিহাবুদ্দিন	-13487
▁ছেপ্তেম্বৰত	-13488
▁ছেৰিঙ্গাপটম	-13489
▁জাৰ্মানীয়ে	-13490
▁ডিষ্টিল্যাৰ	-13491
▁তত্ত্বাৱধান	-13492
▁তীৰ্থযাত্ৰী	-13493
▁তেতিয়ালৈকে	-13494
▁তেলেঙ্গানাৰ	-13495
▁দৃষ্টিভংগীৰ	-13496
▁ধৰ্মান্তৰিত	-13497
▁নিয়ন্ত্ৰণত	-13498
▁নিয়ন্ত্ৰণৰ	-13499
▁নিয়মীয়াকৈ	-13500
▁ন্যায়াধীশে	-13501
▁ন্যায়ালয়ত	-13502
▁পদ্মভূষণেৰে	-13503
▁পাঞ্চোলীয়ে	-13504
▁পুনৰুদ্ধাৰৰ	-13505
▁পূৰ্বপুৰুষৰ	-13506
▁পেৰালিম্পিক	-13507
▁প্রতিষ্ঠাতা	-13508
▁প্ৰতিক্ৰিয়	-13509
▁প্ৰত্যাহাৰৰ	-13510
▁প্ৰৱেশদ্বাৰ	-13511
▁পৰামর্শদাতা	-13512
▁পৰীক্ষাগাৰৰ	-13513
▁বিস্তৃতভাৱে	-13514
▁ব্যক্তিসকলক	-13515
▁ব্যক্তিসকলে	-13516
▁ভাৰতীয়সকলৰ	-13517
▁ভিট্ৰেক্টমী	-13518
▁মন্দিৰসমূহত	-13519
▁মন্দিৰসমূহৰ	-13520
▁মাউণ্টবেটেন	-13521
▁মালয়েছিয়া	-13522
▁মিত্ৰশক্তিৰ	-13523
▁মুছলমানসকলে	-13524
▁মৃত্যুদণ্ডৰ	-13525
▁যেতিয়ালৈকে	-13526
▁শল্যচিকিৎসক	-13527
▁ষ্টেডিয়ামত	-13528
▁ষ্টেণ্ডাৰ্ড	-13529
▁সংবেদনাত্মক	-13530
▁সংস্থাসমূহৰ	-13531
▁সহকৰ্মীসকলে	-13532
▁সাময়িকভাৱে	-13533
▁সামাজিকভাৱে	-13534
▁সাম্রাজ্যখন	-13535
▁সাম্ৰাজ্যখন	-13536
▁স্নাতকোত্তৰ	-13537
▁স্মৃতিশক্তি	-13538
▁সৰ্বভাৰতীয়	-13539
▁হত্যাকাণ্ডৰ	-13540
▁ৰিপাব্লিকান	-13541
ডেফিচিয়েন্সি	-13542
▁অভিযান্ত্ৰিক	-13543
▁অস্থায়ীভাৱে	-13544
▁ইচ্ছাকৃতভাৱে	-13545
▁উচ্চাকাংক্ষা	-13546
▁এপেণ্ডিক্সটো	-13547
▁এয়াৰলাইন্সৰ	-13548
▁কল্পনাস্বৰমৰ	-13549
▁কীৰ্তিবৰ্মনৰ	-13550
▁গৰিষ্ঠসংখ্যক	-13551
▁চন্দ্রগুপ্তক	-13552
▁চন্দ্ৰগুপ্তই	-13553
▁ছুইজাৰলেণ্ডৰ	-13554
▁জিমনাষ্টসকলে	-13555
▁টুৰ্নামেণ্টত	-13556
▁তীৰ্থযাত্ৰীৰ	-13557
▁দ্বিতীয়বাৰৰ	-13558
▁নির্মাতাসকলে	-13559
▁নেতৃস্থানীয়	-13560
▁প্রত্যাহ্বান	-13561
▁প্ৰাথমিকভাৱে	-13562
▁প্ৰৱেশাধিকাৰ	-13563
▁বাদ্যযন্ত্ৰৰ	-13564
▁বাসিন্দাসকলে	-13565
▁বিচ্ছিন্নতাৰ	-13566
▁ব্যৱস্থাসমূহ	-13567
▁ভুক্তভোগীয়ে	-13568
▁মৰণোত্তৰভাৱে	-13569
▁লক্ষ্যভ্ৰষ্ট	-13570
▁শিলালিপিবোৰে	-13571
▁শ্বেয়াৰসমূহ	-13572
▁সংগীতজ্ঞসকলক	-13573
▁সঞ্চালকালয়ত	-13574
▁সম্পূর্ণৰূপে	-13575
▁সহানুভূতিশীল	-13576
▁সামগ্রিকভাৱে	-13577
▁সামগ্ৰিকভাৱে	-13578
▁স্বত্বাধিকাৰ	-13579
▁ৰহস্যজনকভাৱে	-13580
▁অত্যাৱশ্যকীয়	-13581
▁অভিনেত্ৰীসকলৰ	-13582
▁অষ্ট্ৰেলিয়াই	-13583
▁ইণ্ডোনেছিয়াৰ	-13584
▁ইতিহাসবিদসকলৰ	-13585
▁জিমনাষ্টিক্সৰ	-13586
▁ধাৰাবাহিকভাৱে	-13587
▁পুনঃপ্ৰতিষ্ঠা	-13588
▁পূৰ্বসূৰীসকলৰ	-13589
▁প্ৰতিবেদনসমূহ	-13590
▁প্ৰতিযোগীসকলৰ	-13591
▁বিনামূলীয়াকৈ	-13592
▁ব্যৱস্থাসমূহৰ	-13593
▁ভুক্তভোগীসকলক	-13594
▁মুক্তিপ্রাপ্ত	-13595
▁যুদ্ধক্ষেত্ৰত	-13596
▁সংগীতানুষ্ঠান	-13597
▁সাম্প্ৰদায়িক	-13598
▁সাম্ৰাজ্যবাদী	-13599
▁সুবিধাপ্ৰাপ্ত	-13600
▁ইণ্টাৰনেশ্যনেল	-13601
▁বিষ্ণুকুণ্ডিনা	-13602
▁সঞ্চালকমণ্ডলীৰ	-13603
▁ধ্বনিতীক্ষ্ণতাৰ	-13604
▁প্ৰতিদ্বন্দ্বীৰ	-13605
▁প্ৰতিষ্ঠানসমূহে	-13606
▁প্ৰত্যক্ষদৰ্শীৰ	-13607
ঁই	-13608
ঁট	-13609
ংখ	-13610
অট	-13611
অপ	-13612
অৰ	-13613
আত	-13614
আদ	-13615
আফ	-13616
উই	-13617
উক	-13618
উছ	-13619
উন	-13620
উপ	-13621
এচ	-13622
ওফ	-13623
কছ	-13624
কূ	-13625
গং	-13626
গজ	-13627
গী	-13628
জম	-13629
জৈ	-13630
টছ	-13631
ঠন	-13632
ডম	-13633
ড্	-13634
ণহ	-13635
থু	-13636
দব	-13637
নং	-13638
নছ	-13639
নজ	-13640
নব	-13641
পক	-13642
বস	-13643
ভম	-13644
ভু	-13645
ভো	-13646
মণ	-13647
মৃ	-13648
যি	-13649
শম	-13650
ষী	-13651
সল	-13652
হম	-13653
ীষ	-13654
ুড	-13655
ুষ	-13656
োং	-13657
০৬	-13658
০৯	-13659
১১	-13660
১৪	-13661
১ৰ	-13662
২৩	-13663
৫৪	-13664
৬০	-13665
৬৬	-13666
৭১	-13667
৭৬	-13668
৭৮	-13669
৮৫	-13670
৮৭	-13671
৮৯	-13672
৯১	-13673
৯৭	-13674
’.	-13675
,""	-13676
ঁড়	-13677
ঁৰা	-13678
ংগত	-13679
ংসী	-13680
অতি	-13681
অভি	-13682
আমি	-13683
আৰু	-13684
আৰ্	-13685
ইকে	-13686
উমৰ	-13687
উৎস	-13688
এআই	-13689
একে	-13690
এজন	-13691
ওড়	-13692
কাক	-13693
কাপ	-13694
কাম	-13695
কিং	-13696
কেত	-13697
কেশ	-13698
ক্ড	-13699
শঃ	-13700
কৰৰ	-13701
খান	-13702
খিল	-13703
খেল	-13704
খোজ	-13705
গছত	-13706
গছৰ	-13707
গাছ	-13708
গাল	-13709
গিক	-13710
গীৰ	-13711
গুড	-13712
গেছ	-13713
ঘ্ৰ	-13714
ঘৰত	-13715
ঙটো	-13716
ঙলৈ	-13717
ঙেই	-13718
চহৰ	-13719
চান	-13720
চেক	-13721
চেন	-13722
চেল	-13723
চৰত	-13724
চৰি	-13725
ছলৈ	-13726
ছিৰ	-13727
ছেৰ	-13728
জনী	-13729
জিক	-13730
জিন	-13731
জুই	-13732
জেই	-13733
টনত	-13734
টিউ	-13735
টিপ	-13736
টেক	-13737
টেজ	-13738
ডাম	-13739
ডিং	-13740
ডিউ	-13741
ডিচ	-13742
ডিড	-13743
ডিৰ	-13744
ঢ়ে	-13745
ণীক	-13746
ণীৰ	-13747
ণেই	-13748
তমা	-13749
তুত	-13750
তেজ	-13751
থনৰ	-13752
থাত	-13753
থান	-13754
থিল	-13755
থীব	-13756
থীৰ	-13757
থ্ৰ	-13758
দনৰ	-13759
দলক	-13760
দলত	-13761
দাচ	-13762
দুৰ	-13763
দেন	-13764
ধ্ৰ	-13765
নছৰ	-13766
নমা	-13767
নাউ	-13768
নাদ	-13769
নাভ	-13770
নিঅ	-13771
নিউ	-13772
নিগ	-13773
নিছ	-13774
নিম	-13775
নিয	-13776
নিশ	-13777
নিষ	-13778
নেচ	-13779
নেত	-13780
নৰক	-13781
পদৰ	-13782
পিক	-13783
পিত	-13784
পীৰ	-13785
পুল	-13786
পৰে	-13787
ফলে	-13788
ফিক	-13789
ফেল	-13790
ফোন	-13791
বাক	-13792
বাজ	-13793
বান	-13794
বিক	-13795
বিঘ	-13796
বিচ	-13797
বীত	-13798
বেগ	-13799
)।"	-13800
ঘটৰ	-13801
ফলি	-13802
ভৰি	-13803
মহা	-13804
মাও	-13805
মাধ	-13806
মাহ	-13807
মাৎ	-13808
মিঅ	-13809
মুত	-13810
মেল	-13811
মোক	-13812
ম্ল	-13813
য়ব	-13814
য়ু	-13815
যুৱ	-13816
র্খ	-13817
র্ঘ	-13818
র্ছ	-13819
র্স	-13820
লনে	-13821
লাত	-13822
লান	-13823
লাশ	-13824
লাৱ	-13825
লেখ	-13826
লেম	-13827
ষভম	-13828
ষাণ	-13829
সঙ্	-13830
সজা	-13831
সন্	-13832
সাদ	-13833
সেই	-13834
সৰু	-13835
হকা	-13836
হলৰ	-13837
হাছ	-13838
হাদ	-13839
হাম	-13840
হিক	-13841
হুড	-13842
হোট	-13843
হৰক	-13844
হৰহ	-13845
হৰী	-13846
াঁও	-13847
াইব	-13848
াকক	-13849
াকি	-13850
াকী	-13851
াগী	-13852
াগো	-13853
াজত	-13854
াজা	-13855
াটত	-13856
াটৰ	-13857
াণৰ	-13858
াপূ	-13859
াবা	-13860
ামক	-13861
ামছ	-13862
ামন	-13863
ামু	-13864
াসহ	-13865
াৰম	-13866
িংৰ	-13867
িউচ	-13868
িগো	-13869
িঙে	-13870
িচা	-13871
িচু	-13872
িছো	-13873
িজি	-13874
িটত	-13875
িতৰ	-13876
িলত	-13877
ীকি	-13878
ীমা	-13879
ীৰো	-13880
ুইট	-13881
ুতা	-13882
ুদৰ	-13883
ুপৰ	-13884
ুমৰ	-13885
ুলী	-13886
ুৎস	-13887
ুৰম	-13888
ূপৰ	-13889
ূৰত	-13890
ৃজন	-13891
েইড	-13892
েইপ	-13893
েইৰ	-13894
েশক	-13895
েৰত	-13896
োঁৱ	-13897
োগা	-13898
োচে	-13899
মুদ	-13900
োটত	-13901
োটি	-13902
োবা	-13903
োভি	-13904
োভে	-13905
ৌলা	-13906
্টত	-13907
্টী	-13908
্পা	-13909
্যক	-13910
্যৱ	-13911
্লছ	-13912
্সি	-13913
্ৰল	-13914
ৎহে	-13915
১০০	-13916
২খন	-13917
৩টা	-13918
ৰঙা	-13919
ৰচৰ	-13920
ৰমৰ	-13921
ৰিন	-13922
ৰিৎ	-13923
ৰীৰ	-13924
ৰুৰ	-13925
ৰূপ	-13926
ৰেছ	-13927
ৰেল	-13928
ৰোম	-13929
ৱতম	-13930
ৱাক	-13931
ৱিন	-13932
ৱেই	-13933
ৱেন	-13934
▁অও	-13935
▁অজ	-13936
▁আং	-13937
▁আউ	-13938
▁ইদ	-13939
▁ইপ	-13940
▁উগ	-13941
▁উছ	-13942
▁উন	-13943
▁এচ	-13944
▁এশ	-13945
▁ওছ	-13946
▁ওড	-13947
▁খল	-13948
▁গঁ	-13949
▁গচ	-13950
▁গজ	-13951
▁ঘা	-13952
▁চা	-13953
▁ছফ	-13954
▁ছো	-13955
▁জখ	-13956
▁জব	-13957
▁ডল	-13958
▁তক	-13959
▁দম	-13960
▁ধঁ	-13961
▁ধৈ	-13962
▁নৃ	-13963
▁ফজ	-13964
▁ফা	-13965
▁বং	-13966
▁বখ	-13967
▁মক	-13968
▁মঠ	-13969
▁মথ	-13970
▁মদ	-13971
▁মস	-13972
▁লছ	-13973
▁শৌ	-13974
▁সশ	-13975
▁হব	-13976
▁হৃ	-13977
▁৩৩	-13978
▁৩৮	-13979
▁৩৯	-13980
▁৪১	-13981
▁৫ই	-13982
▁৫৮	-13983
▁৫৯	-13984
▁৭ম	-13985
▁৭১	-13986
▁৭৮	-13987
▁৮ম	-13988
▁৮৩	-13989
▁৯১	-13990
▁ৰছ	-13991
▁ৰড	-13992
▁ৰথ	-13993
▁ৰী	-13994
ঁকুৰ	-13995
ংকাক	-13996
অকুল	-13997
অত্য	-13998
অৰ্থ	-13999
ইছল	-14000
পটৰ	-14001
াছা	-14002
েমে	-14003
▁ঔপ	-14004
আইএছ	-14005
উন্ন	-14006
উল্ল	-14007
এছপি	-14008
এমএছ	-14009
এয়া	-14010
কনিক	-14011
কলিৰ	-14012
কষ্ট	-14013
কালী	-14014
কাৰা	-14015
কিন্	-14016
কৃতি	-14017
কোটা	-14018
কোনো	-14019
ক্ষস	-14020
খল্ল	-14021
গঠিত	-14022
গড়ত	-14023
গানে	-14024
গুণত	-14025
গুণৰ	-14026
ঙ্কি	-14027
চনেল	-14028
চবোৰ	-14029
চলিত	-14030
চাৰি	-14031
চ্চক	-14032
ছতকৈ	-14033
ছফ্ট	-14034
ছালে	-14035
ছাৰে	-14036
ছিছৰ	-14037
ছিৰি	-14038
ছেকে	-14039
জনেই	-14040
জানৰ	-14041
জায়	-14042
ঞ্চম	-14043
ঞ্জু	-14044
টিকৰ	-14045
টোকে	-14046
টোকৈ	-14047
টোকো	-14048
টোপে	-14049
ট্টু	-14050
ঠিৰে	-14051
ড়ীত	-14052
ডাবল	-14053
ডাৰম	-14054
ড্ৰে	-14055
ণ্টত	-14056
ণ্টো	-14057
ণ্ডছ	-14058
ণ্ডম	-14059
তালৰ	-14060
তুকৰ	-14061
তেৰে	-14062
তৰ্ক	-14063
থায়	-14064
থ্যৰ	-14065
দত্ত	-14066
দমিত	-14067
দানত	-14068
দাৰে	-14069
দেশী	-14070
দেৱক	-14071
দেৱী	-14072
দ্দি	-14073
দ্ধৰ	-14074
নতকৈ	-14075
নতুন	-14076
নত্ব	-14077
নিছা	-14078
নীলক	-14079
নীৰে	-14080
ন্ছে	-14081
ন্টৰ	-14082
ন্তন	-14083
ন্থৰ	-14084
ন্দন	-14085
ন্সে	-14086
পতিক	-14087
পথেৰ	-14088
পন্ন	-14089
পাতৰ	-14090
পাৰী	-14091
পুৰম	-14092
পেথী	-14093
পোৰা	-14094
প্তি	-14095
প্ৰদ	-14096
পৰাম	-14097
বক্স	-14098
বছৰত	-14099
আজি	-14100
চিঙ	-14101
জানত	-14102
ঠনিক	-14103
নিকে	-14104
বদাৰ	-14105
বয়স	-14106
বল্ল	-14107
বস্ত	-14108
বাৰক	-14109
বাৰা	-14110
বাৰু	-14111
বাৰ্	-14112
বৰ্ধ	-14113
ভাংশ	-14114
ভাছৰ	-14115
ভাবে	-14116
ভাষী	-14117
ভাৰী	-14118
ভাৰৰ	-14119
ভোৱে	-14120
মালা	-14121
মাৰত	-14122
মোথে	-14123
মোৰত	-14124
ম্পছ	-14125
ম্বী	-14126
য়তে	-14127
য়িত	-14128
য়েও	-14129
র্বল	-14130
র্যৰ	-14131
লোকে	-14132
শাখী	-14133
শীলত	-14134
শীলা	-14135
শেখৰ	-14136
শোৰৰ	-14137
শ্বন	-14138
শ্রে	-14139
সঞ্জ	-14140
সদৃশ	-14141
সমান	-14142
সাৰে	-14143
সুৰৰ	-14144
স্কে	-14145
স্কো	-14146
স্কৰ	-14147
স্তম	-14148
হঁতক	-14149
হজৰত	-14150
হযোগ	-14151
হশ্ব	-14152
হাইৰ	-14153
হালে	-14154
হাৰা	-14155
হিয়	-14156
হিৰো	-14157
হুৱা	-14158
হেৰা	-14159
হ্নৰ	-14160
াইকা	-14161
াউনৰ	-14162
াকিং	-14163
াগড়	-14164
াগতম	-14165
াগৰৰ	-14166
াচলৰ	-14167
াচীৰ	-14168
াজমৰ	-14169
াজৰে	-14170
াটিক	-14171
াটিৰ	-14172
াটোৰ	-14173
াতিৰ	-14174
াতেৰ	-14175
াদান	-14176
াদাস	-14177
াদৱে	-14178
াধিপ	-14179
ানাং	-14180
ানিত	-14181
ানীত	-14182
ানুক	-14183
ানেৰ	-14184
াপাট	-14185
াপিত	-14186
াপৰি	-14187
াবাত	-14188
াবান	-14189
াভেৰ	-14190
ামসা	-14191
ামিক	-14192
ামীক	-14193
াললৈ	-14194
ালাই	-14195
ালাক	-14196
ালিক	-14197
াহিদ	-14198
াৰাত	-14199
ংকজ	-14200
এএচ	-14201
ভেড	-14202
▁৪৫	-14203
▁৫৪	-14204
টেইন	-14205
তুৰি	-14206
দমনে	-14207
দানু	-14208
মাংস	-14209
মুখত	-14210
াৰিঅ	-14211
াৰেৰ	-14212
াৱাট	-14213
িউটৰ	-14214
িকেত	-14215
িক্ৰ	-14216
িগাৰ	-14217
িগ্ন	-14218
িচিন	-14219
িছলৈ	-14220
িটাম	-14221
িটিছ	-14222
িটেক	-14223
িটেড	-14224
িডিং	-14225
িনাছ	-14226
িনিউ	-14227
িনিট	-14228
িপ্ট	-14229
িফেন	-14230
িবাছ	-14231
িবিধ	-14232
িভেট	-14233
িময়	-14234
িমাৰ	-14235
িমিন	-14236
িলাক	-14237
িলেও	-14238
িলেট	-14239
িশাপ	-14240
িশেষ	-14241
িষ্ঠ	-14242
িৰণি	-14243
ীকেই	-14244
ীপাৰ	-14245
ীভূত	-14246
ীমাক	-14247
ীশুৰ	-14248
ীৰাৰ	-14249
ুঁলি	-14250
ুকৰণ	-14251
ুগুৰ	-14252
ুটবা	-14253
ুটাৰ	-14254
ুতিৰ	-14255
ুমাত	-14256
ুমিন	-14257
ুমেহ	-14258
ুলেই	-14259
ুৰুষ	-14260
ৃণাৰ	-14261
ৃতমৰ	-14262
েঁতা	-14263
েচনত	-14264
েঞ্চ	-14265
েটাই	-14266
েট্ৰ	-14267
েদ্য	-14268
েনাই	-14269
েমিং	-14270
েম্প	-14271
েৰিত	-14272
েৰেই	-14273
েৰেন	-14274
েৰেল	-14275
োকৰা	-14276
োচিছ	-14277
োচিত	-14278
োধোৰ	-14279
োপাছ	-14280
োপাৰ	-14281
োপেল	-14282
োহাৰ	-14283
োৱেৰ	-14284
্গাৰ	-14285
্চিল	-14286
্জেন	-14287
্ট্র	-14288
্থান	-14289
্বলি	-14290
্বীৰ	-14291
্মিক	-14292
্যমৰ	-14293
্যাক	-14294
্রমৰ	-14295
্রাত	-14296
্রাৰ	-14297
্লিক	-14298
্ৰমী	-14299
ুপি	-14300
▁৬২	-14301
▁৬৮	-14302
▁৭৩	-14303
▁৭ৰ	-14304
ক্কল	-14305
ক্কৰ	-14306
ট্টা	-14307
ফাইন	-14308
বাইৰ	-14309
মেইল	-14310
শীলন	-14311
িদাৰ	-14312
ুৰিং	-14313
্ৰেন	-14314
১৩০৩	-14315
২০০৯	-14316
ৰতাৰ	-14317
ৰাইন	-14318
ৰাজক	-14319
ৰাজে	-14320
ৰাজৰ	-14321
ৰাধা	-14322
ৰামত	-14323
ৰামে	-14324
ৰালৈ	-14325
ৰাৱত	-14326
ৰাৱে	-14327
ৰিংগ	-14328
ৰিৰি	-14329
ৰুপে	-14330
ৰেদি	-14331
ৰ্খা	-14332
ৰ্জী	-14333
ৰ্ণা	-14334
ৰ্থম	-14335
ৰ্বছ	-14336
ৱস্ত	-14337
ৱালে	-14338
ৱাৰত	-14339
ৱাৰা	-14340
ৱাৰে	-14341
ৱেৰৰ	-14342
ৱৰাই	-14343
▁অচল	-14344
▁অপ্	-14345
▁অসৎ	-14346
▁অহি	-14347
▁অৱহ	-14348
▁আগম	-14349
▁আতি	-14350
▁আবি	-14351
▁আমৰ	-14352
▁আলা	-14353
▁আস্	-14354
▁ইনত	-14355
▁ইনপ	-14356
▁ইম্	-14357
▁ইৰু	-14358
▁উইথ	-14359
▁উর্	-14360
▁উষা	-14361
▁একৰ	-14362
▁এলপ	-14363
▁এলী	-14364
▁ওতঃ	-14365
▁কইন	-14366
▁কাউ	-14367
▁কিজ	-14368
▁কিণ	-14369
▁কিম	-14370
▁কুক	-14371
▁কুদ	-14372
▁কেচ	-14373
▁কেড	-14374
▁কোড	-14375
▁কোপ	-14376
▁কোশ	-14377
▁কৰত	-14378
▁খঙত	-14379
▁খাজ	-14380
▁খাব	-14381
▁খাল	-14382
▁খীৰ	-14383
▁খুজ	-14384
▁খুন	-14385
▁খুৱ	-14386
▁খৰী	-14387
▁গলি	-14388
▁গাল	-14389
▁গিল	-14390
▁গোহ	-14391
▁গৰে	-14392
▁ঘনে	-14393
▁ঘিউ	-14394
▁ঘোপ	-14395
▁ঘোষ	-14396
▁চমক	-14397
▁চমৎ	-14398
▁চাখ	-14399
ভেদ	-14400
মিষ	-14401
ুইং	-14402
কুৰা	-14403
ধর্ম	-14404
লভাৰ	-14405
ূচিত	-14406
▁কৌল	-14407
▁গোখ	-14408
▁চাগ	-14409
▁চাভ	-14410
▁চিএ	-14411
▁চিঠ	-14412
▁চুপ	-14413
▁চুৰ	-14414
▁চেট	-14415
▁ছাঁ	-14416
▁ছিগ	-14417
▁ছিট	-14418
▁ছিৱ	-14419
▁ছুৰ	-14420
▁ছেই	-14421
▁ছেচ	-14422
▁ছেদ	-14423
▁জগৰ	-14424
▁জনত	-14425
▁জনম	-14426
▁জলক	-14427
▁জাক	-14428
▁জাৱ	-14429
▁জিক	-14430
▁জিভ	-14431
▁জেচ	-14432
▁জেছ	-14433
▁জোহ	-14434
▁জৰ্	-14435
▁টকি	-14436
▁টডে	-14437
▁টহল	-14438
▁টাৰ	-14439
▁টিভ	-14440
▁টিল	-14441
▁টুক	-14442
▁টেগ	-14443
▁টেড	-14444
▁টেব	-14445
▁টেল	-14446
▁ট্র	-14447
▁ডিন	-14448
▁ডিপ	-14449
▁ডেড	-14450
▁ডেথ	-14451
▁ডেম	-14452
▁ডেৰ	-14453
▁ঢাপ	-14454
▁ঢৌৰ	-14455
▁তনু	-14456
▁তলি	-14457
▁তলে	-14458
▁তুম	-14459
▁তৈল	-14460
▁তোল	-14461
▁থিক	-14462
▁থিম	-14463
▁দলং	-14464
▁দাশ	-14465
▁দিম	-14466
▁দুঃ	-14467
▁দুট	-14468
▁দৈৱ	-14469
▁দ্র	-14470
▁দৰভ	-14471
▁ধনী	-14472
▁ধাই	-14473
▁ধুই	-14474
▁ধুৱ	-14475
▁ধেম	-14476
▁ধোঁ	-14477
▁ধ্য	-14478
▁নটা	-14479
▁নাত	-14480
▁নাথ	-14481
▁নিঃ	-14482
▁নীত	-14483
▁নৃশ	-14484
▁নেজ	-14485
▁নৱা	-14486
▁পকী	-14487
▁পঠন	-14488
▁পাখ	-14489
▁পাভ	-14490
▁পিই	-14491
▁পিচ	-14492
▁পিৰ	-14493
▁পীৰ	-14494
▁পূৱ	-14495
▁পেথ	-14496
▁পেপ	-14497
▁পোখ	-14498
▁পৰশ	-14499
পিড	-14500
আৰএম	-14501
কমাৰ	-14502
কোৰা	-14503
গণনা	-14504
চিআই	-14505
োদনৰ	-14506
▁কনট	-14507
▁চাফ	-14508
▁পশু	-14509
▁ফটা	-14510
▁ফলক	-14511
▁ফাউ	-14512
▁ফাজ	-14513
▁ফেম	-14514
▁বখত	-14515
▁বটল	-14516
▁বদন	-14517
▁ববি	-14518
▁বহে	-14519
▁বাঁ	-14520
▁বাউ	-14521
▁বিছ	-14522
▁বুন	-14523
▁বৃট	-14524
▁বৃষ	-14525
▁বেচ	-14526
▁বেজ	-14527
▁বোন	-14528
▁বৰঙ	-14529
▁বৰফ	-14530
▁বৰা	-14531
▁বৰু	-14532
▁ভাও	-14533
▁ভূগ	-14534
▁ভেচ	-14535
▁ভেষ	-14536
▁ভৈৰ	-14537
▁ভ্ল	-14538
▁মদন	-14539
▁মনচ	-14540
▁মনছ	-14541
▁মন্	-14542
▁মমে	-14543
▁মাউ	-14544
▁মাও	-14545
▁মাঘ	-14546
▁মাণ	-14547
▁মাথ	-14548
▁মুন	-14549
▁মুভ	-14550
▁মেছ	-14551
▁মেৰ	-14552
▁যথা	-14553
▁যমজ	-14554
▁যাজ	-14555
▁যৌথ	-14556
▁লম্	-14557
▁লাচ	-14558
▁লিং	-14559
▁লিছ	-14560
▁লেগ	-14561
▁লেন	-14562
▁লোণ	-14563
▁শাম	-14564
▁শিম	-14565
▁শিষ	-14566
▁শুৱ	-14567
▁শৈল	-14568
▁শোচ	-14569
▁শোভ	-14570
▁সনা	-14571
▁সবা	-14572
▁সমা	-14573
▁সহঃ	-14574
▁সহন	-14575
▁সাউ	-14576
▁সাপ	-14577
▁সাৱ	-14578
▁সুহ	-14579
▁সেও	-14580
▁সৰি	-14581
▁সৱৰ	-14582
▁হলত	-14583
▁হুক	-14584
▁হুপ	-14585
▁হেই	-14586
▁হেন	-14587
▁হোঁ	-14588
▁হোছ	-14589
▁১০২	-14590
▁১০৩	-14591
▁১১৩	-14592
▁১১৭	-14593
▁১২৫	-14594
▁১৪০	-14595
▁১৪৫	-14596
▁১৫৪	-14597
▁১৭২	-14598
▁১৮০	-14599
েজৰ	-14600
ক্রম	-14601
পালক	-14602
ফিৰি	-14603
াংশে	-14604
াডুৰ	-14605
▁নজৰ	-14606
▁পলস	-14607
▁২০৫	-14608
▁২১৮	-14609
▁২৩৯	-14610
▁৪খন	-14611
▁৫খন	-14612
▁৬৭২	-14613
▁৮টা	-14614
▁ৰিগ	-14615
▁ৰিড	-14616
▁ৰেণ	-14617
▁ৰোচ	-14618
▁ৱাজ	-14619
▁ৱান	-14620
ংকাৰী	-14621
ংগফলি	-14622
ংগাৰে	-14623
আদালত	-14624
আফগান	-14625
উত্তৰ	-14626
এনবিএ	-14627
কলাপৰ	-14628
কাঘাত	-14629
কাষ্ট	-14630
কাৰীক	-14631
কেণ্ড	-14632
কেম্প	-14633
কোৱাৰ	-14634
ক্কতা	-14635
ক্কাম	-14636
ক্ষণত	-14637
ক্ষণা	-14638
ক্ষীৰ	-14639
ক্ৰমে	-14640
ক্ৰেট	-14641
কৰ্মী	-14642
খনতকৈ	-14643
খ্যাচ	-14644
গুজাৰ	-14645
গুণ্ড	-14646
চসমূহ	-14647
চান্দ	-14648
চিতাৰ	-14649
চিন্ত	-14650
ছাত্ৰ	-14651
ছাৰ্চ	-14652
জন্তা	-14653
জাতকৰ	-14654
জাহাজ	-14655
জাৰ্ট	-14656
জীয়ে	-14657
ঞ্চিৰ	-14658
ঞ্জনৰ	-14659
ঞ্জান	-14660
ঞ্জাম	-14661
ঞ্জুৰ	-14662
টিয়া	-14663
টিয়ে	-14664
ট্টমৰ	-14665
ণহাইট	-14666
ণ্ডাত	-14667
ণ্ডেই	-14668
তাকাৰ	-14669
তাৰকা	-14670
তিকূল	-14671
ত্ৰিশ	-14672
দায়ে	-14673
দিশাৰ	-14674
দুৰ্গ	-14675
দ্যাত	-14676
নকাৰী	-14677
নাৰ্থ	-14678
নির্ম	-14679
ন্টুৰ	-14680
ন্তুক	-14681
ন্দাৰ	-14682
ন্দৰক	-14683
ন্মান	-14684
ন্সীৰ	-14685
পকোৱা	-14686
পত্তি	-14687
পুৰাৰ	-14688
পুৰীৰ	-14689
পোষণৰ	-14690
প্রতি	-14691
প্লিক	-14692
প্ৰুফ	-14693
প্ৰোত	-14694
ফাণ্ড	-14695
ফাষ্ট	-14696
ফেণ্ট	-14697
বংশিক	-14698
বন্দৰ	-14699
কর্ত	-14700
থোৰা	-14701
পুৰে	-14702
মাইল	-14703
ৃহীত	-14704
োৰাঁ	-14705
োৰাছ	-14706
▁বসু	-14707
▁শৰৎ	-14708
ঠাবোৰ	-14709
পালখন	-14710
বাচ্চ	-14711
বাঞ্ছ	-14712
বাদলৈ	-14713
বাদাৰ	-14714
বাদীৰ	-14715
বানীৰ	-14716
বাহনৰ	-14717
বাৰেই	-14718
বিকাৰ	-14719
বিত্ত	-14720
বিশ্ব	-14721
বেৰীৰ	-14722
ব্রিজ	-14723
বৰ্গক	-14724
ভাজনক	-14725
ভাঞ্চ	-14726
ভাৱান	-14727
ভাৱেই	-14728
ভৰ্তি	-14729
মধ্যম	-14730
মলিকা	-14731
মল্কি	-14732
মাইলৰ	-14733
মানেক	-14734
মাৰাম	-14735
মাৰ্ক	-14736
মিকলন	-14737
মিক্স	-14738
মিস্ত	-14739
মুখ্য	-14740
ম্পীক	-14741
ম্বনৰ	-14742
ম্বিং	-14743
ম্বেৰ	-14744
য়াৰক	-14745
য়াৰে	-14746
যুগ্ম	-14747
র্ত্য	-14748
র্নেল	-14749
র্ল্ড	-14750
লাইনৰ	-14751
ল্লিশ	-14752
শিকাৰ	-14753
শিক্ষ	-14754
শুষ্ক	-14755
শ্বিং	-14756
শ্বৰে	-14757
শ্যনত	-14758
শ্যনৰ	-14759
ষ্টপূ	-14760
ষ্টেৰ	-14761
ষ্ণতা	-14762
সংস্প	-14763
সকললৈ	-14764
সয়িক	-14765
সীমাত	-14766
সীমাৰ	-14767
সৃষ্ট	-14768
সেনাৰ	-14769
স্তিৰ	-14770
স্ত্র	-14771
স্থাত	-14772
স্বৰত	-14773
হাৰ্য	-14774
হিন্দ	-14775
হীয়া	-14776
াইটেল	-14777
াইপোল	-14778
াওকতে	-14779
াকাৰী	-14780
াখিনি	-14781
াগিৰি	-14782
াঞ্চল	-14783
ান্দি	-14784
ান্দে	-14785
াপ্ৰে	-14786
াবাইৰ	-14787
ামণ্ড	-14788
ামেডৰ	-14789
ায়ণত	-14790
ায়নৰ	-14791
ায়াত	-14792
ায়াৰ	-14793
ায়ুন	-14794
ালকোট	-14795
ালিংগ	-14796
াহতিৰ	-14797
াহাৰত	-14798
াৰতকৈ	-14799
এএম	-14800
জীৱন	-14801
দ্রা	-14802
লমেন	-14803
লানি	-14804
▁জগম	-14805
▁তপা	-14806
▁নোভ	-14807
▁ফীড	-14808
ন্ট্ৰ	-14809
পঞ্চম	-14810
হিষ্ণ	-14811
াৰ্ছত	-14812
াৰ্ছে	-14813
াৰ্ছৰ	-14814
াৰ্থৰ	-14815
িংবোৰ	-14816
িকাৰী	-14817
িকেৰে	-14818
িগিৰি	-14819
িচাৰে	-14820
িজসকল	-14821
িটিএফ	-14822
িত্বত	-14823
িদগ্ধ	-14824
িন্নে	-14825
িপিএছ	-14826
িবোৰত	-14827
িমাহৰ	-14828
িয়াঁ	-14829
িয়েক	-14830
িলাৰী	-14831
িলিঙত	-14832
ীক্ষণ	-14833
ুটিৰে	-14834
ুট্টি	-14835
ুমাগল	-14836
ুমাৰৰ	-14837
ুমুখত	-14838
ুল্লা	-14839
ুৱেলত	-14840
েকুৱা	-14841
েলনাউ	-14842
েলেছত	-14843
েশকাৰ	-14844
েৰকোট	-14845
োধৰ্ম	-14846
োপললৈ	-14847
োমুৰা	-14848
্কাৰৰ	-14849
্ডাৰৰ	-14850
্তিকে	-14851
্নপ্ৰ	-14852
্বানৰ	-14853
্মেলা	-14854
্যস্ত	-14855
্য্যৰ	-14856
্রধান	-14857
্রমণত	-14858
্রমিত	-14859
্ৰমিক	-14860
্ৰমিত	-14861
্ৰেচন	-14862
্ৰেয়	-14863
ৰক্ষা	-14864
ৰপুৰৰ	-14865
ৰাপিৰ	-14866
ৰামেন	-14867
ৰালাত	-14868
ৰাল্ড	-14869
ৰিডাৰ	-14870
ৰুকাৰ	-14871
ৰ্জ্য	-14872
ৰ্ডাৰ	-14873
ৰ্য্য	-14874
ৱকোনা	-14875
ৱস্থা	-14876
ৱেষ্ট	-14877
▁অংশক	-14878
▁অডিঅ	-14879
▁অনুজ	-14880
▁অপনে	-14881
▁অপ্র	-14882
▁অফাৰ	-14883
▁অবাধ	-14884
▁অর্ক	-14885
▁অলীক	-14886
▁অসাং	-14887
▁অহৰহ	-14888
▁আইআই	-14889
▁আইটি	-14890
▁আকাং	-14891
▁আগাট	-14892
▁আঘাট	-14893
▁আজাদ	-14894
▁আটলা	-14895
▁আদান	-14896
▁আদিত	-14897
▁আদিব	-14898
▁আধাম	-14899
১২০	-14900
কোছা	-14901
খঙাল	-14902
থালা	-14903
সূচক	-14904
িউডত	-14905
১২০৬	-14906
ৱৰণত	-14907
▁আঠা	-14908
▁কনক	-14909
▁৩২০	-14910
ছালাত	-14911
ডাষ্ট	-14912
বালাৰ	-14913
াম্বা	-14914
্মালা	-14915
▁আঠখন	-14916
▁আধাৰ	-14917
▁আনেক	-14918
▁আন্ন	-14919
▁আপাৰ	-14920
▁আফিম	-14921
▁আবুৰ	-14922
▁আব্ৰ	-14923
▁আম্প	-14924
▁আর্ক	-14925
▁আলমৰ	-14926
▁আলাৱ	-14927
▁আলিব	-14928
▁আলিৰ	-14929
▁আলেজ	-14930
▁আশাত	-14931
▁আশ্চ	-14932
▁আৰবৰ	-14933
▁ইউএই	-14934
▁ইমাদ	-14935
▁ইয়ে	-14936
▁ইস্ত	-14937
▁ইৰাক	-14938
▁উজলি	-14939
▁উঠাৰ	-14940
▁উদাল	-14941
▁উভচৰ	-14942
▁উম্ম	-14943
▁উষ্ট	-14944
▁উৰণৰ	-14945
▁একমত	-14946
▁এছএন	-14947
▁এনএছ	-14948
▁এন্ট	-14949
▁এপ্র	-14950
▁এমাহ	-14951
▁এযোৰ	-14952
▁ওজনৰ	-14953
▁ওৱান	-14954
▁কটাই	-14955
▁কঢ়া	-14956
▁কথাও	-14957
▁কথাছ	-14958
▁কবিক	-14959
▁কমকৈ	-14960
▁কমিক	-14961
▁কলহৰ	-14962
▁কলাভ	-14963
▁কলাস	-14964
▁কাংগ	-14965
▁কাকৰ	-14966
▁কাঢ়	-14967
▁কানহ	-14968
▁কাপত	-14969
▁কাবু	-14970
▁কাবে	-14971
▁কামক	-14972
▁কামা	-14973
▁কালা	-14974
▁কালৰ	-14975
▁কাশী	-14976
▁কাহৰ	-14977
▁কাৰ্	-14978
▁কুকি	-14979
▁কুড়	-14980
▁কুৰু	-14981
▁কোনা	-14982
▁কোষক	-14983
▁কোৰি	-14984
▁কৌলে	-14985
▁কৌৰে	-14986
▁ক্রম	-14987
▁ক্ষী	-14988
▁কৰিও	-14989
▁খনিক	-14990
▁খনিৰ	-14991
▁খলিফ	-14992
▁খুছৰ	-14993
▁খুদা	-14994
▁খেৰে	-14995
▁খোলক	-14996
▁গঞ্জ	-14997
▁গালি	-14998
▁গিলি	-14999
এন১	-15000
শিদ	-15001
নাথন	-15002
নিছৰ	-15003
শৈলী	-15004
্বিদ	-15005
থাৰাম	-15006
দাতাই	-15007
বেদনা	-15008
িপিঙৰ	-15009
ৰলিপি	-15010
▁অগ্র	-15011
▁আজিও	-15012
▁আভাষ	-15013
▁কেটৰ	-15014
▁গীতম	-15015
▁গৃহৰ	-15016
▁গৰুৰ	-15017
▁ঘটিল	-15018
▁ঘনকৈ	-15019
▁চকুক	-15020
▁চত্র	-15021
▁চলাৰ	-15022
▁চাইট	-15023
▁চাইন	-15024
▁চায়	-15025
▁চাৰ্	-15026
▁চিটা	-15027
▁চিৰি	-15028
▁চীনত	-15029
▁চেপা	-15030
▁চোকা	-15031
▁চোটা	-15032
▁চৌদি	-15033
▁চৌৰী	-15034
▁চৰণৰ	-15035
▁ছদ্ম	-15036
▁ছানী	-15037
▁ছালি	-15038
▁ছিংগ	-15039
▁ছুটি	-15040
▁ছেদন	-15041
▁জনবস	-15042
▁জয়ছ	-15043
▁জলডো	-15044
▁জলাল	-15045
▁জানা	-15046
▁জামি	-15047
▁জিতে	-15048
▁জিনৰ	-15049
▁জিৰি	-15050
▁জুইত	-15051
▁জুনা	-15052
▁জুনৰ	-15053
▁জুৱা	-15054
▁জেলত	-15055
▁জেৰা	-15056
▁জোপা	-15057
▁জোৰা	-15058
▁টকিঅ	-15059
▁টনিক	-15060
▁টাইড	-15061
▁টিলা	-15062
▁টুপী	-15063
▁টেনক	-15064
▁টেৰা	-15065
▁টেৰি	-15066
▁টোডি	-15067
▁ঠাইট	-15068
▁ডক্ট	-15069
▁ডাইন	-15070
▁ডুডু	-15071
▁ঢুকি	-15072
▁তথাক	-15073
▁তালত	-15074
▁তালু	-15075
▁তিতি	-15076
▁তুলস	-15077
▁তেজত	-15078
▁তেৱে	-15079
▁তৰ্ক	-15080
▁দখলৰ	-15081
▁দশাৱ	-15082
▁দস্ত	-15083
▁দামত	-15084
▁দামৰ	-15085
▁দাসম	-15086
▁দিবৰ	-15087
▁দিহা	-15088
▁দূৰৰ	-15089
▁দেউল	-15090
▁দেহত	-15091
▁দেহৰ	-15092
▁দেৱা	-15093
▁দৌৰত	-15094
▁দৌৰি	-15095
▁দৰাই	-15096
▁দৰাৰ	-15097
▁ধুৱা	-15098
▁ধোৱা	-15099
ওওও	-15100
গাছি	-15101
তীকী	-15102
াৱতী	-15103
োভিল	-15104
কেইখন	-15105
দ্ৰোণ	-15106
পাৰাই	-15107
পাৰ্চ	-15108
বাজনো	-15109
মালাৰ	-15110
লনাৰৰ	-15111
াহেবৰ	-15112
ৰ্ধ্ব	-15113
ৰ্ভূত	-15114
▁অগতে	-15115
▁গোপন	-15116
▁চীনে	-15117
▁জৰীপ	-15118
▁নক্ষ	-15119
▁নগদী	-15120
▁নগ্ন	-15121
▁নগৰা	-15122
▁নমাই	-15123
▁নমুন	-15124
▁নলীত	-15125
▁নহাৰ	-15126
▁নহৰু	-15127
▁নাগী	-15128
▁নাছি	-15129
▁নাজফ	-15130
▁নানক	-15131
▁নানা	-15132
▁নানী	-15133
▁নানু	-15134
▁নানে	-15135
▁নামো	-15136
▁নিউৰ	-15137
▁পঁয়	-15138
▁পঢ়ে	-15139
▁পতিত	-15140
▁পত্র	-15141
▁পদপথ	-15142
▁পন্ত	-15143
▁পর্ণ	-15144
▁পষেক	-15145
▁পাইক	-15146
▁পাইন	-15147
▁পাকঘ	-15148
▁পাকী	-15149
▁পাচৈ	-15150
▁পাথৰ	-15151
▁পাপৰ	-15152
▁পালু	-15153
▁পাৰা	-15154
▁পাৰৰ	-15155
▁পিকু	-15156
▁পিনি	-15157
▁পিবি	-15158
▁পীটা	-15159
▁পুহি	-15160
▁পেৰি	-15161
▁পোখা	-15162
▁পোতা	-15163
▁প্ৰব	-15164
▁পৰিণ	-15165
▁পৰিপ	-15166
▁ফাইল	-15167
▁ফাৰে	-15168
▁ফাৰ্	-15169
▁ফিটজ	-15170
▁ফিৰি	-15171
▁ফুলে	-15172
▁ফুৰে	-15173
▁ফেৰী	-15174
▁ফ্লু	-15175
▁বংশী	-15176
▁বছৰি	-15177
▁বড়ো	-15178
▁বনাম	-15179
▁বহাৰ	-15180
▁বহিব	-15181
▁বাচি	-15182
▁বাজি	-15183
▁বাদল	-15184
▁বানু	-15185
▁বালু	-15186
▁বিএম	-15187
▁বিজ্	-15188
▁বিনি	-15189
▁বিশৰ	-15190
▁বিৰু	-15191
▁বীটৰ	-15192
▁বুকু	-15193
▁বুছি	-15194
▁বেটন	-15195
▁বেদন	-15196
▁বেনগ	-15197
▁বেলজ	-15198
▁বোজা	-15199
ইউভি	-15200
সেনা	-15201
িমিড	-15202
্তেই	-15203
▁এবড	-15204
▁কটক	-15205
▁হাও	-15206
কাৰাও	-15207
ড্ৰিগ	-15208
পইণ্ট	-15209
র্জনৰ	-15210
লান্স	-15211
লেছাই	-15212
াট্টা	-15213
াহেবে	-15214
▁আসনৰ	-15215
▁গৱেষ	-15216
▁বতৰত	-15217
▁বতৰৰ	-15218
▁বোলা	-15219
▁ব্ৰজ	-15220
▁ব্ৰা	-15221
▁বৰকৈ	-15222
▁বৰ্ড	-15223
▁বৰ্ব	-15224
▁ভগ্ন	-15225
▁ভদ্র	-15226
▁ভদ্ৰ	-15227
▁ভাবক	-15228
▁ভাৰী	-15229
▁ভীমা	-15230
▁ভীষণ	-15231
▁ভোজৰ	-15232
▁ভোটত	-15233
▁ভৱনৰ	-15234
▁মণিৰ	-15235
▁মনাক	-15236
▁মহলা	-15237
▁মহলৰ	-15238
▁মহাশ	-15239
▁মাকৈ	-15240
▁মাকো	-15241
▁মাদক	-15242
▁মানক	-15243
▁মার্	-15244
▁মাৰো	-15245
▁মিলন	-15246
▁মুইজ	-15247
▁মুনি	-15248
▁মূলক	-15249
▁মেনন	-15250
▁মেহত	-15251
▁মোনা	-15252
▁মৰ্ট	-15253
▁মৰ্ম	-15254
▁যজ্ঞ	-15255
▁যাদু	-15256
▁যিতো	-15257
▁যিহৰ	-15258
▁যোগী	-15259
▁যোগে	-15260
▁যোৰা	-15261
▁যৌনা	-15262
▁লকাৰ	-15263
▁লগতো	-15264
▁লচ্চ	-15265
▁লতাৰ	-15266
▁লভ্য	-15267
▁লয়ৰ	-15268
▁লাটা	-15269
▁লাঠি	-15270
▁লালৰ	-15271
▁লিখক	-15272
▁লিটল	-15273
▁লীগে	-15274
▁লীলা	-15275
▁লেভে	-15276
▁লৈকে	-15277
▁লোকো	-15278
▁লোথা	-15279
▁লৰচৰ	-15280
▁শঙ্ক	-15281
▁শহাপ	-15282
▁শিকি	-15283
▁শিকে	-15284
▁শিলত	-15285
▁শিৱক	-15286
▁শোষণ	-15287
▁শ্রো	-15288
▁সংস্	-15289
▁সংৰে	-15290
▁সততে	-15291
▁সত্ৰ	-15292
▁সদাৰ	-15293
▁সদৃশ	-15294
▁সপুত	-15295
▁সমুখ	-15296
▁সানি	-15297
▁সীতা	-15298
▁সুখৰ	-15299
এইচঅ	-15300
মেটত	-15301
▁তৰপ	-15302
আইহোল	-15303
ডিগাল	-15304
দাস্ত	-15305
ৱেইটছ	-15306
▁ইট্স	-15307
▁কাঁহ	-15308
▁কাবৌ	-15309
▁থানম	-15310
▁ববীৰ	-15311
▁বাবদ	-15312
▁সুবি	-15313
▁সুলভ	-15314
▁সুৰজ	-15315
▁সূচী	-15316
▁সেতু	-15317
▁সোধক	-15318
▁স্কো	-15319
▁হবলৈ	-15320
▁হাজং	-15321
▁হাজী	-15322
▁হাড়	-15323
▁হাৰত	-15324
▁হিটৰ	-15325
▁হিষ্	-15326
▁হিৰক	-15327
▁হেৰি	-15328
▁হোছে	-15329
▁হোতা	-15330
▁হৰগো	-15331
▁১০১৮	-15332
▁১১৯২	-15333
▁১২জন	-15334
▁১২তম	-15335
▁১২০০	-15336
▁১৩খন	-15337
▁১৪খন	-15338
▁১৪টা	-15339
▁১৪৯৮	-15340
▁১৫০০	-15341
▁১৫৪০	-15342
▁১৫৪৫	-15343
▁১৫৭২	-15344
▁১৫৮৫	-15345
▁১৬২০	-15346
▁১৬২৬	-15347
▁১৬৩০	-15348
▁১৬৩৩	-15349
▁১৬৫৮	-15350
▁১৬৬৪	-15351
▁১৬৭৮	-15352
▁১৬৮৬	-15353
▁১৬৮৯	-15354
▁১৭৪১	-15355
▁১৭৪৩	-15356
▁১৭৫০	-15357
▁১৭৫৭	-15358
▁১৭৭০	-15359
▁১৭৮৬	-15360
▁১৮৩২	-15361
▁১৮৩৫	-15362
▁১৮৬১	-15363
▁১৮৭০	-15364
▁১৮৯০	-15365
▁১৮৯২	-15366
▁১৮৯৫	-15367
▁১৯টা	-15368
▁১৯০০	-15369
▁১৯০১	-15370
▁১৯০৭	-15371
▁১৯১৫	-15372
▁১৯১৯	-15373
▁১৯২০	-15374
▁১৯৩১	-15375
▁১৯৪৩	-15376
▁১৯৬৫	-15377
▁২০টা	-15378
▁২১জন	-15379
▁২১তম	-15380
▁২২খন	-15381
▁২৩খন	-15382
▁২৩টা	-15383
▁২৭টা	-15384
▁৩০খন	-15385
▁৩০টা	-15386
▁৪০টা	-15387
▁৪৮খন	-15388
[...]
